{"\u2581conten": 18088, "\u092c\u0947\u0930\u094b\u091c": 42694, "\u2581Ligue": 19368, "\u2581tutorial": 25941, "##\u0924\u094d\u0930\u094b\u0902": 43682, "##\u0915\u0942": 36073, "\u0905\u0938\u0902": 45133, "\u2581vue": 15924, "\u2581dell": 9792, "##\u0935\u093f\u0921": 49940, "\u0915\u0948\u0930": 45050, "\u2581G\u00f6": 19001, "\u2581andra": 17128, "##sung": 45410, "\u0915\u093c\u093e\u0928\u0942\u0928": 48799, "\u0926\u093e\u090a": 39452, "\u2581\u043d\u0430\u0437\u043d\u0430": 6539, "\u91ce": 19453, "\u2581Extern": 26927, "\u092a\u093e\u0920\u094d\u092f\u0915\u094d\u0930\u092e\u094b\u0902": 46721, "\u0911\u0938\u094d\u0915\u0930": 42279, "\u0924\u0947\u0930\u093e": 33201, "\u2581thermal": 8793, "\u2581nim": 686, "\u2581LL": 5088, "##\u0930\u094d\u0935": 49836, "\u0915\u0930\u0941\u0923": 37923, "\uf3fb": 49679, "\u2581\u043c\u043e": 6249, "\u0935\u093f\u0938\u094d\u0924\u093e\u0930\u093f\u0924": 33630, "##\ufea8": 33425, "\u0939\u0930\u093e\u0915\u0930": 37791, "\u0936\u093f\u0936\u0941": 38152, "\u5168": 15143, "\u0917\u0930\u094d\u0935": 42872, "\u2581tener": 12853, "\u2581\u0414\u043b\u044f": 20499, "\u2581css": 8109, "\u0905\u091a\u094d\u091b": 49799, "\u2581\u0440\u0456\u0437": 10392, "\u092c\u093e\u0932\u0915": 45712, "'))": 14281, "##\u093e\u0932\u094b\u0902": 43544, "\u2581disp": 21208, "\u0935\u093f\u092d\u093e\u091c\u0928": 43362, "\u0938\u0928\u0940": 36331, "\u0932\u093f\u0902\u0917": 32112, "\u2581classification": 18055, "gl": 29462, "\u0938\u0940\u0935\u0940": 50301, "\u0932\u093f\u0902\u0915": 43329, "\u2581\u0443\u0441": 15358, "\u092a\u0902\u0925": 49039, "jou": 28334, "\u2581observation": 12903, "\u092e\u093f\u091c\u094b\u0930\u092e": 42390, "\u092c\u0941\u0932\u093e\u0908": 33365, ".-": 19753, "\u092d\u093e\u0930\u0940": 47758, "\u2581her": 15971, "\u0905\u0926\u094d\u0935": 47185, "\u092e\u0939\u0947\u0928\u094d\u0926\u094d\u0930": 32807, "\u092c\u0947\u0936\u0915": 37596, "##\u0915\u0915\u094d\u0937": 47868, "##\u0937\u094d\u0920\u093e": 44607, "\u89c6": 7646, "norm": 9955, "\u0905\u0935\u0917\u0924": 45108, "\u0327": 35123, "##\u121a": 47329, "\u0917\u0923\u0947\u0936": 45808, "##\u0915\u094d\u0930\u093e\u092b\u094d\u091f": 37128, "\u2581are": 14452, "\u0921\u092c\u0932": 44788, "##\u0917\u0923\u0928\u093e": 39919, "\u10e8": 10565, "\u0906\u0936\u092f": 44290, "\u0926\u093e\u0939": 32218, "\u0164": 8499, "rost": 9293, "\u2581prison": 30507, "##\u0ac3": 35683, "\u0907\u0902\u091f\u0930\u0928\u0932": 42571, "\u2581Cap": 14812, "\u2581Paz": 6785, "\u2581\u0434\u0440\u0443\u0433\u043e": 21761, "##\u093f\u0921": 41400, "Har": 13926, "\u092c\u093f\u0917\u093e\u0921\u093c": 48120, "gas": 7821, "\u2581referenced": 10540, "\u2581\u0432\u0442\u043e\u0440\u043e\u0439": 6617, "\u2581lance": 5367, "\u043a\u043e\u043d\u043e\u043c\u0456": 9652, "\u0930\u0939\u0940": 42157, "\u230a": 43463, "\u2581Jug": 12946, "\u2581representing": 7323, "##\u0924\u093e\u0902\u0924\u094d\u0930\u093f\u0915": 43852, "\u2581musicale": 22586, "\u1102": 49925, "##\u0915\u093e\u0928": 46645, "\u0935\u094d\u0939\u093e\u091f\u094d\u0938": 35267, "\u2581sau": 10574, "\u2581Pierre": 1880, "##\u092c\u094d\u092c\u093e": 46590, "\u80a1": 38791, "\u2581spel": 2788, "Content": 20769, "\u2581Lit": 19933, "\u2581a": 25581, "\u0440\u0435\u043c\u0435\u043d": 31947, "\uff11": 5977, "##\u0ab9": 41110, "Flags": 4571, "R": 18180, "\u2581Koh": 15874, "\u0935\u0915\u0940": 38486, "\u2581flow": 5600, "Img": 24983, "\u2581ora": 1752, "\u2581suc": 13541, "\u20aa": 37740, "ois": 10180, "##\u0941\u092a": 33126, "\u043d\u0438\u0447\u0435": 15736, "\u0938\u0942\u0915\u094d\u0937\u094d\u092e": 37860, "##\u0935\u093e": 47714, "\u2581mu": 3896, "HA": 8215, "contrib": 30856, "enas": 19818, "##\ud835\ude02": 42311, "urb": 20687, "##\u539f": 42542, "layer": 5457, "\u2581ll": 25322, "\u0932\u093f\u0916\u0924\u0947": 46790, "\u0921\u093e\u0932\u0930": 32472, "\u092a\u094d\u0930\u091a\u0941\u0930": 35425, "\u2581\u00e1": 18628, "\u30d3": 29640, "\u2581discrete": 23175, "icus": 2893, "Transport": 31831, "pr": 14580, "\u9752": 15861, "##\u5761": 36433, "Nothing": 1299, "\u2581einem": 11171, "Copy": 31912, "\u2581\u0441\u043e\u0432\u0435\u0442": 17242, "iest": 24593, "\u0432\u0440\u0438": 11734, "##\u6240": 50380, "\u092e\u0942\u0932\u094d\u200d\u092f": 46539, "##\u0e2d": 45307, "browser": 12115, "float": 21317, "\u0906\u0907\u090f": 35423, "antics": 7074, "\u2581ehemaligen": 2301, "prob": 29676, "band": 18425, "\u2581Ot": 29592, "\u2581inclusion": 22252, "\u0939\u093f\u092b": 50405, "\u2581\u0432\u043c\u0435": 15645, "\u2581Component": 27068, "\u0906\u091c": 48411, "\u2581anche": 24091, "##\u092a\u094d\u0930\u0924\u093f": 40073, "\u2581institution": 203, "\u092d\u0921\u093c\u0915\u093e\u0928\u0947": 43738, "<0x54>": 11579, "\u043d\u0438\u043a\u0438": 23113, "reading": 311, "nja": 21448, "##\u0926": 48608, "BASE": 22255, "<0x64>": 15945, "\u2581INNER": 8280, "\u092c\u0947\u0939\u0926": 35244, "\u0938\u092c\u0915\u093e": 47640, "\u0915\u0930\u0947\u0902": 39169, "prep": 23526, "\u2581jeune": 24922, "\u092a\u091f\u094d\u091f": 38640, "##\u0935\u093e\u0917": 32952, "arded": 17226, "\u2581Statistics": 7272, "\u0905\u0938": 39176, "\u2581Rey": 30818, "Cent": 3847, "\u2581Berlin": 6979, "\u2581hun": 3271, "\u092b\u0940\u0932\u094d\u0921": 47323, "##\u0906\u0930": 36744, "\u00f3b": 5388, "##\u092f\u093e\u092e": 48152, "\u2581sim": 13140, "\u2581simulation": 788, "\u091c\u0941\u091f\u0940": 33160, "antage": 9569, "##iv": 39294, "\u00dfe": 12600, "\u092b\u0947\u0902\u0915": 49264, "\u2581meist": 27155, "\u0926\u094c\u0932\u0924": 45510, "Remote": 30950, "##\u0916\u094d\u0924\u093f\u092f\u093e\u0930": 36526, "\u2581Claud": 28119, "##\u0947\u0936\u0902\u0938": 46762, "##\u0930\u094d\u0917\u0924": 43295, "##\u02cc": 46536, "\u2581Tang": 199, "kom": 15694, "gr": 23082, "\u2581Carlo": 7282, "\u0939\u091c\u093c": 40477, "##\u093e\u0902\u0915\u093f\u0924": 40998, "\u092c\u094b\u0932\u094d\u091f": 40875, "exists": 7544, "\u2581THEN": 3863, "x": 25244, "\u0938\u093f\u0916": 32803, "\u2581fixed": 26117, "\u2581understanding": 14927, "\u2581myth": 19966, "\u2581displayed": 2643, "\u092c\u0924\u093e\u0908": 39705, "\u2581lan\u00e7": 5577, "\u092e\u0928\u093e": 41215, "\u0921\u093f\u0935\u093e\u0907\u0938": 48334, "\ue3f3": 34768, "amenti": 24884, "\u2581publi": 1301, "ude": 25624, "\u9759": 42824, "\u2581Re": 4894, "\u2581concert": 18931, "\u0938\u0941\u0902\u0926\u0930": 48632, "\u0924\u092e\u093f\u0932\u0928\u093e\u0921\u0941": 45339, "\u2581\")": 13275, "\u092c\u0928\u093e\u092e": 44973, "\u0938\u0902\u0924\u0941\u0932\u093f\u0924": 32020, "\u2581apare": 15147, "\u2581Originals": 8803, "<0x12>": 1928, "\u2581statistical": 17415, "\u2581Mountain": 23895, "\u2581EM": 10713, "\u2581quietly": 26723, "\u2581niveau": 2871, "\u092a\u0941\u0930\u093e\u0928\u0947": 46947, "\u2581Glas": 14896, "arga": 29200, "rollers": 28068, "\u2581demand": 4468, "\u2581removed": 5686, "##\u0924\u0940": 37780, "\u0c26": 36495, "\u0938\u094d\u0935\u0924\u0902\u0924\u094d\u0930": 48712, "##\u092b\u0948\u0915\u094d\u091a\u0930": 34446, "<0x71>": 10453, "\u2581Filter": 5480, "char": 4052, "##\u0a83": 34371, "\u2581Este": 3104, "\u2581sho": 19907, "ge": 18026, "\u2581India": 14477, "\u2581increase": 8541, "\u2581wyst": 2343, "\u2581identical": 3260, "\u0930\u0936\u094d\u092e": 38431, "\u2581topics": 10400, "\u2581\u0438\u0433\u0440\u0430": 8717, "\u2581CV": 19678, "\u092a\u094b\u092a": 42229, "##\u0918\u093e\u0924\u0940": 45335, "\u8ba4": 4114, "\u0915\u0924\u0930": 48076, "\u2581conquist": 15615, "\u0905\u0928\u094c": 43167, "chter": 12105, "\u2581empir": 8322, "##\u092c\u0926\u094d\u0927": 43018, "\u0448\u0451\u043b": 11346, "dest": 20100, "\u03b3": 10455, "\u0928\u0947\u092a\u093e\u0932": 36532, "\u2581prue": 31767, "\u0915\u093f\u0924\u093e\u092c\u0947\u0902": 34265, "\u0938\u0902\u0927\u093f": 41160, "\u0935\u091c\u093c\u0939": 47956, "##\u0938\u094d\u0925\u094d\u092f": 42751, "\u2581invol": 28212, "\u2581formerly": 29113, "\u2581przew": 19958, "\u2581vain": 7403, "\u2581tables": 27522, "\u2581categor": 24310, "\u0914\u0938": 44823, "\u0926\u093f\u0936": 34011, "\u2581giorno": 15201, "\u2581Sex": 9303, "oltre": 7554, "\u2581aside": 15509, "\u0151l": 25083, "\u0928\u093f\u0917\u0930": 46788, "\u2581Web": 266, "\u2581perman": 4257, "\u2581skills": 10946, "##\u02c7": 46450, "sect": 23983, "flipkart": 38614, "\u2581expects": 9206, "apping": 9508, "\u092a\u0939\u0941\u0901\u091a\u0928\u0947": 33349, "\u2581assault": 26390, "orr": 11081, "##\u0915\u0943\u0937\u094d\u0923\u0928": 42492, "##\u091f\u094d": 41006, "oca": 31723, "\u091f\u0930\u094d\u0928": 32541, "\u0d85": 40318, "\u2502": 28679, "operation": 65, "search": 746, "ver": 28517, "\u2581management": 8797, "\u092e\u093e\u0928\u0915\u0930": 50268, "\u090c": 46147, "\u2581incl": 11773, "\u2581img": 30310, "\u2581pent": 109, "kele": 18639, "mark": 3842, "\u2581Feder": 13960, "\u0914\u0930\u093c": 34495, "ires": 22622, "\u092a\u0940\u0906\u0908": 46068, "Prefix": 21425, "\u015b": 25032, "ienia": 30657, "##\u0927\u093e\u0930\u0915": 47938, "##\u0930\u094d\u091c": 49943, "\u2581AL": 3845, "\u2581efficiency": 27613, "folk": 19280, "\u2581neither": 28214, "Pers": 7181, "Mal": 20169, "\u092a\u0922\u093c\u0947\u0902": 33847, "##\u0935\u0927\u093e\u0928": 41404, "\u091a\u0902\u0926\u094d\u0930\u093e": 46956, "xmlns": 19268, "\u0938\u092e\u093e\u0927\u093e\u0928": 34926, "\u2581Jordan": 20180, "##\u091a\u0915": 33342, "##\u0935\u0947\u091f": 44908, "\u092a\u093e\u091f\u093f\u0932": 43080, "##\u0d25": 33221, "\u2581remp": 31531, "\u2581dict": 29163, "parameter": 8205, "sak": 24982, "\u0935\u0930\u0928\u093e": 44554, "\u0cae": 49569, "\u2581Album": 24095, "\u2581dock": 15193, "\u0a38": 22835, "t\u00f3": 29572, "incipal": 24791, "umen": 9910, "\u2581assured": 9734, "\u2581bron": 22269, "\u2581Kentucky": 13706, "\u0935\u093f\u0902\u0921\u094b": 46157, "\u2581portug": 9430, "\u00de": 4024, "canvas": 31647, "\u2581\u0441\u0432\u043e\u0435\u0433\u043e": 19087, "\u2581fem": 10497, "##\u092c\u0930\u0940": 45295, "\u0917\u0930\u0940\u092c\u0940": 46663, "\u092e\u093f\u092e\u0940": 40808, "<0x80>": 3009, "\u0938\u0941\u092a\u0930\u0938\u094d\u091f\u093e\u0930": 47911, "Dra": 2716, "\u092a\u094d\u0930\u0938\u0902\u0938\u094d\u200d": 46006, "regex": 6148, "##\u0924\u0947\u092e\u093e\u0932": 48501, "isp": 19386, "\u2581clar": 16064, "infty": 16535, "##\u0926\u0939": 36047, "\u2581\u041e\u0441": 2097, "\u092e\u0947\u0939\u0941\u0932": 39613, "\u092a\u0922\u093c\u0928\u0947": 33217, ">)": 2136, "\u2581Gemeinden": 7077, "\u2581cole": 5322, "\u2581Round": 9268, "\u2581-(": 30682, "##\u0935\u0930\u094d\u0938": 36748, "\u092c\u0922\u093c\u093e\u0924\u093e": 40055, "SD": 2908, "anya": 16398, "\u2581AllMovie": 29157, "Length": 21335, "\u2581books": 19620, "\u2581tried": 23115, "\u2581tan": 3383, "lier": 4319, "\u0906\u0908\u090f\u0938\u0906\u0908": 38607, "ase": 4548, "\u2581lex": 602, "\u092c\u0924\u093e\u0928\u093e": 33716, "\u2581Burn": 10463, "\u092c\u0940\u091c\u093f\u0902\u0917": 41111, "\u0928\u093f\u0932\u0902\u092c\u093f\u0924": 47827, "\u0729": 48960, "##>": 36010, "\u0916\u093e\u0928": 45064, "labels": 19928, "\u2581Security": 27112, "ribuci\u00f3n": 17629, "\u2581db": 7121, "\u2581Austria": 6124, "Props": 7330, "\u226b": 7870, "oor": 28324, "\u092d\u094d\u0930": 50332, "\ubc14": 1642, "\u2581layers": 10415, "\u2581extern": 18294, "hibernate": 28131, "\u2581arist": 7283, "\u0917\u093c\u0932": 44335, "\u2581Ald": 15555, "VAL": 31982, "\u2581Mal": 18503, "\u2581soldier": 22784, "\u0936\u094d\u0930\u0947": 43964, "structor": 22291, "\u2581depart": 9956, "manual": 16621, "\u0930\u094b\u091c\u093c\u0940": 42238, "rics": 5826, "elli": 20828, "connect": 379, "\u0918\u0928\u093f\u0937\u094d\u0920": 48202, "\u2581Ru": 1007, "\u2581economy": 4191, "\u092e\u094c\u091c\u0942\u0926\u093e": 38402, "\u2581myst": 21492, "\u0932\u0949\u0928\u094d\u091a": 48024, "\u2581extremely": 8666, "\u0916\u0942\u092c\u0938\u0942\u0930\u0924": 50044, "--\"": 22170, "##\u0930\u093f\u092f\u093e": 36160, "\u2581fragments": 19175, "\u2581NASA": 5408, "##\u0906\u0908\u091f\u0940": 50740, "\u0939\u0901": 47928, "\u2581Dies": 25748, "\u0938\u0948\u0930": 37836, "\u0448\u0430\u044f": 21968, "\u0909\u0926\u094d\u0918\u093e\u091f\u0928": 32077, "\u0932\u094c\u091f\u0928\u0947": 32445, "\u2581Children": 16703, "##\u0947\u091f\u0940": 41805, "\u2581Free": 14126, "\u2581Pop": 22894, "fon": 20139, "LT": 31989, "\u092b\u0940\u0938": 47512, "\u092f\u094b\u0917\u094d\u092f": 47144, "\u031b": 50565, "\u092e\u0928\u0941\u0937": 35383, "\u2581Situ": 2982, "'.$": 28384, "her": 3224, "\u0ba8": 9547, "\u0932\u0940\u0921": 35739, "##har": 37721, "ULT": 31609, "\u2581COL": 538, "\u2581Liv": 22524, "och": 22140, "\u2581alco": 12348, "Tab": 20053, "\u2581Protest": 21932, "\u7f85": 933, "##\u0928\u094d\u200d\u0928\u093e": 34154, "\u2581Pro": 2748, "\u092c\u094b": 50225, "\u2581\u043f\u0440\u043e\u0434": 8678, "--------": 17487, "IP": 2814, "\u092c\u0941\u091c\u0941\u0930\u094d\u0917": 38788, "\u2581really": 16855, "\u2581\u0432\u043e\u0437": 22228, "##\u094d\u0935\u0940\u092a": 49900, "<0xE0>": 8455, "\u2581\u0432\u043b\u0430\u0441\u0442\u0438": 2031, "##if": 35035, "ogram": 25370, "\u0939\u0948": 48020, "Saint": 10425, "\u2581Sep": 20058, "\u092e\u0948\u0902\u0928\u0947": 46083, "\u02b9": 27375, "\u091a\u0930\u092e": 36912, "##ant": 50031, "##\u090f\u0902\u0921": 44149, "\u2581Ford": 31928, "##\u2060": 44414, "##\u0572": 36338, "\u4ed8": 18407, "\u2581letzten": 12961, "\u53f7": 24257, "\u0915\u093c\u093f": 45704, "##\u093f\u0930\u094d\u092e": 32989, "\u092c\u093e\u0918": 49859, "\"),": 5799, "##\u0915\u0932\u094d\u092a": 44223, "\u0939\u093f\u0938\u094d": 39247, "ON": 29966, "\u092e\u0938\u094d\u0924\u093f": 48437, "\u2581bands": 5660, "eding": 7423, "\u2581French": 12519, "\u2581Phys": 13490, "\u2581filter": 2395, "##\u6a5f": 35982, "\u0935\u093f\u0928\u094d\u092f\u093e\u0938": 50241, "\u2581argued": 26035, "\u092a\u094d\u0930\u0938\u094d\u200d\u0924\u0941\u0924": 49388, "odge": 7704, "\u2581Peru": 23520, "\u2581experimental": 18042, "\u2581Excel": 1850, "\u2581enable": 6108, "\u062c": 24608, "\u2581Trop": 27979, "\u0388": 1710, "////": 4635, "\u2581Entertainment": 7360, "\u0921\u0940\u0906\u0930\u0921\u0940\u0913": 33814, "\u2581il": 11606, "^+": 25613, "\u2375": 18004, "\u0b3e": 36821, "borg": 31040, "##\u0939\u093e\u0928\u093e": 34008, "\u2581OF": 14928, "\u2581window": 30733, "eso": 18113, "\u03ba": 21496, "\u2581Most": 20589, "\u00fchrt": 29931, "\u2581\u0430\u0434": 27421, "\u2581merchant": 23230, "\u2581Mort": 18708, "\u0926\u093e\u092f": 49579, "\u2581Nad": 13689, "\u092e\u093e\u0928\u0928\u093e": 33569, "\u091f\u093f\u092a\u094d\u092a\u0923\u093f\u092f\u093e\u0902": 46665, "urs": 11240, "star": 20714, "\u0928\u093f\u092a\u091f\u093e\u0928": 34714, "\u2581\u2013": 6414, "\u091c\u0930\u094d\u0938\u0940": 45548, "\u099e": 39142, "##\u0938\u092e\u094d\u092e": 49114, "##\u7d93": 43562, "##\u0915\u094d\u200d\u0924\u093f": 42312, "\u0915\u093e\u0902\u0917": 44882, "\u0906\u0907\u092a\u0940\u090f\u0932": 41192, "##\u093f\u0928\u0947\u0902\u091f": 40234, "\uf7e3": 37245, "dom": 24258, "\u0924\u0915": 34542, ")),": 29850, "\u0915\u093e\u0932": 39471, "##\u0aa6": 44956, "\u0926\u0940\u092a\u093f\u0915\u093e": 32565, "\u0938\u093e\u092e\u094d\u0930": 38125, "\u30e0": 10828, "\u0938\u092e\u091d\u094c": 32562, "validation": 11688, "ismo": 30496, "\u2581Science": 20090, "\u2581English": 18321, "iva": 14724, "\u092a\u094d\u0930\u093e\u0925\u092e\u093f\u0915": 42990, ">;": 24227, "\u2581City": 473, "SET": 19878, "\u0915\u093e\u0902\u0938\u094d\u092f": 37367, "\u092c\u093e\u092c\u0924": 49142, "ports": 7917, "PHP": 13148, "\u2581provides": 23826, "\u2581havet": 11008, "\u2581nobles": 8795, "\u2581fresh": 2449, "\u2581wrapping": 5645, "\u039b": 24613, "##\u092b\u094d\u0930": 46505, "##\u2d5b": 33125, "!\\": 5948, "\u0442\u0438\u0435": 20023, "##\u0938\u0947\u0928": 40588, "=\"#": 28939, "Current": 18293, "umar": 14291, "aglia": 2719, "\u091c\u0947\u0928\u0947": 49869, "\u2581found": 2525, "\u2581italiano": 14938, "\u0930\u093e\u091c\u0947": 36603, "arily": 19763, "Iter": 23781, "\u4e0a": 5496, "\u2581feedback": 12744, "##\u092e\u0947\u0915": 49095, "\u0907\u0902\u0924\u091c\u093c\u093e\u0930": 34323, "imate": 3687, "##\u0949": 34555, "\u2581trivial": 27147, "\u2581bridge": 24351, "##\u091a\u093e\u0930\u093f\u092f\u094b\u0902": 34138, "\u2581Sort": 11122, "\u2581posting": 16385, "\u0938\u0902\u0926\u0947\u0939": 47047, "adi": 5687, "\u5728": 15857, "\u00a8": 11775, "ayout": 20401, "rugu": 13841, "hez": 11422, "##\u092a\u0928": 38979, "##\u0938\u0928\u0940": 47338, "\u0915\u0930\u0928\u0947\u0935\u093e\u0932\u0940": 34082, "\u2581streams": 22634, "\u0939\u091f\u093e\u092f\u093e": 36120, "\u2581tensor": 13452, "\ud0c0": 23010, "##\u094d\u200d\u0926\u0940": 34305, "remove": 8845, "\u2581thoughts": 2955, "\u2581pam": 28062, "\u2581Denkmal": 24881, "\u0928\u0921\u093e\u0932": 46696, "col": 8329, "rac": 21214, "\u2581pity": 21973, "\u0909\u0924\u094d\u0938\u0935": 48807, "\u2581diferentes": 11931, "\ud83d\ude02": 43203, "\u092a\u093e\u0930\u093f\u092f\u094b\u0902": 49779, "\u090f\u0923\u094d\u0921": 46532, "non": 13060, "ret": 10640, "\u2581janu\u00e1r": 29336, "\u0935\u093f\u0915\u0947\u091f": 36696, "\u090f\u092f\u0930\u0932\u093e\u0907\u0928": 40920, "\u0938\u0947\u0935\u0915": 48597, "\u2581gol": 9822, "\u0926\u0930\u094d\u0926": 33381, "\u4efb": 8806, "##\u00df": 49291, "grund": 13052, "\u092d\u094d\u0930\u092e": 36479, "\u2581\u043f\u0435\u0440\u0441\u043e\u043d\u0430": 6338, "\u0938\u094d\u0928\u0947": 33279, "##able": 41762, "##\u094d\u092f\u0942\u0928": 37014, "\u0932\u093e\u092f\u0915": 45475, "Bus": 17517, "\u2581hans": 23639, "\u090f\u0921\u0940": 36401, "\u043c\u0435\u043d\u0442": 9462, "\u0d2d": 34403, "##\u0915\u0940\u0928": 42852, "\u2581Roll": 27415, "<0x32>": 16487, "\u2581abandon": 6747, "\u2581italien": 1211, "\u2581\u2581\u2581\u2581\u2581\u2581\u2581\u2581\u2581": 8440, "\u092e\u093f\u0932\u0940": 38603, "\u2581chiesa": 16162, "\u2581many": 22022, "ie\u017c": 940, "\u0915\u0930\u093e\u090f": 39848, "\u2581rg": 23225, "\u2581simpl": 27581, "\u2581\u0413\u043b\u0430\u0432": 4481, "\u3087": 13001, "XX": 854, "##\u092f\u0928\u094b\u0902": 43870, "\u2581ST": 10445, "fort": 25992, "\u2581tamb": 11441, "ien": 20999, "med": 10682, "\u2581condem": 5287, "##\u0915\u094d\u0937": 48040, "mund": 18249, "##\u0924\u0928\u0947": 35398, "\u091c\u0928\u0924\u093e": 32092, "\u2581elementary": 8760, "\u043e\u043d\u0435": 21981, "jt": 19084, "\u0939\u0930\u093f\u0926": 33184, "\u0909\u092a\u092d\u094b\u0915\u094d\u0924\u093e": 42769, "\u092c\u0948": 45261, "\u2581organis": 25655, "\u2581\u0430\u043d\u0442\u0438": 24702, "\u2581hosp": 21999, "\u2581Buen": 5606, "\u2581\u0440\u0435\u0433\u0438": 31323, "\u2581pi\u00f9": 8978, "\u2581Aug": 8489, "\u5858": 40645, "\u2581conform": 31512, "\u2581werd": 1988, "\u0935\u0930\u094d\u0923\u093f\u0924": 49432, "##\u6bd4": 44203, "ustration": 31181, "\u0431\u0435\u0440": 28678, "\u092a\u0941\u0928\u0930\u0941\u0924\u094d\u0925\u093e\u0928": 35042, "\u2581Nr": 19997, "\u2581labels": 28634, "\u0430\u043d\u0430": 25344, "\u2581incre": 17127, "\u2581consid": 7243, "\u2581courts": 4438, "\u2581Issue": 12823, "braio": 2641, "\u2581\u0433\u043e\u0434\u0438": 16907, "\u0905\u0927\u093f\u0938\u0942": 42494, "\u2581\u043a\u043e\u043c": 3234, "ifs": 25813, "\u0915\u0947\u0938\u0940": 49130, "punkt": 7861, "\u0906\u0915\u093e\u0936\u0935\u093e\u0923\u0940": 44006, "\u2581wob": 2184, "\u2581ferro": 6094, "Func": 2145, "\u2581Des": 26183, "\u2581#": 23236, "\u0935\u0939\u093e\u0901": 47488, "\u0da7": 44291, "\u2581Cover": 31952, "\u00e7on": 8723, "\u2581install": 15858, "\u2581sortie": 7179, "\u0938\u0941\u0936": 40511, "##\u0936\u093f\u092a": 36918, "icol": 13529, "\u2581slope": 26409, "\u0939\u093f\u0924\u0927\u093e\u0930\u0915\u094b\u0902": 35999, "abe": 1286, "\u2581\u043c\u0435\u0442\u043e": 23828, "\u2581malloc": 29149, "bury": 16766, "\u2581\u0441\u043c\u0435\u0440": 19860, "@\"": 5870, "\u2581Same": 6831, "##ps": 46534, "\u2581Fall": 16977, "\u0928\u0935\u093e\u0928\u094d\u0935\u0947\u0937\u0923": 40388, "\u2581Abb": 12521, "OM": 18015, "\u0938\u0915": 48078, "\u092f\u0942\u0906\u0908": 47914, "\u2581Wit": 23210, "\u2581Kab": 20457, "\u2581nog": 6793, "esterday": 5696, "\u092c\u0947\u0930\u094b\u091c\u0917\u093e\u0930": 42640, "IND": 9863, "nder": 7565, "\u2581mixture": 20301, "\u0909\u092a\u0926\u0947\u0936": 46245, "##\u0938\u093f\u092e": 35889, "\u0938\u0924\u0939": 45073, "\u0921\u0947\u092c": 41898, "\u043a\u0441\u0438": 17584, "tem": 22438, "\u092a\u0921\u093c\u0928\u0947": 32560, "\u0938\u093e\u0927\u093e\u0930\u0923": 34876, ":#": 1814, "werke": 14463, "\u0936\u093f\u0915\u094d\u0937\u093e": 32609, "iges": 20660, "\u0926\u0930\u094d\u0936\u093e\u0924\u0940": 48417, "\u091c\u092c\u094d\u0924": 45021, "\u0939\u093e\u0901": 35522, "day": 900, "\u2581combinations": 6772, "\u4f7f": 29281, "\u0936\u0915\u094d\u200d\u0924\u093f": 35470, "##\u0930\u094d\u091f": 40683, "\u0935\u0948\u0936\u094d\u0935\u093f\u0915": 44475, "##\u0bb7": 35352, "\u2581radio": 24676, "font": 15017, "\u092c\u0926\u0932\u0928\u0947": 39044, "rf": 24764, "\u0915\u093f": 35291, "inus": 14587, "##\u094c\u0930\u0940": 38512, "\u2581computational": 23369, "repository": 31505, "##\u93e1": 34421, "anc": 6238, "\u2581dtype": 725, "\u2581categor\u00eda": 15775, "\u0448\u043f": 28293, "\u2581derive": 7337, "\u0936\u0941\u0932": 36667, "\u0436\u0435\u043d\u0438\u0435": 2907, "\u0935\u093f\u0915\u094d\u091f\u094b\u0930\u093f\u092f\u093e": 42543, "Code": 1118, "fs": 22366, "ultimo": 6205, "itatea": 30766, "\u0905\u0938\u092e\u0930\u094d\u0925": 38657, "lossen": 2503, "\u092a\u0949\u0907\u0902\u091f": 33965, "\u2581_,": 21104, "\u0935\u093e\u092f": 39684, "\u2581territoire": 28255, "<0xFA>": 6958, "\u2581extract": 10008, "\u2581\u0441\u0442\u0435\u043f\u0435\u043d\u0438": 5787, "cast": 20404, "\u092c\u093e\u0902\u0917\u094d\u200d\u0932\u093e": 41847, "\u0905\u0930\u0936\u0926": 36614, "##\u0942\u0902": 44710, "\u0432\u0435\u0437": 4154, "##\ud83c\udffc": 39957, "\u2581\u0441\u043f\u043e\u0441\u043e\u0431": 11853, "\u0924\u093e\u091c": 49100, "\u2581seines": 6485, "ellen": 26778, "\u2581seconda": 3973, "\u2581v\u00e9g": 12594, "\u2581folk": 7689, "\u0932\u092e\u094d\u092c\u0947": 33857, "\u092f\u0942\u090f": 45650, "\u5c0f": 6609, "\u2103": 50143, "\u2581(?": 17736, "##\u092c\u093e\u0928": 48002, "(\".": 24083, "##\u0935\u093f\u0938": 48440, "\u2581Hessen": 14709, "\u0936\u0930\u0940\u0915": 37409, "\u2581clue": 20098, "isses": 5012, "\u2581Lak": 13950, "\u2581mont": 5242, "\u2581device": 5530, "\u043f\u0440\u0438": 4156, "##.": 48716, "\u2581rum": 9404, "zh": 3344, "\u0441\u0442\u0432\u0443": 26922, "\u0715": 40638, "a\u0142o": 17131, "##\u0902\u092c\u093e": 37041, "\u2581Do": 11943, "\u2022": 26273, "\u2581elim": 8941, "adv": 29360, "\u2581Tras": 1977, "ufen": 12844, "\u0930\u093e\u0937\u094d\u091f\u094d\u0930\u0935\u093e\u0926": 49812, "\u0935\u093e\u0907\u0921": 42152, "\u2581Clar": 22686, "m": 28374, "icrosoft": 27168, "keyword": 12834, "\u2581j\u00fanius": 18766, "\u2581Walk": 8527, "\u0928\u093f\u0930\u094d\u0935\u093e\u091a\u0928": 41512, "##\u2d4f": 43327, "\u0939\u0915\u0940": 42991, "\u0917\u0928\u0940": 41999, "\u2581aspect": 6559, "\u091c\u093e\u0928\u0935\u0930": 37433, "\u0927\u092e\u093e": 49752, "\u0142u\u017c": 31110, "\u00f6t": 29324, "<0x90>": 29750, "##\u093e\u0930\u094d\u0925\u0940": 32342, "\u2581Lost": 2527, "##\u0915\u094d\u0938": 41289, "\u091b\u093e\u092a\u093e": 39066, "\u2581Edge": 23315, "\u2581soup": 25569, "\u0441\u0443\u0442": 14942, "\u092a\u094d\u0930\u0938": 45551, "\u2581pick": 28090, "\u2581correlation": 19415, "\u0930\u093e\u0939\u0941\u0932": 45258, "\u092a\u0930\u094d\u0935\u0924\u0940\u092f": 38262, "\u0939\u0921\u093c\u0924\u093e\u0932": 43483, "Ben": 5518, "\u2581Official": 11385, "\u0935\u093f\u0927\u0935\u093e": 43726, "\u092e\u0948": 50773, "\u2581Part": 13240, "\u2581producing": 1391, "\u0938\u093f\u0938": 47394, "\u2581usage": 22590, "\u092a\u0948\u0930\u093e": 35500, "\u2581\u0440\u0443\u0441": 13624, "led": 8742, "gebracht": 12893, "\u2581Sach": 28258, "\u2581Jersey": 23008, "##\u0935\u094b": 38197, "##ici": 47270, "\u0917\u0941\u0923\u0935\u0924\u094d\u200d\u0924\u093e": 32276, "\u092a\u0930\u093f\u0937": 48004, "##\u092c\u0942\u0932": 49622, "Html": 7593, "ruption": 29467, "\u2581allow": 26705, "\u0445\u0443": 6286, "##\u0952": 46643, "\u2581sni": 11481, "(:": 26131, "<-": 21032, "\u2581Palest": 7111, "\u0a82": 36929, "\u092a\u0921\u093c\u093e": 32602, "##\u0924\u0930": 32185, "userId": 14694, "\u2581grep": 15331, "\u2581marker": 17147, "\u2581bande": 31992, "\u0917\u0941\u0930\u0926\u093e\u0938\u092a\u0941\u0930": 47194, "\u2581Journal": 14315, "\u0d36": 1992, "\u982d": 8032, "\u0936\u093f\u0928\u093e": 43785, "\u0907\u0928\u092a\u0941\u091f": 38001, "\u2581error": 16677, "double": 4093, "\u2581doi": 6109, "\u2581interess": 11447, "\u2581mighty": 7072, "\ubd80": 1617, "afka": 9370, "\u0935\u094d\u092f\u0935\u0938\u093e\u092f": 40053, "cco": 10277, "igen": 24644, "<0xB2>": 7637, "Sol": 8091, "nom": 20805, "\u091c\u0930\u094d": 32873, "\u2581dort": 8910, "##\u093e\u092e\u0915": 42428, "\u0449\u0438\u0439": 29057, "\u2581zeigt": 13040, "##\u094c\u092b": 32167, "\u9053": 3264, "\u0917\u0941\u091f\u094b\u0902": 37751, "\u2581passage": 27586, "icano": 22200, "nit": 18592, "\u2581offic": 2190, "\u2581f\u00fchrt": 1846, "\u0926\u0940\u092a\u093e\u0935\u0932\u0940": 49078, "\u2581routing": 27968, "\u2581endpoint": 25762, "##\u0939\u093e\u092f": 34111, "\u0446\u0435": 24510, "\u00c8": 17665, "\u0444\u0440\u0438": 29308, "\u2581\u041e\u0440": 31174, "ht": 23107, "\u2581tweede": 22600, "\u2642": 11112, "\u0939\u093e\u0932\u093e\u0924": 42100, "\u2581ster": 16689, "\u58eb": 11056, "\u091c\u0902\u0917\u0932": 34443, "Collection": 19957, "ebol": 2267, "Autres": 4135, "##\u092a\u0924": 38994, "\u0926\u093f\u0928\u093e\u0902\u0915": 43635, "\u0930\u0923\u0935\u0940\u0930": 43001, "\u2581chars": 25674, "\u2581ste": 9869, "Supp": 13750, "ijo": 31219, "lis": 30119, "life": 12339, "\u2581teles": 3188, "##\uffa0": 46635, "i\u0107": 12786, "\u092b\u094b\u091f\u094b": 35246, "\u0930\u093e\u0935\u0924": 39133, "##\u0b9c": 46369, "\u2581Char": 693, "##\u0902\u0924\u094d\u0930\u0940": 44072, "\u0932\u093f\u0916\u0940": 38777, "\u9673": 15408, "\u00ef": 16470, "\u2581\u0422\u0440\u0435": 26796, "\u0915\u0902\u0915": 45783, "\u0c37": 47836, "\u092c\u093e\u0902\u091f\u0928\u0947": 43471, "\u2581pr\u00e9c": 10332, "\u0938\u094d\u0925\u093f\u0930\u0924\u093e": 46363, "\u0939\u093e\u0932\u093f\u092f\u093e": 46738, "\u2581exclaimed": 4624, "\u2581weap": 13806, "enable": 9433, "\u2581board": 20390, "\u2581\u0434\u0440\u0430": 4590, "\u2581Chicago": 21440, "()),": 456, "\u2581Ren\u00e9": 3558, "\u0e22": 2616, "HER": 832, "\u2581\u043f\u043e\u043b\u0443": 21245, "\u0909\u092a\u0932\u092c\u094d\u0927\u093f": 48570, "\u0917\u094d\u0935\u093e\u0932\u093f\u092f\u0930": 46554, "coron": 38814, "##\u897f": 40791, "\u0906\u0930\u094d\u0925\u093f\u0915": 46894, "\u2581https": 29042, "\u820a": 37375, "osten": 25634, "\u1f74": 2956, "\u2581Pre": 18232, "\u2581Provinz": 12507, "\u0938\u094b\u0938\u093e\u0907\u091f\u0940": 43024, "\u2581Sam": 12576, "\u2581invent": 27026, "\u2581facility": 28577, "\u092a\u0902\u0915\u094d\u0924\u093f": 43900, "onom": 2277, "\u2581firebase": 24826, "\u2581fuera": 9164, "##\u0a21": 35707, "jel": 8998, "\u2581cave": 4305, "fran": 1236, "\u092e\u093e\u092e\u0932\u093e": 44971, "\u090f\u0915\u094d\u091f\u093f\u0935": 41726, "\u2581sal": 5916, "'`": 4575, "\u00e9tico": 10152, "\u0905\u0938\u0939": 47686, "Screen": 13197, "\u2581Philippines": 7714, "\u0939\u0938\u094d\u0924": 35929, "\u2581basically": 27739, "\u2581\u041f\u0435\u0440\u0435": 21612, "\ud83d\ude00": 42980, "\u092c\u094b\u091d": 38972, "##\u0930\u0947\u092a": 39632, "\u2581replied": 2331, "\u2581longest": 12306, "\u2581ignored": 12098, "\u251c\u2500\u2500": 24186, "\u091c\u093c\u093e\u0932\u093f\u092e": 35176, "\u043d\u0456\u0441\u0442\u044c": 20015, "umm": 8556, "##\u0915\u0930\u094d\u0923\u0940": 43074, "\u2581\u0443\u043d\u0456": 11926, "\u090f\u0915\u092e\u093e\u0924\u094d\u0930": 34123, "\u0938\u0902\u0917\u094d\u0930\u0939\u093e\u0932\u092f": 35347, "osis": 8248, "\u2581circle": 1946, "##\u0902\u0924\u094d\u0930\u093f\u0915": 39255, "\u00e1tum": 4524, "\u2581converting": 22939, "\u2581bulk": 6915, "opus": 24792, "prop": 23355, "\uc5d0": 10547, "\u2581Build": 25123, ")?": 27852, "\u0928\u0948\u0926\u093e\u0928": 33509, "\u0917\u093f\u0932\u093e\u0928\u0940": 35041, "##\u094b\u0939\u093f\u0924": 36446, "\u2581Pav": 5718, "\u0905\u092a\u0936\u093f\u0937\u094d\u091f": 42258, "\u043d\u0438\u043d": 2299, "\u092e\u0941\u0915\u093c\u0930\u094d\u0930\u0930": 45214, "\u092d\u093e\u0930\u0924\u0940": 47693, "cel": 26774, "\u0905\u093e": 39809, "\u05d5": 10639, "##\u0941\u092e\u093e": 36312, "##\u092c\u0942\u0924": 42119, "##\u0e34": 40490, "\u0905\u0928\u0941\u0936": 45349, "\u0935\u0949\u091f": 34508, "##\u093e\u0930\u094b\u0902": 36763, "(\"/": 9580, "\u092b\u094d\u0932\u093e\u0907\u091f": 33863, "\u0b95": 27322, "\u2581\u0427\u0430": 7531, "##\u0e20": 40764, "\u2581\u041d\u043e\u0440": 22043, "LENG": 19356, "\u092a\u094d\u0930\u0926\u0930\u094d\u0936\u0928\u0915\u093e\u0930\u093f\u092f\u094b\u0902": 49009, "[^": 10929, "\u2581Gun": 10254, "\u2581react": 7073, "\u2581zes": 1873, "\u0917\u0947\u0902\u0926\u094b\u0902": 34481, "unch": 30522, "pine": 30608, "\u68b0": 39140, "\u0581": 20694, "]['": 378, "##\u0917\u094c\u0921\u093c\u093e": 33138, "##\u092c\u0930": 48766, "\u2581\u043c\u0435\u0441\u0442": 10965, "\u2581dz": 20840, "\u2581activation": 24529, "\u2581fall": 31212, "vic": 18170, "\u2581channel": 28078, "HH": 6387, "\u043a\u0438\u0435": 28048, "\u091b\u0942": 45558, "atively": 16530, "\u091c\u093e\u090f": 38106, "\u2581business": 22771, "\u0932\u0940\u091c\u093f\u090f": 41883, "\u0927\u094d\u0935\u091c": 44827, "\uef9c": 36055, "tele": 12695, "\u092c\u0902\u0917\u093e\u0932": 33181, "\u2581\u043c\u0435\u043d\u0435": 17215, "\u2581accurate": 15963, "##\u0902\u0926\u093e": 34969, "\u2581modules": 9860, "\u2581river": 22264, "\u091a\u0947\u0932": 49616, "\ud83d\udc93": 45794, "##\u0930\u093f\u0936": 46631, "adores": 7983, "\u00e4nd": 8309, "\ud802\udc55": 49847, "\u2581trans": 23582, "ground": 11556, "\u2581Baseball": 31811, "\u044a\u043d": 31262, "\u2581ships": 23616, "\u2581default": 21445, "##ber": 40792, "\u2581formed": 24834, "jection": 20550, "##\u77b3": 49170, "\u2581training": 6062, "\u0938\u093f\u092e": 45757, "##\u093f\u092b": 37872, "vy": 26337, "\u0930\u0939\u093f\u0924": 38845, "iony": 23705, "\u00f6ff": 14344, "\u091c\u093e\u0928\u092c\u0942\u091d\u0915\u0930": 49394, "\u2581Olympics": 10150, "front": 17393, "\u0440\u0435\u0432": 20852, "\u2508": 16668, "Url": 10375, "\u2581rings": 6596, "\u2581secured": 9322, "\u092c\u0948\u0920\u0947": 48144, "\u092a\u094d\u0930\u0924\u0940\u0915": 32688, "\u092e\u093f\u0932": 49595, "\u2581C": 13322, "\u0294": 30134, "\u2581Oriental": 18348, "\u0938\u0928\u094d": 42677, "\u2581Normdaten": 30299, "\u0456\u0441": 11770, "\u0915\u094d\u0930\u094b\u0927": 47435, "mail": 22205, "\u2581citizens": 10421, "\u0935\u0949\u091a": 36105, "##\u798f": 33055, "\u0910\u0932\u093e\u0928": 50700, "opens": 30380, "\u043d\u0456": 26589, "\u2581aantal": 24924, "\u0431\u044b": 27368, "most": 4174, "inate": 24470, "\u0936\u093e\u0930\u0940": 49190, "\u2581END": 2008, "\u2021": 8693, "\u2581desen": 4081, "\u091c\u093e\u0902\u091a": 41592, "\u6ca1": 28380, "\u2581Californ": 321, "\u2581quartier": 28230, "\u0932\u0949\u0917\u093f\u0928": 37146, "\u2581frequent": 25498, "\u0432\u0438\u0430": 6626, "alla": 18670, "\u2581door": 18484, "\u2581Second": 21142, "\u0928\u093f\u0930": 44035, "\u2581\u0441\u0432\u0435": 2457, "\u2581Charlotte": 8330, "\u2581n\u00fa": 29783, "ozz\u00e1": 19213, "\u02bb": 24183, "\u2581gemeente": 14373, "\u0930\u093e\u0938\u094d\u0924\u093e": 46051, "\u2581Dep": 22570, "ipeline": 15223, "\u091a\u0922\u093c\u093e\u0935": 40832, "\u0917\u094b": 47980, "\u092f\u0941\u0917\u0932": 33699, "\u2581\u0442\u0435\u043c\u043f\u0435\u0440\u0430": 1108, "\u756a": 7655, "\u2581zug": 16459, "\u092b\u0921\u0923\u0935\u0940\u0938": 46290, "\u2581determin": 26473, "\u0924\u0941\u092e\u094d\u0939\u093e\u0930\u093e": 40156, "alem": 27877, "\u2581befindet": 11538, "\u7de8": 2569, "\u2581rund": 25369, "\u5b8b": 48829, "obil": 23996, "\u0938\u0902\u092a\u094d\u0930": 34711, "ounding": 21069, "Obj": 7163, "\u043d\u0438\u0446\u0430": 12624, "alen": 7767, "uj": 21998, "\u2581linking": 11212, "caption": 15502, "\u0927\u094d\u200d": 38359, "\uabe5": 37970, "\u00bb,": 17106, "\u091a\u093e\u0901": 45725, "href": 27955, "\u2581skill": 11969, "\u2581\u0443\u043f\u0440\u0430\u0432": 16221, "\u2581another": 30548, "##pp": 42393, "cp": 616, "\u672c": 22525, "\u2581natur": 2609, "\u0433\u043e": 19566, "\u2581robust": 14699, "proto": 14430, "=/": 6435, "\u0906\u092f\u094b\u091c\u0928": 45256, "##\u0902\u0926\u0928": 49583, "\u092d\u093e\u0908": 44463, "xspace": 26262, "\u2581unlikely": 22860, "\u0a25": 37610, "world": 30701, "ural": 22979, "\u2581West": 25962, "\u2581unix": 24055, "ordinary": 21087, "\u2581pipe": 3065, "##\u0938\u0935": 47849, "\u2581Johan": 25165, "\u2581\u043f\u0440\u043e\u0442\u0438\u0432": 6806, "\u1c6f": 41951, "\u2581Warren": 25883, "##\u094d\u0932": 37231, "\u0909\u0924\u094d\u092a\u0940": 40140, "\u2581starting": 19011, "code": 7024, "\u2581\u0434\u043e\u043c\u0430": 4107, "\u0926\u0938": 35048, "erved": 18041, "\u0932\u0947\u091f\u0947": 44347, "iously": 23491, "egos": 10099, "PF": 8314, "aciones": 12477, "##\u0942\u092e\u0924": 40822, "hel": 16869, "\u2581Art": 20306, "\u2581Gra": 21870, "vider": 5330, "\u2581isolated": 26747, "\u0916\u0924\u0930\u0947": 33206, "\u2581\u043d\u0430\u0441\u0435\u0459\u0435": 15978, "\u2581eg": 31127, "\u2581fro": 20519, "\u0939\u0935\u093e\u0908\u0905": 47748, "\u2581Nell": 5726, "\u043d\u044f": 11605, "\u040a": 21205, "\u0938\u094c\u0902\u092a\u0940": 35521, "\u0909\u092a\u093e\u0927": 40598, "\u092e\u091c\u093c\u0947": 46597, "news": 2576, "\u2581\u0428\u0438": 14065, "<0x7E>": 27668, "endance": 30732, "##\u091c\u093c\u093e": 50307, "\u0926\u093e\u0935\u0947\u0926\u093e\u0930": 50722, "\u00e9tat": 20405, "##\u0938\u093e\u0907\u091c": 48942, "\u2581Those": 9365, "\u2581elsewhere": 23189, "iero": 10079, "\u2581\u0447\u0435\u043b\u043e\u0432\u0435\u043a\u0430": 12166, "\u0905\u092b\u094d\u0930\u0940\u0915\u0940": 47775, "\u2581consist": 2282, "LL": 19462, "\u0915\u091a": 34158, "\u0938\u0947\u091f\u093f\u0902\u0917": 34888, "\u2581curr": 19423, "##\u0902\u0924\u093e": 35988, "\u0445\u043e\u0434\u0430": 17738, "\u0905\u0928\u094d\u0927": 47524, "\u2581Christmas": 20797, "##\u093f\u092f\u093e\u0932\u093e": 33599, "\u0938\u093f\u092f\u093e\u0938\u0940": 46407, "lej": 13976, "##\u0932\u094d\u0932": 40121, "\u2581Cro": 258, "ources": 3873, "\u091c\u0935\u093e\u0939\u0930": 32195, "\u092c\u0924\u094c\u0930": 32851, "\u0917\u093f\u0930\u093e\u0935\u091f": 49513, "nown": 18554, "##\u092a\u0932": 48900, "\u2581cout": 2626, "\u0905\u0939\u092e\u093f\u092f\u0924": 46899, "\u092c\u0949\u0921\u0940": 44361, "\u2581anys": 12972, "##\u0ab7": 41695, "\u2581mant": 18812, "\u0911\u0915\u094d\u0938\u0940\u091c\u0928": 40372, "\u0907\u0932\u093e\u0915\u0947": 43261, "\u0964\"\"\"": 49072, "##k": 43481, "\u0441\u044c\u043a\u043e\u043c\u0443": 2790, "athon": 23900, "\u092e\u093e\u0930\u093e": 49400, "\u2581\u0442\u0443": 20264, "\u0938\u0940\u0913": 44481, "\u092a\u0948\u092e\u093e\u0928\u0947": 41293, "\u2581\u0418\u0441\u0442\u043e\u0440\u0438\u044f": 11788, "\u2581\u0432\u044b\u0448\u0435": 20896, "##\u0926\u093e\u0928\u0940": 35436, "ific": 5127, "##\u96e8": 45500, "\u0906\u0930\u094b\u092a\u093f\u0924\u094b\u0902": 44746, "##\u0939\u0940": 38220, "\u2581driv": 18460, "\u092b\u093f\u0928\u0932\u0948\u0902\u0921": 41182, "##\u5099": 38029, "\u2581come": 16245, "\u0906\u0908\u0913\u0938\u0940": 36846, "\u0915\u093e\u091f\u0928\u0947": 48029, "gt": 29548, "\u0915\u093e\u0930\u094d\u0924\u093f\u0915": 46186, "##\u0932\u0928": 41138, "\u2581Remember": 28159, "ambigu": 17648, "\u2581Kunst": 19253, "\u0936\u0930\u094d\u091f": 39909, "\u73fe": 14372, "\u2581\u041b": 4808, "\u0906\u0927\u094d\u092f\u093e\u0924\u094d\u092e\u093f\u0915": 37567, "##\u093f\u0915\u0947\u091f": 40106, "\u2581laquelle": 25473, "iteit": 4490, "\u0930\u0938\u094b\u0908": 48479, "\u0924\u0941\u0932\u0928\u093e": 38647, "urr": 13106, "##\u0928\u094d\u0928\u094b\u0902": 48041, "\u2581\u0440\u0430\u0437\u043b\u0438": 13518, "\u2581seeing": 13436, "\u2581tiem": 13488, "\u092a\u0940\u0913": 48039, "\u0917\u0930\u094d\u0907": 46402, "lo": 1104, "\u0905\u0915\u0947": 44471, "\u090f\u0921\u0935\u094b\u0915\u0947\u091f": 32496, "\u0a96": 42098, "\u2581\u0441\u0442\u043e": 30642, "\u884c": 23157, "irk": 25734, "\u2581Joe": 9334, "\u2581down": 27857, "\u2581since": 19729, "Client": 2061, "\u043c\u0435\u0440\u0438": 19136, "conv": 26632, "\u2581Bij": 4929, "\u2581ping": 17884, "\u0915\u093e\u0930\u094d\u092f\u093e\u0928\u094d\u200d\u0935\u092f\u0928": 44148, "kap": 20592, "\u2581Oper": 6649, "\u0935\u0928\u0938\u094d\u092a\u0924\u093f": 46415, "\u0915\u094d\u0935": 36553, "\u00eancia": 18090, "student": 5502, "\u2581payload": 4955, "\u0928\u0935\u0902": 33628, "hardt": 12171, "##\u093e\u0930\u094d\u091f": 35368, "##\u0930\u093f\u092b": 46795, "\u0932\u094b\u0915\u0938\u092d\u093e": 36557, "\u0921\u0930\u093e\u0928\u0947": 45722, "undo": 24097, "\ufeae": 33043, "\u2581Clo": 12155, "\u0926\u094d\u0935\u093f\u092a\u0915\u094d\u0937\u0940\u092f": 34016, "##\u1019": 41266, "<0x98>": 26146, "\u0938\u0947\u0935\u093e\u090f\u0902": 33441, "##\u093c": 39611, "\u2581\u0432\u0435": 23978, "\u092c\u0922\u093c\u0947\u0917\u093e": 43694, "\u092e\u0930\u0940": 37144, "\u904a": 44316, "mediate": 25974, "\u0442\u0443": 28353, "\u092b\u093e\u0932": 38241, "\u092c\u093e\u0930\u0940": 41583, "teilung": 11357, "##\u091c\u093c\u0941": 48339, "\u863f": 44229, "\u2581administrator": 10507, "\u2581renew": 17952, "owym": 8496, "\u2581multiple": 23627, "\u2581complete": 30898, "\u2581strongly": 21023, "\u0a85": 36476, "aty": 6709, "\u2581Phot": 27698, "\u2581fla": 7227, "\u0905\u0932\u094d\u092a\u0938\u0902\u0916\u094d\u092f\u0915": 45324, "\u090f\u092b\u0921\u0940\u0906\u0908": 43355, "Ref": 5067, "\ua802": 47608, "\u2581Brasile": 8673, "\u0921\u0940\u090f\u092e": 41061, "aux": 5148, "consult\u00e9": 31740, "\u092a\u0947\u0902\u091f": 32781, "\u2581calculating": 7836, "\u2581Tr": 15551, "\u2581svol": 18202, "\u1d49": 6231, "\u092c\u0948\u0920": 45836, "\u092a\u0941\u0928\u0930\u094d": 40864, "\u0928\u094b\u091f\u093f\u092b\u093f\u0915\u0947\u0936\u0928": 40450, "\u0935\u093f\u0928\u093f\u092f\u092e": 40564, "pos": 16120, "\u092c\u094d\u0932\u093e\u0938\u094d\u091f": 38403, "##\u0938\u094d\u091f\u094b": 35225, "\u2581clin": 1377, "##\u0935\u0939\u0928": 39878, "\u0906\u0935\u093e\u0938": 36847, "\u2581coup": 5199, "webkit": 17029, "\u0930\u091c": 32682, "<0xB8>": 16023, "\u0c9f": 46946, "\u0928\u093f\u092c\u0902\u0927": 39856, "\u0938\u093e\u092e\u0942\u0939\u093f\u0915": 37186, "PG": 13678, "ateien": 13026, "\u2581\u041f\u043e\u0441\u0438\u043b\u0430\u043d\u043d\u044f": 5426, "anse": 1144, "\u091f\u094d\u092f\u0942\u092c": 34194, "##\u092d\u0917": 39074, ")}{\\": 20849, "\u2581gare": 24168, "\u601d": 22169, "##\u05e2": 35578, "\u092e\u0902\u0924\u094d\u0930\u093e\u0932\u092f\u094b\u0902": 49648, "clock": 12457, "provider": 4677, "\u2581major": 3251, "essions": 18768, "##\u0924\u0940\u092f": 40135, "ancouver": 16765, "ifice": 15117, "\u2581Pil": 23247, "\u2581bell": 3450, "\u2581noticed": 13794, "\u0915\u094b\u0937": 42208, "onia": 15915, "\u2581obtained": 5557, "\u0905\u0939\u0932\u0947": 44041, "jd": 3109, "\u2581integrated": 17964, "\u0915\u093e\u0930\u0940\u0917\u0930\u094b\u0902": 40907, "\u0909\u092a\u0938\u094d\u0925\u093f\u0924": 45077, "\u2581decode": 9380, "\u2581figure": 14886, "\u0332": 24760, "\u0939\u0947\u0932\u094d\u092a\u0932\u093e\u0907\u0928": 38593, "##\u1799": 32065, "\u2581\u0431\u044b\u043b": 16529, "\u2581supre": 27713, "\u0913\u092a\u0940": 35278, "\u2581\u0421\u043e": 4289, "\u2581Stati": 17061, "\u2581lorsque": 21495, "\u0932\u0921\u093c\u0915\u093e": 33793, "\u2581inaug": 23630, "\u0907\u0932\u0947\u0915\u094d\u200d\u091f\u094d\u0930": 45468, "((": 28389, "reich": 19150, "##\u093f\u200d\u0915": 36323, "\u2581longitud": 13946, "\u2581parenthes": 25490, "\u092a\u0930\u094d\u092f\u093e\u0935\u0930\u0923": 36045, "\u092a\u094d\u0930\u093e\u0907\u092e\u0930\u0940": 49623, "##\u0917\u0924": 49881, "\u9b4f": 43519, "\u091a\u0902\u0926\u094d\u0930\u092f\u093e\u0928": 37122, "\u2581Tamb": 20830, "\ue207": 50717, "NOT": 30387, "\u2581*/": 16475, "\u0915\u0947\u0936": 32495, "\u092a\u094d\u0930\u0915\u093e\u0936\u0928": 48407, "\u2581villages": 2384, "##\u0923\u0928": 49320, ":@\"": 9967, "\u092d\u093e\u0935\u0928\u093e": 40902, "Mode": 8079, "##\u0954": 49971, "\u8a2d": 24269, "\u2581Evans": 6514, "##\u09bc": 39069, "\u0905\u0930\u094d\u091c\u0947\u0902\u091f\u0940\u0928\u093e": 32796, "\u043b\u0435\u043a\u0442": 11270, "\u2581nast": 25914, "\u0938\u092e\u094d\u0930\u093e": 46178, "laration": 29722, "\u0930\u0947\u0935\u093e\u0921\u093c\u0940": 38115, "ounce": 5212, "\u0441\u043a\u0443": 8704, "##est": 45132, "\u0915\u093f\u0928": 40189, "\u2581Scala": 20052, "ovi\u0107": 24502, "\u0925\u094b": 41735, "\u091c\u0948\u0935": 44694, "\u2581aver": 12686, "\u091f\u0948\u0915\u094d\u0938": 50756, "ninger": 2881, "\u2581teachers": 17932, "\u092a\u0949\u092a": 45402, "orch": 15742, "\u2581irrelevant": 27803, "\u0932\u0947\u0916\u093e": 40324, "Protocol": 5030, "\u2581Kh": 12626, "eman": 11471, "!'": 7096, "\u0915\u0949\u0930\u094d\u092a\u094b\u0930\u0947\u0936\u0928": 36638, "\u2581Li": 13120, "events": 30593, "\u2581Tim": 8561, "\u2581uk": 4928, "\\}$.": 23477, "\u0918\u0902\u091f\u094b\u0902": 45425, "##\u0902\u0935": 49726, "Workbook": 23620, "\u0926\u0938\u094d\u0924": 40090, "\u2581nuclear": 31145, "Espagne": 22699, "\u52a9": 27588, "\u2581absor": 11566, "eken": 25918, "Connect": 529, "\u2581toe": 26467, "\u2581Great": 29080, "\u2581geh\u00f6r": 15541, "\u2581\u010desk": 21442, "\u2019\u0964": 38689, "\u0391": 14169, "\u0905\u0927\u0942": 33469, "\u2581otto": 6333, "\u0921\u094d\u0930": 35529, "\u2581Mayor": 1520, "##\u092d\u093e\u0937": 41213, "\u2581\u043e\u043d\u0438": 28422, "\u2581Belle": 9073, "\u0938\u0902\u0938\u094d\u0915\u0943\u0924\u093f": 36065, "\u0915\u092e\u093f\u0936\u094d\u0928\u0930": 41206, "\u0915\u094b\u091f\u093e": 45629, "swing": 16601, "\u092e\u0923\u093f\u092a\u0941\u0930": 44196, "##\u0948\u0902\u0921": 40554, "localhost": 29205, "\u2581\u0447\u0435\u0442\u044b": 22187, "\u2581\u0432\u0456\u0439\u043d\u0438": 12319, "\u2581Wies": 25316, "\u0915\u0941\u0935\u0948\u0924": 44135, "Components": 28388, "\u2581medieval": 3332, "\u090f\u0938\u094d": 34097, "\u2581individ": 53, "\u091a\u0941\u0928\u094c\u0924\u0940": 36659, "\u092d\u092f\u0902\u0915\u0930": 46434, "\u0928\u093f\u0935\u093e\u0938\u0940": 38731, "##\u094d\u200d\u092f\u0942": 42702, "\u2581kan": 19576, "\u2581adapter": 16128, "\u2581{{": 4645, "\u2581*)": 27722, "\u2581tierra": 7474, "Return": 3148, "Logger": 28814, "\u2581problems": 24551, "onnen": 405, "\u0907\u0938\u094d\u200d\u092a\u093e\u0924": 45391, "\u0930\u093f\u0938\u0930\u094d\u091a": 33506, "##\u094d\u092f\u093e\u092f": 37699, "\u2581Death": 1071, "\u2581combine": 16734, "##\u094d\u200d\u0932\u0940": 47738, "pages": 16931, "\u091c\u093e\u0917\u0930\u0942\u0915": 47939, "asm": 23799, "\u2581gab": 4405, "orgen": 19094, "\u0905\u0928\u0941\u0930": 38900, "\u2581invari": 19703, "\\]": 10355, "\u0152": 15510, "\u0918\u091f\u093e\u0928\u0947": 48313, "##\u093f\u0924": 41952, "rif": 22589, "\u0935\u093e\u0923\u093f\u091c\u094d\u092f": 48978, "\u0446\u0435\u043d": 16146, "\u2581personnel": 13192, "\u2581Klaus": 8357, "\u2581spirit": 9123, "ortheast": 17527, "\u2581jar": 4235, "\u091a\u0939\u0932": 43410, "wise": 12184, "\u2581pron": 22941, "\u09b6": 16479, "\u045b\u0435": 24452, "\u0930\u091c\u0928\u0940\u0915\u093e\u0902\u0924": 40448, "##\u069a": 42356, "\u2581\u0432\u0438\u0434": 31739, "ccc": 18538, "\u2581Ball": 22697, "rec": 3229, "clk": 15445, "\u2581ejemplo": 11313, "\u2581tort": 8234, "\u2581mathemat": 27672, "\u090f\u0928\u092a\u0940\u090f\u0938": 34832, "\u0915\u094b\u0939\u0932\u0940": 38481, "igneur": 5695, "\u0938\u093f\u0902\u0918": 46705, "send": 18774, "\u091c\u0932": 47583, "\u2581grav": 1458, "\u2581Ort": 26351, "\u2581involve": 18466, "\u0925\u0940\u0902": 44073, "\u2581ded": 8781, "Culture": 6920, "\u092a\u0925": 33652, "indian": 45352, "\u2581\u0413\u0440\u0435": 29974, "\u2581Archives": 7010, "\u092a\u094d\u0930\u0924\u093f\u0928\u093f\u0927\u093f": 37629, "\u5bab": 49203, "\u092e\u0949\u0921": 42352, "Bre": 12229, "\u2581ListView": 5102, "ToString": 29731, "##\u14d7": 43832, "\u092e\u0947\u0921\u0932": 36747, "##\u0930\u093e\u0907": 32486, "##\u092a\u0942\u0930\u094d\u0923": 35100, "\u2581recent": 24985, "\u6a5f": 15334, "iams": 17013, "\u2581power": 26810, "##\u0ca6": 47024, "\u2581mk": 90, "\u092d\u092f": 39827, "\u0926\u093f\u0916": 32926, "\u0915\u093e\u0930\u094d\u092e": 45340, "\u2581pros": 25982, "\u092e\u0939\u093e\u0926\u094d\u0935\u0940\u092a": 42558, "grade": 24940, "\u092f\u0942\u092a\u0940": 49187, "\u0939\u0941\u0902\u0921\u0908": 36834, "\u091c\u0938": 43365, "\u092b\u093f\u0938": 45156, "ining": 19812, "\u2581recher": 19381, "\u0906\u0926\u093f\u0935\u093e\u0938\u093f\u092f\u094b\u0902": 46917, "\u2581Adams": 5057, "\u0938\u094d\u0935\u093f\u091a": 48117, "\u201e": 27552, "\u0938\u0940\u092a\u0940\u0906\u0908": 37269, "sweise": 18877, "\u2581ny": 22303, "unal": 2392, "ailable": 15517, "hy": 21838, "##\u0927\u093e\u0930\u0915\u094b\u0902": 41490, "\u0907\u0902\u0926\u093f\u0930\u093e": 33242, "\u2581Quebec": 27427, ",\u2018": 36676, "\r": 31113, "\u0440\u043e\u0437": 20235, "\u2581perch\u00e9": 10746, "\u2297": 13732, "##\u092e\u093e\u091a\u093e\u0930": 37315, "<0x6D>": 27098, "strings": 679, "$,": 28773, "\u2581cover": 22676, "\u2581deux": 15722, "\u0938\u094d\u091f\u093e\u0930\u094d\u091f\u0905\u092a": 43737, "\u0925\u093f\u090f\u091f\u0930": 32013, "\u0928\u094d\u092f\u0942\u092f\u0949\u0930\u094d\u0915": 49208, "##\u0a24": 49396, "\u0938\u093f\u0926\u094d\u0927\u0942": 45701, "\u0433\u0440\u0435": 30364, "##\u0915\u093c\u094d\u0924": 44133, "##\u0935\u093e\u0938": 42195, "Draw": 28171, "\u0928\u0935\u093e\u091c": 41398, "achine": 6295, "\u2581places": 25871, "\u092a\u093f\u0928": 47697, "\u0112": 27397, "\u2581Relig": 2860, "\u2581fr\u00fc": 26201, "\u2581van": 23060, "\u026a": 28877, "\u2581glass": 12503, "\u636e": 15119, "\u0440\u0435\u0434\u0438": 11934, "\u2e2e": 29932, "\u975e": 864, "\u0915\u093e\u0902\u0938": 47837, "\u4eca": 8435, "ess": 14429, "\u0926\u092c\u0902\u0917": 39179, "\u2581discussion": 10816, "\u2581tri": 5119, "\u092a\u0930\u0940\u0915\u094d\u0937\u0923\u094b\u0902": 47592, "\u2581\u0437\u0431\u0456\u0440": 13672, "\u2581southern": 15885, "\u2581Queens": 9319, "##\u0945": 47830, "\u2581libre": 2912, "sup": 18770, "\u2581video": 6480, "vil": 6352, "\u0f5a": 39996, "\u2581gay": 18751, "\u0db7": 37789, "\u00e1j": 28714, "\u09a0": 36019, "\u2581Dun": 15390, "swift": 13719, "\u043a\u0440\u0430\u0457\u043d": 5229, "input": 7375, "\u0ab9": 49915, "##\u0902\u0920": 35174, "\u2581advice": 27535, "\u2581plane": 3663, "Container": 12925, "\u0916\u093e\u0913": 46518, "##\u0921\u093c\u093f\u092f\u093e": 37742, "\u092e\u094b\u091f\u0947": 50124, "singh": 48922, "\u30ec": 18867, "\u091c\u092c\u0930\u094d\u0926": 41712, "##\u0924\u094d\u0924\u0928\u092e": 43169, "\u2581ricon": 6192, "\u00f6ld": 19282, "\u0432\u043e\u0433\u043e": 20913, "\u2581\u043d\u0430\u0440\u043e\u0434": 8122, "\u2581Cre": 27782, "\u0924\u0940": 35857, "\u2581Grid": 17491, ",$": 20420, "##\u5c14": 48797, "sson": 25216, "\u2581Ran": 23831, "margin": 19627, "##in": 42653, "##\u092e\u094d\u092e": 36354, "\u2581Freder": 18879, "definition": 2772, "ours": 30373, "\u2581S\u00e9": 14498, "##\u0939\u094b\u0924\u094d\u0930\u093e": 36059, "\u0936\u094d\u0930\u0926\u094d\u0927\u093e": 34156, "\u2581emot": 28038, "\u092a\u093e\u0930\u094d\u0925\u093f\u0935": 38953, "##\u0938\u094d\u0925\u0932": 33769, "\u2581Laur": 11539, "\u2581squares": 1404, "\u2581Stad": 13122, "\u043c\u0438\u0447\u0435": 16514, "\u2581Ident": 18123, "\u2581denote": 14197, "ashed": 2174, "\u2581actu": 18930, "\u0909\u0932\u094d": 37080, "\u092d\u0942\u0924": 44027, "\u0918\u093e\u092f\u0932": 39070, "\u2581okay": 30968, "\u043b\u043e\u0432\u0456": 24358, "\u2581stayed": 4274, "##\ud83d\udea9": 48122, "\u3093": 29234, "\u0915\u094b\u0932\u0947": 48906, "\u2581message": 26091, "\u092a\u0941\u091c\u093e\u0930\u0940": 33168, "\u2581principe": 2812, "\u0915\u0947\u0902\u0926": 40532, "\u2581exports": 18316, "\u00f6s": 8393, "\u091a\u093f\u0926\u0902\u092c\u0930\u092e": 32411, "##\u092a\u0942\u0930\u094d\u0935": 37129, "vue": 12812, "\u2581darkness": 11427, "rages": 13709, "\u043e\u0432\u0430\u043d": 29013, "ffect": 23802, "ningen": 20227, "\u0906\u0936\u0902\u0915\u093e": 34092, "\u2581Lage": 44, "\u2581archiv": 22774, "\u2581bla": 21710, "\u092c\u0916\u094d\u0936": 38424, "\u4e50": 15970, "##\u0947\u0902\u0917\u0947": 40321, "\u2581Ps": 1650, "\u2581relatives": 13480, "\u0e47": 26583, "##\u0942\u0932\u093e": 40784, "\u0930\u093e\u0915\u093e\u0902\u092a\u093e": 45928, "##\u091c\u0947\u091f": 35169, "\u0926\u0930\u094d\u0936\u093e": 37731, "ch": 6931, "##\u884c": 40381, "\u2581sizeof": 17164, "\u092c\u0901": 38309, "\u2581triggered": 25246, "\u0905\u0928\u0941\u092d\u0935\u0940": 40652, "[$": 26358, "##\u0905\u0924": 44987, "fty": 29258, "INCT": 28820, "Direct": 13205, "\u2581locally": 19559, "\u2581linux": 24750, "\u2581trade": 21327, "\u0938\u092e\u0930\u094d\u092a\u0923": 34470, "\u092c\u091a\u094d\u091a": 38739, "\u092c\u0922\u093c\u0940": 43597, "ited": 19623, "\u0924\u0926\u0928\u0941\u0938\u093e\u0930": 34020, "\u25b8": 27597, "\u0441\u043b\u0456": 27180, "##\u6e56": 46105, "\u0935\u0915\u0940\u0932": 49606, "\u0932\u0917\u093e\u092f\u0940": 35303, "core": 12371, "\u7535": 960, "\u2581\u043f\u0435\u0440\u0435": 4748, "\u2581afford": 14066, "only": 10358, "cji": 23691, "\u515a": 35220, "\u0939\u0935": 33484, "\u0915\u0930\u093e\u092f\u0940": 40714, "UTE": 21520, "\u1005": 49934, "gener": 19016, "\u2581Academy": 1698, "##\u091a\u0932\u0928": 48468, "\u092a\u094d\u0930\u0924\u093f\u0926\u093f\u0928": 35851, "complex": 27109, "umption": 2370, "gart": 23546, "\u2581Comm": 24946, "\u0907\u0924\u0928\u0940": 39940, "\u2581nyelven": 28598, "pip": 16067, "\u2581astero": 5515, "VIS": 7536, "##se": 40673, "it\u00e4": 31783, "\u2581ze": 25134, "\u0c43": 32259, "factor": 21015, "\u691c": 32883, "\u2581Sov": 3855, "\u0936\u094d\u0930\u0940\u0928\u0917\u0930": 44326, "VE": 9598, "\u2581\u0431\u0435\u0440\u0435\u0437\u043d\u044f": 29489, "Uni": 8399, "\u2581unter": 11124, "\u092a\u0926\u093e\u0927\u093f\u0915\u093e\u0930\u0940": 48071, "ipes": 17578, "\u2581Below": 5974, "\u2581scales": 8467, "\u2581mou": 30006, "\u2581Lors": 5444, "?>": 19301, "\u092f\u0942\u0938\u0941\u092b": 48996, "\u0916\u0928\u0928": 34453, "##du": 33720, "\u2581\u2212": 2472, "example": 4801, "TT": 21365, "\u2581bald": 24594, "\u2581\u0447\u0442\u043e": 22309, "\u2581compilation": 6112, "\u2581per": 31289, "\u2581filtered": 9013, "##\u0941\u0915\u0947\u0936\u0928": 41326, "\u2581ikke": 20449, "\u0917\u0924\u093f\u0935\u093f\u0927\u093f": 46850, "\u1e28": 4377, "\u1c75": 46876, "\u0906\u0908\u0938\u0940\u0938\u0940": 47782, "\u0915\u093e\u0930\u094d\u092a": 50312, "\u2581]": 14246, "\u2581areas": 14047, "Position": 5380, "\u3088": 2441, "inal": 22056, "\u091c\u0947": 46354, "cluster": 19697, "\u0938\u094d\u092a\u093f\u0928": 46148, "##\u0936\u0928": 41480, "\u092a\u094d\u0930\u0936\u094d": 32040, "eree": 13534, "unks": 18499, "\u2581Flora": 21783, "\u2581Fem": 9253, "\u2581\u0414": 21372, "oth\u00e8que": 22766, "fill": 13079, "mathrm": 10785, "picker": 8009, "\u092f\u0939\u0942\u0926\u093f\u092f\u094b\u0902": 36222, "\u092e\u093e\u0924\u0943": 38677, "\u0915\u0930\u093f\u092f\u0930": 34658, "\u2581colours": 7772, "/?": 15982, "\u0916\u0941\u0932\u0940": 48749, "\u0926\u092b\u094d\u0924\u0930": 35959, "fl": 4001, "ners": 19488, "\u2581Interface": 5236, "\u2581mere": 10632, "\u2581Angular": 12067, "\u2581pointers": 17042, "\u2581Nord": 12817, "\u0159ed": 19444, "\u2581voix": 770, "\u0905\u092e\u0930\u093f\u0928\u094d\u0926\u0930": 49992, "\u0926\u093f\u0932\u093e\u0924\u093e": 35310, "\u0918\u0942\u092e": 43033, "\u0938\u0902\u092d\u093e\u0935\u093f\u0924": 50642, "\u0909\u0924\u094d\u092a\u093e\u0926\u0915\u094b\u0902": 39583, "iffer": 12772, "\u0915\u094d\u0930\u0942": 32287, "\u2581///": 18303, "bjp": 42879, "\u0936\u0930\u094d": 37440, "##\u0902\u0938\u093e": 37387, "\u2581compiler": 27499, "##v": 45596, "\ub2c8": 22801, "\u092c\u093e\u0922\u093c": 47586, "\u0907\u0938\u094d\u092a\u093e\u0924": 49109, "\u2581Asian": 14758, "c\u00e9": 15816, "##\u093f\u092f\u0902\u0938": 44069, "\u043a\u043e\u0439": 5989, "\u2581fire": 14818, "\u2581zak": 15280, "ographic": 14971, "\u2581copying": 2187, "\u0441\u043a\u043e\u0439": 15819, "columns": 24871, "\u2581originale": 3543, "\u2581nearby": 18792, "\u0916\u093c\u092c\u0930": 44998, "\u2581south": 16949, "TS": 30229, "\u2581\u0456\u0437": 17030, "\u2581Ned": 13498, "\u0938\u0941\u0938": 47177, "##\u091f\u0930\u093f\u092f\u094b\u0902": 37650, "Music": 16523, "\u092a\u0948\u0928": 39361, "\u2581defence": 18011, "\u0935\u093f\u0927\u0947": 50353, "\u2581\u0440\u0430\u0439\u043e\u043d\u0430": 951, "##\u093e\u0902\u0921": 43763, "\u2581bylo": 19063, "HI": 15793, "\u092a\u0949\u0932\u093f\u0938\u0940": 49574, "\u0928\u0940\u0902\u0935": 35538, "\u092f\u0925\u093e\u0938\u094d\u0925\u093f\u0924\u093f": 38549, "##\u0924\u094d\u200d\u092e\u0915": 45706, "andbox": 31384, "##\u0926\u0947\u0939\u0940": 44091, "ral": 4142, "\u2581Framework": 20292, "IN": 1049, "\u2581aix": 289, "stop": 12287, "##\u092e\u093e\u0926": 39366, "##\u091c\u0941": 38246, "\u2581using": 14590, "\u092d\u093f\u0921\u093c\u0902\u0924": 40548, "]];": 23321, "##ain": 36604, "\u0927\u092e\u093e\u0915\u093e": 33905, "shared": 164, "comm": 18353, "\u2581killing": 390, "##\u06aa": 35648, "\u2581\u0427\u0435\u0440": 30326, "\u2581lifted": 14393, "ged": 13991, "\u2581G\u00fc": 31675, "\u2581difer": 14752, "Pi": 14407, "##\u0916\u093f\u0915": 41277, "\u011f": 23721, "\u092d\u0935\u093f\u0937\u094d\u092f": 36777, "\u0939\u092b\u094d\u0924": 36251, "\u2581DJ": 28040, "\u0935\u0938\u094d\u0924\u0941\u0924\u0903": 41788, "\u0917\u094d\u0930\u093e\u0939": 43208, "\u2581variations": 6462, "\u2581provincie": 2852, "exp": 3348, "##\u0924\u093f\u0939\u093e\u0938": 32614, "\u0928\u094c\u0915\u093e": 35647, "JS": 14093, "\u0926\u093e\u092f\u0930\u093e": 49642, "\u090f\u0915\u094d\u0938": 50346, "\u0431\u043e\u0432": 28635, "\u0447\u0438\u043b": 10115, "\u0928\u0940": 50361, "\u2581recording": 9642, "tera": 30306, "\u2581Marine": 17582, "\u2581domain": 15908, "\u0924\u0943\u0923\u092e\u0942\u0932": 44898, "erna": 10403, "##\u025b": 32282, "cycle": 19735, "[[": 12374, "\u6c60": 13170, "\u2581tunnel": 28557, "\u0938\u0930\u092b\u0930": 36457, "\u092f\u0942\u0939": 36250, "\u2581\u0411\u043e": 18703, "\u2581synth": 26548, "\u092d\u093e\u0932": 45807, "\u092c\u0926": 39404, "\u014c": 22736, "\u2581Page": 21125, "\u2581\u043f\u043e\u043c\u043e": 7495, "\u0928\u092e\u094d\u0930\u0924\u093e": 39372, "\u2581jur": 15195, "\u092d\u093e\u0917\u0940\u0926\u093e\u0930\u0940": 39939, "\u0916\u0941\u0932\u0947": 37117, "\u2581Accept": 8415, "\u2581n\u00e5": 11591, "\u2581\u0425\u0440\u043e": 14471, "Application": 6220, "\u0938\u094c\u0930\u092d": 41872, "\u0939": 10766, "\u092d\u093e\u0930\u0924": 45860, "##qu": 49276, "\u2070": 31432, "\u091c\u0935\u093e\u0939\u0930\u0932\u093e\u0932": 43994, "\u6fa4": 43367, "vim": 29256, "agement": 7424, "NT": 25614, "riers": 7067, "\u091c\u093f\u0938\u092a\u0930": 34914, "\u0926\u0932": 42029, "External": 13627, "\u2581siehe": 28525, "\\\",": 25575, "\u2581Auto": 31860, "\u2581pac": 1824, "\u5eb7": 31376, "\u092a\u094d\u0930\u0938\u094d\u0924\u0941\u0924\u093f": 41173, "\u2581amongst": 2052, "ders": 9520, "Scale": 11716, "\u2581copies": 8404, "\u0926\u0941\u0915\u093e\u0928\u094b\u0902": 37807, "\u1456": 32715, "\u0906\u092f\u0930\u0928": 35392, "\u0926\u0940\u0930\u094d\u0918": 33519, "\u2581nobody": 9921, "\u0935\u093f\u091c\u094d\u091e\u092a\u094d\u0924\u093f": 35480, "\u2581child": 23910, "\u092a\u094d\u0930\u0938\u0935": 42379, "amo": 16372, "\u2581Property": 2321, "\u2581Alliance": 24037, "\u2581Britain": 7246, "##\u0938\u0902\u0916\u094d\u092f": 38032, "\u2581Refer": 15729, "##\u030b": 42080, "\u5e8f": 7321, "4": 13081, "\u0938\u093e\u0932\u094b\u0902": 37855, "chas": 1122, "##\u0e27": 44179, "\u2581aid": 14987, "ungsseite": 23850, "\u00e8te": 27847, "\u2581\u0433\u043b\u0430": 22185, "\u2581\u043f\u0440\u043e\u0444\u0435\u0441": 29709, "##\u09a8": 37364, "g": 18253, "\u2581Zar": 30350, "each": 30837, "ma": 27280, "##\u9322": 48311, "\uc2dc": 7211, "\u2581maintained": 935, "\u092e\u0941\u0915\u093c": 34717, "\u2581einer": 27443, "\u0928\u0915\u094d\u0938\u0932\u093f\u092f\u094b\u0902": 38865, "\u2581masses": 14643, "\u2581examples": 20217, "\u2581plot": 10963, "##\u0935\u091a\u0928": 32941, "\u2581per\u00edodo": 31522, "\u091a\u0941": 40893, "##\u0930\u093f\u090f\u092c\u0932": 37170, "\u2581apple": 10948, "\u2581reserved": 13807, "FileName": 26695, "##\u0daf": 46155, "apis": 14515, "\u092a\u093e\u0917\u0932": 37336, "\u0930\u0935\u0948\u092f\u093e": 50256, "\u2581Urs": 29457, "\u2581Should": 10014, "\u2581requirement": 25688, "ved": 13030, "\u0915\u0949\u0932\u094b\u0928\u0940": 37084, "##\u0949\u0930\u094d\u091f\u092e": 33008, "\u092c\u093e\u0932\u093e": 45494, "##\u094b\u0921\u093c\u0947": 34982, "##\u0902\u0921\u093e": 41507, "\u0913\u0932\u0902\u092a\u093f\u0915": 43560, "\u2581terme": 11210, "\u2581maar": 23434, "##\u094d\u0937\u094d": 44613, "<0x11>": 11280, "uals": 9824, "Delegate": 4640, "##\u091c\u0930\u094d\u0938": 39656, "\u2581ogs\u00e5": 19241, "variab": 45469, "\u2581indicator": 3718, "TD": 22220, "\u2581Films": 16580, "sharp": 27657, "\u0918\u0947\u0930\u0947": 49922, "\u2581estar": 27326, "\u0447\u0438": 18634, "\u2581\u0160": 22781, "##\u10d4": 44896, "##\u093e\u0930\u094d\u0938": 44906, "ther": 2450, "ISBN": 16397, "\u092f\u093e\u0924\u093e": 40563, "\u0aa0": 49427, "##\u092e\u0902\u0921\u0932": 48175, "\u092e\u094b\u092c": 34068, "\u0442\u043d\u043e": 546, "\u2581Nin": 8827, "##\u0635": 40174, "\u0905\u0902\u0915": 50206, "\u092a\u094d\u0930\u0926\u0942\u0937\u093f\u0924": 32423, "lle": 2288, "\u092a\u094d\u0930\u093e\u0925\u092e\u093f\u0915\u0924\u093e\u0913\u0902": 40758, "omic": 18788, "hide": 17394, "##\u6d66": 39770, "ched": 22746, "\u2581files": 1914, "\u0935\u093f\u091c\u093f\u091f": 33427, "\u0918\u091f\u0928\u0947": 32958, "\u2581place": 20109, "\u2581Navigation": 11530, "\u2581\u043c\u0430\u0440\u0442\u0430": 19192, "##\u5ea6": 34713, "\uae40": 26397, "\u2581textbox": 28074, "kappa": 25154, "##\u0936\u0915\u094d\u0924\u093f": 50099, "ulle": 13795, "\u2581acquaint": 10193, "##\u0e33": 39563, "f\u00e9r\u00e9s": 26946, "\u4f4d": 29977, "sl": 29866, "\u2581encuentra": 2514, "ick\u00e9": 26957, "\u2581intitul\u00e9": 2669, "\u0301": 21501, "##\u0ca4": 36078, "\u2581prec": 18141, "\u2581Wald": 17509, "visible": 26686, "\u2581Term": 29137, "tables": 14031, "ymen": 8855, "ifting": 13854, "##\u092b\u094b\u0930\u094d\u0928\u093f\u092f\u093e": 36565, "\u2581Kir": 17351, "\u2581MD": 21744, "ird": 19926, "\uc7a5": 31377, "\\).": 20609, "\u2581\u043c\u0443": 12445, "\u2581compagnie": 7000, "\u2581Parad": 13321, "##\u0915\u093e\u0932\u093f\u0915": 49770, "\u043b\u044f": 11492, "hw": 9388, "Pat": 21647, "\u2581dynamically": 16926, "\u0930\u093f\u091f\u093e\u092f\u0930": 50244, "apa": 17118, "\u2581Fast": 8930, "\u0915\u093f\u0930\u0926\u093e\u0930": 47130, "##\\\"\"": 49052, "\u2581apresent": 12175, "##\u0935\u0923": 46232, "js": 28415, "autre": 21246, "\u0935\u093f\u0935\u0947\u0915": 35292, "\u0447\u0435\u0441\u043a\u0430\u044f": 9139, "\u091a\u093f\u0902\u0924\u093e\u0913\u0902": 44197, "##\u090f\u0928\u091c\u0940\u0938\u0940": 34457, "##\u0915\u093c\u0940": 44924, "##\u0915\u093c": 40256, "\u013d": 23378, "zeichnungen": 11923, "\u0905\u0928\u0935\u0930": 43668, "##\u091a\u0947\u0930\u0940": 46723, "riften": 23535, "\u2581ten": 5910, "\u092a\u0930\u092e": 35606, "\u0938\u094d\u092a\u0940\u0921": 49928, "reason": 20922, "\u0926\u0939\u0936\u0924": 47726, "anas": 3262, "\u2581under": 18480, "\u2581reducing": 23839, "Audio": 18083, "##\u0637": 37850, "servlet": 5788, "\u2581concentr": 27243, "ida": 30383, "\u2581succeed": 20074, "dm": 18600, "ListView": 23145, "wij": 18226, "\u0446\u0438\u0458\u0435": 20923, "\u0915\u093e\u0930\u094d\u0930\u0935\u093e\u0908": 45830, "estamp": 18488, "kord": 22992, "##\u30ec": 37750, "ocz": 20310, "\u2581discipline": 16674, "uling": 30839, "aru": 11024, "##\u092b\u094b\u0928\u094d\u0938": 35413, "##\u0938\u0940\u0928\u093e": 40480, "\u2581Gem": 24090, "\u091c\u093f\u0928": 37588, "##\u094d\u092f\u093e\u0939": 38557, "\ub144": 31383, "##\u0949\u0930\u094d\u0928\u0940": 32293, "fare": 6181, "\u0432\u0435": 29736, "\u2581compet": 12573, "tk": 21356, "\u2581papers": 2236, "##*": 45879, "\u09bc": 31078, "\u092a\u094d\u0930\u0924\u093f\u0930\u094b\u0927": 35745, "\u092d\u0935\u093f\u0937\u094d\u092f\u0935\u093e\u0923\u0940": 36188, "\u0930\u093e\u0937\u094d\u091f\u094d\u0930\u094b\u0902": 37377, "\u2581delegate": 8218, "\u03a9": 9946, "\u092a\u0941\u0928\u0930\u094d\u0935": 32078, "\u0916\u0924\u0930": 41168, "\u2581ordering": 22201, "\u0909\u092a\u093e\u0927\u094d\u092f\u0915\u094d\u0937": 33751, "TV": 29530, "\u2581injury": 15028, "aw": 25999, "\u044e\u0437": 12382, "homme": 15603, "##\u3093": 35619, "\u092a\u0941\u0932\u093f\u0938\u0915\u0930\u094d\u092e\u0940": 37456, "Raw": 1938, "\u2581eliminate": 19460, "\u2581edici\u00f3n": 15832, "\u07a6": 37601, "\u2581Rob": 21441, "\u2581stata": 19111, "err": 6037, "\u2581dem": 3457, "\u2581XVIII": 3598, "\u03c1": 30061, "olis": 13172, "jQuery": 11170, "##\u12eb": 42340, "\u0915\u094d\u0930\u093e\u0902\u0924\u093f\u0915\u093e\u0930\u0940": 47036, "##\u02d0": 50016, "\u2581titled": 11731, "\u09a8": 14365, "##\u1c5e": 42137, "\u2581variance": 5308, "##\u0930\u0915": 40301, "green": 27604, "\u092e\u0941\u0915\u0926\u092e\u093e": 36061, "\u2581\u00e9p": 11574, "\u0907\u0902\u091c\u0928": 35384, "\u2581\u043a\u043e\u043c\u043c\u0443": 25820, "ilis": 31254, "\u2581heads": 22112, "##\u0923\u093e\u091a\u0932": 38199, "\u2581searches": 21255, "\u0905\u0932": 46580, "\u2581priv": 18620, "StackTrace": 4759, "\u2581sin": 5052, "\u0938\u093e\u0902\u0916\u094d\u092f\u093f\u0915\u0940": 35512, "ellig": 1866, "\u2581Mic": 29362, "##\u0939\u093e\u0908": 37347, "\u092c\u091a\u094d\u091a\u093e": 39930, "\u092c\u0947\u0939\u0924\u0930": 43178, "asy": 13159, "\u2581listen": 28069, "\u00e9gr": 2019, "##\u0930\u094d\u092e\u0940": 37150, "\u2581safety": 433, "eps": 25471, "(&": 15323, "Gamma": 28228, "\u0921\u0940\u090f\u0938\u092a\u0940": 33667, "imming": 10053, "\u0928\u094d\u092f\u0942\u091c\u093c": 48944, "\u092f\u0942\u091f\u094d\u092f\u0942\u092c": 37902, "\u7fa4": 21253, "\u091c\u094b\u0930\u0926\u093e\u0930": 45115, "types": 27900, "ioni": 20814, "\u2581SER": 3833, "nas": 23481, "##\u0bb2": 40336, "svn": 17270, "iour": 6277, "\u0906\u0935\u0947\u0926\u0928\u094b\u0902": 47494, "##\u7530": 38385, "\u3082": 11683, "\u0915\u094d\u0930\u0947\u0921\u093f\u091f": 44098, "\u2581Dave": 1590, "\u2581jun": 31252, "\u91dd": 40900, "\u2581Chris": 9770, "##\u0927\u093e\u0930\u093f\u092f\u094b\u0902": 41439, "\u0935\u091c\u093c": 36511, "Query": 12794, "\u6a3a": 34397, "\u0921\u093e\u0915": 49577, "\u2581frente": 3135, "\u0928\u093f\u0930\u094d\u0935\u093e": 34721, "\u2581visible": 11140, "\u0907\u091c\u0930\u093e\u0907\u0932": 32139, "effect": 13955, "\u2581Vol": 18381, "\u0d47": 23206, "##\u091c\u093e\u092e": 38505, "\u2581\u00c4": 5803, "##\u0924\u0940\u0936": 38981, "\u0905\u0928\u0941\u092a\u093e\u0924": 49035, "\u2581Queen": 19410, "m\u00e9": 8868, "\u2581timestamp": 1816, "\u092a\u094d\u0930\u0936\u093f\u0915\u094d\u0937": 48637, "contr": 27796, "k\u00f3w": 16147, "##\u0939\u093f\u091f": 38698, "\ud802\udc45": 49330, "\u2581cinemat": 4131, "\u2581Gan": 20554, "\u2581rows": 14232, "}</": 23484, "##\u0928\u094d\u0928\u0924": 46529, "\u0345": 48566, "##\u091f\u0947\u0915\u0930": 32024, "##\u11b7": 32557, "z": 4714, "\u0f53": 22596, "\u2581tudi": 9711, "\u0915\u0943": 37125, "\u0916\u0930\u0947": 34379, "##\u094d\u0939": 47293, "\u0924\u0930\u0940\u0915\u093e": 32086, "\u2581Mag": 25497, "\u2581ups": 10530, "##\u0906\u0930\u092a\u0940": 33093, "\u2581fal": 15185, "\u2581Einz": 31868, "Amer": 14234, "\u2581Book": 21966, "\u00a3": 1954, "\u2581option": 14934, "mid": 6625, "\u2581si\u0119": 6733, "empor": 11297, "Jean": 17157, "\u0916\u0941\u0936\u0940": 37392, "\u00e1sa": 13080, "\u2581Rails": 20095, "\u2581\u0432\u043e": 23191, "\u0909\u0915\u094d\u0924": 36725, "\u2581Must": 2783, "igt": 4651, "\u092a\u094d\u0930\u0924\u093e": 43534, "arp": 20807, "\u2581perm": 8373, "fahren": 12034, "\u2581loro": 19505, "k\u0119": 3884, "\u2581cr\u00edt": 17452, "<0xA8>": 16011, "confirm": 17120, "\u8db3": 31596, "\u2581opposed": 18471, "\u0905\u0928\u0941\u0938\u0942\u091a\u093f\u0924": 38256, "##\u0918\u093e\u091f": 33102, "\u2581political": 28721, "\u2581home": 13886, "\u091c\u0941\u0928\u0942\u0928": 35103, "\u2581boost": 18161, "nil": 26962, "\u0926\u0941\u0930\u094d\u0918\u091f\u0928\u093e\u0917\u094d\u0930\u0938\u094d\u0924": 32199, "\u092e\u0948\u0917\u094d": 45401, "\u0938\u0915\u094d\u0930\u093f\u092f\u0924\u093e": 50625, "\u2581Gut": 12103, "(),": 7825, "\u092e\u0939\u0924\u094d\u200d\u0935": 47570, "\u2581deix": 21742, "\u2581feed": 11968, "\u0928\u0915": 39528, "\u2581R\u00fcck": 3306, "ieren": 5711, "\u2581hab\u00eda": 24863, "\u092e\u0928\u094b\u091c": 37639, "miss": 19085, "##\u10e2": 34971, "\u0442\u0441\u044f": 3524, "\u091a\u0922\u093c": 44238, "buntu": 18638, "\"=>": 23332, "\u0939\u093e\u092f\u0930": 35669, "\u0938\u094d\u091f\u0947\u0936\u0928": 38885, "\u0907\u091a\u094d\u091b": 39098, "\u2581\u0420\u0443\u0441": 24074, "\u2581exist": 24503, "scar": 3069, "faces": 17472, "\u0906\u092f\u0941\u0930\u094d\u0935\u093f\u091c\u094d\u091e\u093e\u0928": 47666, "\u2581updating": 22655, "Delay": 4210, "ourse": 22141, "ancy": 16522, "\u2581poblaci\u00f3": 9354, "\u2581strike": 22870, "\u0917\u093f\u0930\u092b\u093c\u094d\u0924\u093e\u0930": 46735, "\u2581pedig": 8307, "\u1ec7": 26578, "\u2581\u0433\u043e\u043b\u043e": 21213, "##\u091c\u0928\u0915": 39918, "Val": 14147, "organ": 8321, "\u00eatre": 22327, "\u2581abund": 27529, "\u092a\u0930\u093f\u0923": 36110, "\u091a\u093e\u0939\u093e": 34355, "ede": 11379, "\u0938\u0939\u092f\u094b\u0917\u093f\u092f\u094b\u0902": 42445, "\u2581ha": 2886, "\u0915\u093f\u0938\u0940": 33829, "\u2581cos": 2165, "\u2581spite": 28892, "\u2581\u0446\u0435\u043d\u0442\u0440\u0430": 27727, "\u092f\u0939\u0940\u0902": 41487, "##\u0921\u093e\u0932": 46433, "Once": 22039, "ji": 23302, "enberg": 27860, "\u2581stycznia": 15647, "\u2581cov": 16817, "making": 1268, "\u0926\u093f\u0915\u094d\u0915\u0924\u094b\u0902": 45735, "\u2581\u043c\u0430\u0454": 8895, "bio": 29503, "\u0442\u043e\u0440\u0438": 29699, "\u7f6e": 16905, "\u092a\u094d\u0930\u0924\u093f\u0938\u094d\u200d\u092a": 41628, "raham": 398, "\u6625": 1113, "##\u57ce": 46848, "##\u0938\u094d\u091f\u093f\u0915": 49575, "far": 8064, "squ": 13334, "\u2581engines": 30221, "Struct": 24789, "\u0447\u0456": 468, "\u2581herself": 29451, "##\u0935\u0932\u0947": 39309, "\u2581Lund": 9785, "##\u0925\u093e\u0928": 39739, "\u2581Poland": 23003, "\u2581pi\u0142kar": 22416, "\u0170": 8029, "checked": 12342, "\u028a": 13569, "\u092a\u094b\u0932\u0948\u0902\u0921": 35822, "\u043f\u043d\u044f": 26391, "\u2581aprile": 23840, "\u091f\u0947\u0932\u0940": 50250, "\u0906\u0909\u091f": 39260, "psi": 1720, "\u0c42": 33820, "\u2581\u0436\u043e\u0432\u0442\u043d\u044f": 3427, "\u2581protect": 26098, "\u0909\u0938\u0915\u093e": 45119, "schap": 30800, "\u0915\u093c\u093e\u092f\u092e": 37725, "\u2581Study": 26252, "reens": 20680, "##\u093e\u0930": 42896, "##ame": 43197, "##\u093e\u0930\u092e\u0948\u092f\u093e": 37134, "\u043a\u0441": 17943, "\u0917\u0930\u094d\u092d\u0935\u0924\u0940": 32465, "##\u672c": 47890, "\u092a\u094d\u0930\u0938\u0902\u0938\u094d\u0915\u0930\u0923": 35356, "##\u0949\u0907\u0921": 37501, "\u043d\u0430\u0447\u0430": 20877, "\u2581optical": 4192, "\u2581Parlament": 11114, "\u096d": 33947, "\u2581pretty": 7095, "\u0915\u093c\u093f\u092f\u093e": 41385, "\u2581alcan": 22442, "ick": 26868, "\u2581persona": 30729, "\u092e\u0939\u093e\u0930": 33936, "\u2581\u0441\u0442\u0430\u0440\u043e": 30852, "\u306b": 9806, "##\u093f\u0936": 32432, "\u0915\u0921\u093c\u0947": 36058, "\u092b\u094d\u0930\u0940": 42172, "\u2581grund": 6370, "\u2581ksi": 20039, "\u30b0": 1756, "\u2581/>": 15450, "\u2581Geography": 1067, "\u2581Krie": 5156, "Category": 16191, "quote": 6483, "WR": 14585, "##\u0917\u093e\u0908": 40752, "\u0927\u0941": 50468, "jdbc": 27534, "\u2581\u043f\u0438": 15470, "^{": 6548, "\u092a\u0926\u093e\u0930\u094d\u0925": 43569, "\u0932\u093e\u0924\u0947": 50277, "\u092e\u0941\u092b\u094d\u0924": 45173, "\u00eddo": 9984, "\u100a": 35568, "##\u0938\u093e\u0939": 49146, "\u0938\u093f\u0902\u0939": 32344, "\u092d\u093e\u0930\u0924\u0940\u092f\u094b\u0902": 39243, "DF": 26773, "\u092a\u094d\u0930\u0924\u093f\u0915\u0942\u0932": 44922, "\u0938\u0928\u0930\u093e\u0907\u091c\u0930\u094d\u0938": 46980, "\u0924\u0947\u091c\u0940": 43728, "\u2581vary": 31698, "\u0928\u0930\u0947\u0928\u094d\u200d\u0926\u094d\u0930": 40593, "\u0938\u093e\u0927\u0924\u0947": 33251, "\u011a": 10580, "\u2581Prozent": 13648, "\u2581amet": 1789, "\u092e\u093f\u0936\u0928": 45969, "##\u1015": 39685, "##ite": 34221, "\u2581instantiate": 3008, "##\u0924\u094d\u0924\u0930": 33212, "ozz\u00e1f\u00e9r\u00e9s": 26478, "zan": 11238, "pod": 25331, "\u2581Wi": 23617, "##\u092f\u0940": 33120, "\u2581iterator": 9925, "\u2581cc": 28890, "##\u0aa4": 44062, "\u2581taken": 29473, "relax": 28948, "\u2581solving": 11746, "\u2581Sommer": 14153, "\u2581Stand": 27118, "\u0939\u094b\u091f\u0932\u094b\u0902": 38450, "\u0938\u0902\u0926\u0947\u0936": 42341, "\u0906\u0902\u0915": 41579, "\u2581Classic": 29723, "\u2581Ne": 11467, "\u2581\\(": 9385, "\u2581expensive": 17450, "\u00eame": 19025, "##\u0941\u0936": 32801, "##\u06d2": 40290, "ntil": 31918, "\u2581polynomial": 16401, "\u2581occurr": 8141, "\u0915\u093e\u0930\u094b\u092c\u093e\u0930": 49389, "RIPT": 862, "Conf": 7280, "\u0921\u093f\u091c\u093c": 34955, "\u2581referred": 7009, "\u2581citt": 20952, "\u2581blow": 21597, "\u2581Binding": 15208, "\u2581decis": 31789, "\u0938\u093e\u0927\u093e": 42300, "\u2581rond": 4132, "\u2581Mer": 14324, "Thank": 22788, "\u0930\u0915\u094d\u0937": 34826, "\u2581FO": 8375, "download": 31814, "\u0928\u094d\u092f\u093e\u092f\u093e\u0927\u0940\u0936\u094b\u0902": 49884, "\u1ebf": 26625, "ROP": 7241, "\u2581Long": 13098, "://": 26533, "\u2581Audiodateien": 14052, "\u2581nginx": 6907, "\u092c\u0938\u092a\u093e": 48140, "olf": 29389, "\u0ac0": 44424, "leaf": 2730, "##\u093f\u092f\u0930\u094d\u0938": 39344, "\u0938\u0941\u092a\u094d\u0930\u0940\u092e\u0915\u094b\u0930\u094d\u091f": 34109, "\u2581front": 30435, "ponder": 23457, "\u2581Kommun": 21029, "\u0936\u094b\u0930": 46654, "^{+": 15921, "\u2581David": 10782, "\u2581curve": 17608, "icles": 22003, "iff": 2337, "LEASE": 13358, "\u2581p\u0159ek": 16962, "\u2581Associ": 2251, "\u2581kilomet": 2128, "\u091f\u0940\u092e": 48862, "\u091c\u093f\u0924\u0947\u0902\u0926\u094d\u0930": 45604, "ohn": 23964, "iennes": 24061, "\u2581Lyn": 21156, "\u091c\u094b\u0902\u0917": 37917, "\u0142o": 31933, "pd": 25510, "\u2581Intent": 12664, "\u2581accur": 29094, "\u0935\u093e\u0932\u0947": 48874, "WT": 18532, "\u0907\u0902\u091c\u0940\u0928\u093f\u092f\u0930\u093f\u0902\u0917": 43163, "\u0447\u043d\u043e": 10337, "\u2581\u043d\u0456": 10790, "\u092b\u0932": 43912, "\u2581Wrest": 6, "\u2581\u043d\u0430\u0446\u0438\u043e\u043d\u0430\u043b\u044c": 18977, "\u0927\u094b\u0916\u093e\u0927": 41920, "\u2190": 20293, "\u2581Near": 3617, "\u092a\u0941\u0937\u094d\u091f\u093f": 45647, "nement": 10936, "\u2581visitor": 25379, "\u2581\u0438\u0441\u043f\u043e\u043b\u044c": 10970, "\u092a\u094d\u0930\u0924\u093f\u092b\u0932": 43480, "\u2581suit": 6506, "\u2581Vincent": 19908, "\u2581premier": 26415, "ree": 28758, "Tra": 11646, "\u9060": 12619, "\u2581digit": 24332, "YPE": 2291, "Name": 7425, "##\u00ae": 46651, "##\u0aa5": 35085, "##\u091c\u0940\u092c": 43626, "\u2581Similar": 1511, "\u2581tableView": 17173, "\u8282": 3948, "\u0ca4": 36585, "Author": 9260, "\u092a\u094d\u0930\u0924\u0940": 48846, "\u2581Alg": 31865, "\u2581K\u00fc": 4426, "\u091c\u093f\u0915\u094d\u0930": 37149, "\u2581flesh": 13531, "doFilter": 6121, "vod": 11022, "\u2581sentences": 19112, "occ": 5351, "argin": 241, "XXX": 12373, "##\u094b\u091c\u0940": 34625, "##\ud835\ude06": 32253, "##\u0938\u092e\u094d\u092e\u0924\u093f": 42122, "\u2581driven": 17274, "\u2581underlying": 15190, "\u7ef4": 42948, "MQ": 18907, "fc": 22435, "nm": 29649, "\u2581Results": 28441, "\u2581canon": 19190, "\u0a3c": 32820, "\u092c\u0916": 33284, "\u0928\u0940\u0902\u092c\u0942": 39188, "\u0932\u0916": 42453, "\u092a\u093e\u0930\u093e": 41121, "(|": 2648, "\u2581geen": 25778, "\u2581jaar": 9286, "\u0905\u092c\u094d\u0926": 47209, "\u0924\u094d\u092f\u093e\u0917": 46979, "delegate": 24590, "\u2581Fort": 24500, "\u2581Barry": 9816, "\u2581who": 23857, "\u2581jan": 27042, "\uc131": 10384, "\u2581outside": 6618, "\u00f3t": 23483, "\u0920\u0941\u0915\u0930\u093e": 42017, "\u2581poster": 24625, "ppy": 26802, "\u2581tell": 27757, "##\u0930\u094d\u092f\u093e\u092a\u094d\u0924": 42708, "\u2581Kr": 2107, "\u2581eerste": 9366, "\u2581m\u00e1r": 24775, "ict": 200, "##\u093e\u0907": 36024, "\u2581Opt": 22251, "##\u0935\u0948\u091c\u094d\u091e\u093e\u0928": 35024, "\u0905\u092b\u0917": 45983, "escape": 157, "##\u0935\u094b\u0902": 32572, "\u2581however": 19813, "enza": 15905, "##\u0902\u091a\u093f\u0924": 48049, "mee": 15245, "NAME": 22485, "\u091c\u092c\u0930\u0928": 33183, "\u092c\u0947": 36369, "\u091c\u0917": 47421, "##t": 44974, "<0x33>": 13298, "\u2581Sund": 2799, "\u2581spiritual": 5000, "\u2581ds": 24680, "Edge": 16478, "\u0917\u0930\u094d\u0932": 50470, "\u2581royal": 2700, "##\u0926\u093e\u092f\u093f\u0915": 48513, "zeum": 21587, "#": 10298, "\u092a\u0930\u093f\u0938": 36267, "\u2581occasions": 27593, "\u2581\u0441\u0442\u0438": 28689, "\u092e\u094c\u0938\u092e": 34518, "\u2581\u043e\u0442\u043c\u0435": 29249, "onym": 27927, "node": 7154, "\u2581newly": 17910, "\u0917\u093e\u092f\u092c": 47912, "\u2581opport": 17998, "oin": 4851, "\u2550": 4987, "\u090f\u0939\u0938\u093e\u0928": 36622, "\u2581nach": 4673, "\u2581matters": 31978, "\u2581tot": 27432, "\u092a\u093e\u0909": 46697, "##\u0937\u0915\u094b\u0902": 34377, "\u0930\u093e\u091c\u0928\u0948\u0924\u093f\u0915": 41280, "\u091c\u093f\u092f\u094b": 44333, "\u2581hosting": 31257, "\u2581rejo": 2854, "\u091c\u091f\u093f\u0932": 37964, "pk": 19545, "\u0939\u0932": 38517, "\u0441\u0442\u0440\u043e\u0439": 28562, "agy": 16798, "\u0938\u093f\u0916\u094b\u0902": 38609, "kins": 5643, "\u0917\u0941\u092b\u093e": 35548, "\u2581Patrick": 21149, "##\u094b\u0917\u0947": 36609, "\u0930\u0939\u0940\u092e": 39539, "\u092e\u0902\u091c\u0942\u0930": 38952, "\u2581Cont": 15264, "tion": 27574, "\u2581\u043f\u043e\u043b\u0443\u0447\u0438": 23890, "\u043b\u043d": 13949, "\u2581scheduled": 22464, "\u2581sexual": 6430, "\u2581Government": 18730, "##\uffa5": 48812, "\u0433\u043e\u043c": 2678, "holds": 27542, "\u092a\u094d\u0930\u093e\u092a\u094d\u0924\u093f": 40387, "##\u0917\u093c": 40464, "\u0938\u094b\u091a\u0924\u0947": 33541, "liest": 14683, "zed": 2280, "\u2581assist": 27500, "\u0928\u093e": 48011, "##\u0938\u0940\u091f\u0940\u0938\u0940": 37612, "\u092c\u094b\u0932\u0940": 40558, "\u2581\u0412\u043e\u043b\u043e": 21426, "\u0939\u0930\u0917": 40943, "\u2581dazu": 10781, "\u2581calculus": 21646, "##\ud83d\udc8b": 41140, "plate": 15025, "\u2581\u043f\u0443\u043d\u043a\u0442": 10149, "bose": 13596, "\u0d7e": 13035, "assert": 12679, "}}_{": 617, "##\u1c71": 32115, "\u0939\u0932\u092b": 47554, "\u2581parc": 20570, "\u043c\u0430\u043b\u044c": 10434, "af": 21959, "\u2581Minister": 8650, "\u0441\u0442\u043e\u0440\u0438": 15388, "\u671d": 3357, "es": 9950, "\u2581seizoen": 20046, "\u0915\u093e\u092e\u0928\u093e": 36296, "resolve": 20374, "\u092f\u0915\u093c": 40830, "Bob": 31041, "pmod": 14762, "##ic": 33515, "\u2581boxes": 16789, "\u2581periodo": 1466, "\u2581perhaps": 15586, "/@": 26067, "\u2581atom": 30232, "\u092d\u092f\u093e\u0928\u0915": 39211, "\u0928\u092c\u0940": 42996, "\u2581\u043f\u0435\u0440\u0432\u044b": 1784, "irl": 15458, "ambiguation": 27794, "WP": 26955, "leep": 1077, "\u0915\u0948\u092a\u094d\u0936\u0928": 46695, "\u2581\u010c": 23069, "ophe": 29938, "##\u11af": 33967, "\u0906\u0915\u094d\u0930\u094b": 33028, "\u2581aggreg": 16211, "++;": 12657, "\u2581Rece": 27194, "\u092a\u0936\u094d\u091a\u093f\u092e\u0940": 45387, "\u2581donn\u00e9es": 17693, "\u090f\u092e\u094d\u092c": 42973, "bah": 15959, "\u0927\u0930\u094b": 49162, "Def": 19064, "ulus": 12262, "\u092a\u094d\u0930\u092f": 41129, "\u2581\u201d": 1430, "\u2581topology": 24024, "lop": 28544, "both": 5485, "\u2581Syn": 965, "rare": 26079, "\u0905\u0927\u094d\u092f\u0915\u094d\u0937\u0924\u093e": 32003, "\u090f\u0915\u094d\u0936\u0928": 50017, "nahm": 31275, "##\u0932": 32488, "\u2581ucz": 23654, "##\u102e": 37090, "\u0916\u093c\u0941\u0926": 33852, "EX": 6879, "\u0915\u0948\u0902\u0921": 42243, "\u092a\u093f\u0924\u093e\u091c\u0940": 34988, "##\u0902\u0917\u0924": 32966, "\u0924\u0925\u093e\u092a\u093f": 47365, "\u2581obst": 21369, "\u0918\u094b\u0937\u093f\u0924": 50142, "\u2581\u0434\u0440\u0435\u0432": 1085, "serial": 24450, "},": 26293, "\u092d\u094c\u0917\u094b\u0932\u093f\u0915": 33155, "\u090f\u092f\u0930\u092a\u094b\u0930\u094d\u091f": 36464, "\u0926\u094d\u0935\u093f\u0935": 34229, "##\u0923\u094d\u0921\u0932": 45576, "\u0b9a": 30279, "##\u093e\u0930\u094d\u0921": 48143, "ULL": 17279, "ipedia": 21134, "\u0906\u0930\u094b\u092a\u092a\u0924\u094d\u0930": 48899, "endet": 19796, "verte": 6252, "\u0915\u0930\u0942\u0902\u0917\u0940": 41758, "\u2581DIS": 7229, "\u0e04": 11062, "\u2581gang": 9535, "\u2581ling": 15204, "\u0916\u0928\u093f\u091c": 38670, "\u091a\u0932\u093e\u0908": 41796, "irm": 14490, "\u017eit": 9003, "\u0938\u093e\u092e\u0930\u093f\u0915": 44595, "ppa": 17635, "\u2581lid": 3650, "img": 31008, "\u0926\u093f\u0916\u093e\u0915\u0930": 40727, "\u0935\u093e\u0926\u0947": 43475, "Final": 6354, "\u092e\u0930\u094d\u0921\u0930": 37108, "\u2581ere": 20466, "ouvelles": 30883, "##\u093e\u0930\u093e\u092f\u0923": 37852, "essage": 26253, "\u2581besch": 22223, "\u0932\u0921\u093c\u093e\u0908": 47970, "\u2581ASP": 30826, "\u044b\u0439": 27945, "\u2581spin": 24394, "##\u093f\u0936\u094d": 32592, "scr": 12087, "nica": 5433, "\u0935\u094d\u092f\u093e\u092a\u093e\u0930": 44217, "\u2581tamb\u00e9": 22809, "\u2581\\{": 8777, "\u0935\u093e\u092a\u093f\u0938": 32302, "\u0917\u093e\u0902\u0917": 43831, "Produ": 24876, "\u2581ult": 2991, "##\u0917\u093e\u092e\u0940": 37775, "##\u0915\u093e\u0930\u094b\u0902": 49024, "\u0915\u093f\u092b\u093e\u092f\u0924\u0940": 42455, "\u0932\u091a\u0940": 37770, "\u0938\u0943": 39287, "##\u0930\u094d\u091c\u0928": 33359, "\u1ea5": 11292, "havior": 18951, "hape": 10707, "\u0935\u093f\u0927\u093e\u0928\u0938\u092d\u093e": 40274, "\u2581release": 13388, "ersch": 3800, "\u2581mouvement": 10817, "\u0930\u093e\u091c\u094d\u200d\u092f": 48231, "\u0905\u0928\u094b": 47591, "orith": 2930, "^\\": 25064, "\u092c\u093e\u0930\u0947": 45285, "FFER": 31615, "\u2581\u043b\u0435\u0442": 22456, "\u091f\u093f\u0915": 36482, "tbody": 29718, "\u0918\u091f\u0915\u0930": 40243, "\u2581Malays": 10546, "\u092a\u0930\u0947\u0936\u093e\u0928": 43401, "\u0915\u094d\u0937\u092e\u0924\u093e\u0913\u0902": 40568, "\u092a\u0941\u0930\u093e": 36223, ")));": 18218, "\u2581tools": 13633, "\u2581asks": 17950, "\u2581techniques": 18959, "components": 31924, "\u05da": 28696, "\u2581importing": 8484, "##\u092a\u094d\u0930\u0926": 38562, "\u091f\u094d\u0930\u0949": 34692, "date": 10317, ">\r": 29119, "Extension": 13193, "\u0911\u092a\u0930": 34337, "\u0938\u0940\u0930\u0940\u091c": 35712, "____": 25312, "\u092b\u093f\u0902\u091a": 45765, "##\u092b\u0947\u0915\u094d\u091f": 32074, "##\u0924\u093f\u0915": 42293, "\u2581trying": 18241, "\u0939\u0941\u0928\u0930": 37591, "\u0918\u091f\u0940": 45153, "agnost": 1770, "\u2581\u0413\u0440\u0438": 11944, "engono": 14629, "aje": 756, "\u2581Ott": 25746, "\u2581Seg\u00fan": 7037, "essed": 27706, "\u2581Albums": 21887, "ivo": 19211, "\u2581im": 15884, "\u2581Espa\u00f1": 16828, "\u0433\u0435": 13682, "##\u05e4": 44644, "mathscr": 526, "\u0917\u0941\u0921": 39857, "\u090f\u0928\u092a\u0940": 35328, "\u2581Stein": 9624, "\u2581glance": 9050, "\u2581ris": 12496, "\u0926\u0930\u094d\u091c\u0928\u094b\u0902": 46662, "\u2581estimated": 9427, "\u2581vil\u00e1g": 9004, "get": 14318, "\u091c\u0941\u0932\u093e\u0908": 43540, "ender": 26161, "sheets": 16158, "\u0930\u0923\u0928\u0940\u0924\u093f": 34204, "\u0935\u0948\u091c\u094d\u091e\u093e\u0928\u093f\u0915": 38939, "\u0938\u094d\u200d\u0935\u093e": 40146, "\u2581passengers": 31688, "\u2581succeeded": 17679, "\u091a\u0947\u0924\u093e": 41544, "\u2581wider": 16291, "\u044c\u0435": 16609, "odn": 17261, "\u2581esempio": 28822, "uzz": 29327, "\u0ba9": 26925, "\u2581Mundial": 24497, "\u092c\u0939\u0930": 47343, "though": 22609, "pha": 20214, "ocrat": 18310, "\u2581departamento": 31741, "\u2581impl": 9163, "\u0448\u0438": 21549, "\u0432\u0430\u0442": 30379, "##\u0930\u094d\u092f\u093e": 45837, "ava": 10272, "\u2581AWS": 18900, "\u2581summer": 10308, "oned": 30308, "##\u0915\u094d\u0938\u0928": 36383, "\u2581\u0437\u0430\u0434\u0430": 19633, "\u2581docs": 27507, "\u0917\u093f\u0928\u0924\u0940": 42958, "\u2581Ro": 28416, "\u2581\u00ce": 28483, "re": 6937, "\u0909\u092a\u092f": 37145, "##\u0e07": 40769, "\u2581insect": 23501, "amerikan": 27627, "\u2581Prop": 14073, ")": 16326, "\u1032": 49406, "\uff09": 597, "SSION": 29452, "TRUE": 9178, "\u00e4hr": 2713, "h\u00e9": 15878, "ischof": 19542, "\u092c\u0949\u092f": 48522, "\u2581trova": 31435, "\u0e1e": 6607, "\u2581optional": 19788, "\u2581held": 18220, "\u2581ok": 6788, "aille": 13347, "\u0906\u0902\u0915\u0921\u093c\u094b\u0902": 44969, "allowed": 29875, "\u2581corresponds": 8102, "\u2581AV": 210, "##\u093e\u092e\u0940": 49051, "\u2581\u0433\u043e\u0434\u0438\u043d\u0430": 24810, "\u2581directions": 26532, "onte": 1661, "NER": 8056, "\u2581organiz": 17059, "\u2581firefox": 29465, "\u00e1z": 22137, "\u2581Kan": 12552, "\u0906\u0920\u0935\u0940\u0902": 42741, "\u0440\u043e\u043a": 4576, "\u2581statt": 14424, "software": 30222, "\u0909\u0928\u094d\u0939": 42745, "\u091c\u0930\u093f\u090f": 44150, "\u00e1val": 11113, "\uf1f1": 49481, "\u2581curios": 31142, "his": 4838, "ident": 26348, "\u090f\u0930\u093f\u092f\u093e": 36550, "Comple": 17831, "\u0994": 34540, "\u092a\u094d\u0932\u0947\u091f\u092b\u0949\u0930\u094d\u092e": 49247, "\u0936\u093f\u0902\u0926\u0947": 50752, "\u2581Alexandre": 28398, "\u2581\u0448\u0435": 4618, "\u092f\u0939\u0942\u0926": 49668, "calendar": 6630, "\u2581Bug": 10450, "\u2581earth": 20737, "\u092a\u0942\u091b\u0924\u0947": 44327, "\u2581lud": 21003, "\u2581costru": 403, "ilor": 14654, "\u2581\u0424": 16417, "\u1215": 39831, "\u0939\u0943": 43790, "\u0435\u0434\u0438": 12577, "\u2581boot": 18976, "\u0927": 2529, "\u2581-=": 24164, "\u0437\u0435\u0439": 26011, "\u2581streets": 22113, "\u091a\u0932\u0947\u0917\u093e": 34242, "imat": 26107, "\u092e\u0939\u093e\u092a\u094d\u0930\u092c\u0902\u0927": 34390, "##\u093f\u0932\u093f\u091f\u0940": 36327, "\u092d\u0935\u0928": 32475, "anti": 27242, "\u2581craft": 7488, "\u0905\u0928\u0902": 42377, "\u0939\u093e\u0925\u0940": 32629, "##\u092c\u094d\u0938": 38264, "Listener": 29247, "delete": 12650, "##\u0928\u094d\u200d\u092f": 47657, "\u2581signature": 16102, "must": 10648, "\u2581Sto": 19358, "##\u0935\u0940\u0938": 42022, "##\u0913\u0932": 50582, "ursor": 24872, "\u2581nuit": 14937, "umph": 16836, "\u2581Fa": 12670, "\u2581erstmals": 577, "\u0915\u094b\u0935\u093f\u0902\u0926": 32771, "\u0924\u093f\u0925\u093f": 40350, "\u0915\u0920\u094b\u0930": 38163, "\u2581prepare": 10693, "##\uf1ee": 33881, "rug": 14173, "redmi": 37382, "\u0441\u0430": 28341, "website": 14103, "\u2581brave": 20065, "displaystyle": 4681, "\u0936\u093e\u0939\u0930\u0941\u0916": 34478, "\u6bd2": 40104, "\u2581Einwohner": 14070, "##\u0932\u0940\u092f": 40724, "\u0905\u092d\u093f\u0928\u092f": 48904, "\u2581Pictures": 14814, "\u092e\u0939\u093e\u092a": 41827, "\u043a\u0430\u043c\u0438": 26780, "\u0928\u093e\u0907": 50735, "##\u094b\u0917\u093f\u0915": 41109, "\u2581Gr\u00fcnd": 22531, "\u2581new": 21312, "Descriptor": 8960, "\u2581Espa\u00f1a": 14950, "oracle": 31276, "\u7f16": 10813, "\u0924\u0940\u092e\u0941": 34909, "\u2581confir": 8724, "\u2581Riv": 5730, "\u2581\u00e1r": 14565, "\u2581": 5522, "gate": 19916, "\u0915\u0915\u094d\u0937": 36397, "\u2581girl": 3158, "\u2581loose": 29686, "Ty": 8453, "\u0924\u0941\u092e\u094d\u0939\u0947": 44043, "\u2581sources": 24381, "\u2581\"*": 28169, "\u2581folgender": 15197, "##\u0a40": 47982, "\u2581Nich": 25174, "\u2581Aer": 21511, "\u2581Japanese": 31411, "\u0938\u094b\u091a": 42837, "\u2581Vue": 6012, "\u2581pen": 30272, "\u2581finished": 15821, "\u0d19": 26613, "\u092c\u094b\u0938": 50557, "\u2581\u043c\u0443\u0437\u044b": 26935, ".": 6845, "##plus": 45708, "\u2581>=": 9041, "\u0915\u0941\u0926\u0930\u0924": 35026, "\u2581d\u00ed": 28658, "\u0938\u093e\u0907\u0928": 44905, "\u2581moyenne": 9079, "ouverneur": 11648, "\u0905\u0915\u093e\u0926\u092e": 35809, "\u091f\u094b": 42334, "\u0641": 31587, "Win": 2273, "\uff0c": 29876, "('\\": 16527, "aines": 23814, "\u2581Dorf": 2347, "\u2581sprite": 7231, "\u2581Shakespeare": 3888, "\u092d\u093e\u0937\u093e": 49017, "\u5b58": 24832, "\u2581efect": 26486, "round": 26526, "Shift": 19731, "\u2581Neben": 25114, "\u0915\u0939\u0928\u093e": 41603, "\u0926\u093f\u0932\u091a": 44026, "\u2581next": 21698, "\u092c\u0942\u0925": 41630, "attribute": 24638, "\u092c\u094d\u092f\u094b\u0930\u093e": 47258, "\u2581Fiche": 4286, "##\u0329": 35812, "\u2581mysq": 28649, "\u2581Det": 29902, "\u2581govern": 8443, "\u0915\u094d\u0932\u093f\u092a": 47334, "\u2581nu": 6412, "utions": 28409, "\u2581veg": 9015, "\u2581customer": 21952, "b\u00fc": 25821, "\u0144": 25256, "\u2581kwietnia": 29019, "\u0930\u0948\u0902\u0915\u093f\u0902\u0917": 34793, "\u0938\u0941\u0916\u0926": 42846, "pal": 30442, "##\u092a\u0924\u093f\u092f\u094b\u0902": 34270, "enden": 4775, "\u0448\u044c": 28572, "\u2581buf": 31770, "\u0935\u093f\u092a\u0930\u0940\u0924": 41057, "##\u0915\u093e\u0902\u0915\u094d\u0937\u0940": 39172, "\u0939\u093e\u0932\u093e\u0902": 48982, "Why": 8606, "##\u2021": 49898, "\u2581\u043e\u0442\u043d\u043e": 10441, "\u0924\u0938\u0935\u0940\u0930": 40551, "\u0928\u0930\u094d\u092e": 33865, "\u092b\u0949\u0930": 49756, "\u9928": 8031, "anta": 3894, "##\u0c2d": 41768, "\u092e\u091c\u093c\u093e": 41765, "##\u0935\u093e\u0928": 32334, "\u0911\u092b\u093f\u0936\u093f\u092f\u0932": 35852, "\u096f": 38148, "dat": 7409, "\u0906\u0927\u094d\u092f\u093e": 39321, "\u0906\u092f\u0941\u0937": 46801, "\u0905\u0938\u094d\u092a": 32301, "##\u094d\u092f\u093f\u0915\u0940": 46255, "\u092a\u093e\u0902\u0921\u0947": 39380, "##\u094b\u0924": 47312, "\u0722": 46684, "\u2581Mary": 897, "\u092e\u0941\u0936": 42405, "\u2581scratch": 31784, "\u2581digital": 27107, "\u043a\u0442\u043e\u0440": 6226, "\u2581eind": 16241, "Scal": 21235, "ri\u00e8re": 265, "\u2581aur": 12842, ")}}": 30030, "\u4f60": 3452, "\u2581Comp": 24618, "apple": 24831, "\u0927\u0928\u094d\u092f\u0935\u093e\u0926": 37311, "\u2581users": 11037, "ktiv": 16359, "\u2581children": 20253, "ANT": 19173, "\u2581selector": 14951, "##\u0902\u091c\u0928": 35013, "\u2581There": 23843, "\u30ac": 27221, "\u2581\u043a\u043b\u0430": 2583, "\u2581Reform": 25675, "])": 12461, "zk": 29534, "\u092c\u0932\u094d": 41707, "\u2581retro": 12255, "\u2581sort": 21044, "adj": 29509, "\u2581\u043c\u0443\u0437\u0435": 2584, "]))": 32, "\u0935\u094d\u092f\u093e\u092a\u0915": 48733, "\u0983": 46347, "\u2581`#": 26433, "\u0907\u0924\u094d\u0924\u0947": 49933, "\u2581Cord": 15811, "\u090f\u0928\u0906\u0930\u0938\u0940": 33618, "\u091a\u0947\u0928\u094d\u0928": 41589, "KEY": 30690, "\u0ab6": 44780, "\u091c\u0921\u093c\u0947": 49025, "avas": 17544, "\u2581conv": 4922, "\u092e\u0930\u0947": 38880, "\u0926\u093e\u0916\u093c\u093f\u0932": 39969, "\u2581produ": 10129, "\u0db8": 5412, "\u2581concl": 9114, "\u2581Harm": 27431, "\u2581Storm": 2096, "\u2581normal": 16165, "\u5220": 6051, "\u2581System": 26838, "\u00ff": 4745, "\u043b\u043a\u0438": 12231, "\u4f53": 19051, "\u2581orange": 2768, "cala": 27615, "##\u094b\u0930\u0947\u0936\u0928": 43701, "\u30b8": 30453, "\u0921\u093f\u092a\u093e\u0930\u094d\u091f\u092e\u0947\u0902\u091f": 35260, "\u4fe1": 9554, "\u0926\u0941\u0915\u093e\u0928": 43114, "\u0917\u094d\u0930\u0938\u094d\u0924": 48127, "legte": 4853, "\u2581volume": 31354, "\u2581\u041f": 2207, "cling": 17832, "centering": 19844, "\u2581superfic": 7886, "nant": 26990, "piel": 13484, "\u2581Less": 26427, "\u2581wy": 27798, "\u9ebb": 1674, "\u0905\u0935\u0932\u094b\u0915\u0928": 33558, "##\u0937\u093e": 40985, "##\u0938\u0940\u0938\u0940": 41772, "\u092a\u0902\u0921\u094d\u092f\u093e": 43248, "\u0272": 8089, "Met": 30472, "\u2581och": 14343, "transition": 19452, "een": 22943, "\u2581wol": 7320, "edic": 1068, "actions": 17898, "\u30d9": 25361, "##\u0930\u093e": 45800, "\u092a\u094d\u0930\u093e\u0930\u0902\u092d\u093f\u0915": 46960, "ociaci\u00f3n": 10482, "\u2581pi": 16460, "##\u262b": 47235, "\u2581Can": 13555, "\u0905\u0917\u0941\u0935\u093e\u0908": 37243, "\u2581francese": 12556, "\u2581Magic": 23989, "\u9031": 47461, "\u041b": 7261, "\u2581abb": 6129, "\u0917\u094b\u092a\u0928\u0940\u092f": 32088, "##\u0936\u094b\u0927\u0928": 33189, "\u2581\u0433\u0435": 29140, "\u2581Ring": 30874, ")\\,": 9628, "\u0915\u0928\u0947\u0915\u094d\u0936\u0928": 33797, "\u2581Op": 14657, "\u2581listview": 25036, "FF": 11766, "##\u0930\u094d\u0925\u093f\u092f\u094b\u0902": 46221, "akespe": 6980, "\u0924\u093e\u0932\u0940": 32037, "\u091a\u094b\u091f\u093f\u0932": 35422, "\u01b0": 31286, "!,": 29448, "uclide": 17105, "\u092a\u0941\u0928\u0930\u094d\u0935\u093f\u091a\u093e\u0930": 39097, "##\u092e\u0941\u091a": 43743, "\u091c\u093f\u092e\u094d\u092c\u093e\u092c\u094d\u0935\u0947": 44762, "ruguay": 24839, "##\u094c\u0924\u0940": 35994, "\u0938\u0947\u0935\u093e\u0928\u093f\u0935": 43051, "##\u0935\u0943": 44446, "\u2d62": 32758, "\u092f\u093e\u0928\u093f": 39429, "\u2581Deb": 16721, "\u2581foi": 7144, "\u092c\u093e\u0902\u091f": 41887, "\u2581kinds": 28682, "\u2581Arg": 31786, "\u0928\u093f\u0915\u094b\u092c\u093e\u0930": 35758, "\u2581suggested": 29435, "gren": 19271, "\u043d\u044b\u043c\u0438": 22667, "\u2581demselben": 15867, "\u0939\u092e\u0938\u0947": 44727, "\u2581\u043e\u043f\u0448\u0442\u0438": 29770, "\u306f": 29235, "<0x6F>": 1978, "\u092c\u093e\u0927\u093e\u0913\u0902": 36463, "ursive": 29706, "\u092e\u0941\u091c\u092b\u094d\u092b\u0930\u0928\u0917\u0930": 40611, "\u2581inv\u00e5nare": 29647, "##\u094d\u091f\u0940": 32973, "\u0442\u0435\u0439": 382, "Memory": 19657, "\u2581showed": 26645, "\u223c": 14016, "pc": 8562, "\u2581besta": 9244, "Condition": 29984, "iframe": 13328, "\u2581Haupt": 1151, "zin": 3730, "##\u06ad": 37435, "training": 14050, "\u2581DLL": 23446, "\u0930\u093e\u092f\u092a\u0941\u0930": 35544, "->{": 11305, "\ua80b": 34530, "ile": 28285, "\u2581alg": 5685, "\u2581p\u00f3\u017aniej": 21889, "##\u0e40": 43898, "\u2581etwas": 25698, "\u045b\u0438": 15776, "\u00e4tt": 24100, "\u2581configur": 25831, "\u00c0": 19885, "\u0905\u0928\u093e\u0935": 38253, "\u091c\u0917\u0939": 35349, "bd": 11302, "ugh": 18412, "##\u093f\u0930\u094b": 45912, "\u2581Articles": 19327, "\u092a\u094d\u0930\u0949\u092a": 40382, "\u092a\u093e\u0938": 32896, "\u0928\u093f\u0930\u094d\u0935\u0939\u0928": 36942, "\u2581p\u00f3\u0142noc": 14929, "\u2581vie": 25538, "\u2581ao\u00fbt": 9679, "##\u0cb8": 35079, "pool": 23880, "\u0433\u0440\u0430\u0444": 9440, "\u2581Myst": 17631, "}$-": 2859, "year": 28386, "\u0928\u092e\u0928": 43522, "heck": 11355, "\u2581\u043e\u0440\u0433\u0430\u043d\u0438\u0437\u0430": 24534, "\u092e\u0940\u0930": 32539, "idea": 28066, "textt": 3415, "gov": 15749, "\u2200": 3154, "\u2581token": 10504, "\u2581match": 31604, "\u092a\u0930\u093f\u092a\u094d\u0930\u0947": 35317, "\u0938\u094d\u0935\u0940\u0915\u093e\u0930": 48738, "\u2581\u0444\u0438": 6442, "\u2581Big": 5960, "uset": 24495, "\u2581configured": 8767, "\u091a\u0948\u0902\u092a": 49157, "\u2581Heil": 20712, "\u2581stub": 98, "pin": 17870, "\u0932\u093f\u092a\u094d\u0924": 39442, "\u0938\u093f\u0915\u094d\u092f\u094b\u0930\u093f\u091f\u0940": 48210, "\u0930\u093e\u091c\u0928\u0940": 33911, "yg": 16596, "##\u0926\u094d": 40979, "\u2581ren": 1294, "\u2581}).": 2917, "\u0938\u0940\u091c\u0947": 45135, "##\u56fd": 32746, "Parameter": 4657, "\u2581pover": 16447, "\u028f": 50027, "##india": 50117, "\u2581\u017b": 13967, "\u092e\u0947\u0917\u093e\u0935\u0949\u091f": 45522, "\u0935\u093f\u0928\u093e\u0936": 41807, "\u0441\u0442\u0435\u0439": 8990, "\u0913\u0935\u0948": 40973, "\u2581\u0437\u0430": 3753, "\u2581\u0420\u0443": 23972, "\u0288": 45318, "LOAD": 24630, "\u2581Universal": 26985, "\u2581hoped": 26611, "arring": 3649, "##\u3066": 34606, "\u2581didn": 9687, "\u091f\u093e\u0908": 35464, "templates": 5614, "olt": 23803, "\u0935\u0943\u0926\u094d\u0918\u093f": 47770, "\u09ac": 7923, "<0xF4>": 2167, "\u091a\u091f\u0915\u093e": 46893, "fri": 8831, "\u091c\u0941\u0930\u094d\u092e\u093e\u0928\u093e": 46685, "ifen": 21354, "##\u090f\u0938\u0906\u0908": 33798, "\u092c\u0915\u094d": 48194, "\u0938\u092e\u093e\u0928": 50479, "\u27b2": 43369, "\u092c\u093f\u0932\u093f\u092f\u0928": 36825, "\u2581patch": 22913, "\u2581\u043c\u043e\u0436": 3043, "\u0440\u0435\u043d": 24712, "\u2581wh": 61, "\u0928\u093e\u0930\u0947\u092c\u093e\u091c\u0940": 42726, "\u2581Nik": 11799, "olas": 4472, "\u092b\u093e\u0907": 49055, "emark": 19866, "\u092d\u093e\u0917\u0940": 50120, "\u0441\u043b\u043e": 1361, "\u0905\u092d\u093f\u0935\u094d\u092f\u0915\u094d\u0924": 36771, "Gesture": 30216, "\u0441\u043d\u0438": 4956, "\u0928\u0940\u0924\u093f": 47638, "ick\u00fd": 3983, "SG": 6163, "pace": 10143, "phan": 17001, "Deb": 28225, "\u2581charged": 21348, "\u2581sr": 14283, "\u2581Ny": 2913, "\u2581Dol": 4363, "fte": 21398, "ique": 9232, "\u4ee3": 28039, "##\u093f\u091f\u0940\u091c": 45404, "##\u0928\u092e": 32806, "boolean": 9801, "max": 14005, "\u2581lado": 3741, "\u2581\u0441\u0447\u0438\u0442\u0430": 11561, "\u2581compact": 5863, "xy": 13796, "\u2581til": 3685, "\u092a\u094d\u0930\u0947\u0938": 32695, "\u0105\u017c": 8946, "##\u090f\u0915\u094d\u0938": 36520, "nitz": 3391, "getElementsBy": 24898, "##`": 50076, "\u0938\u094d\u0935": 38401, "\u0935\u0948\u0915\u0932\u094d\u092a": 32075, "\u2581Gas": 28470, "\u2581\u043b\u044e\u0434\u044f": 5484, "eurs": 16538, "\u2581reaches": 17396, "\u5b66": 29438, "\u0935\u093f\u0935\u093e\u0926\u093e\u0938\u094d\u092a\u0926": 44145, "\u2581Bl": 3311, "\u043c\u043e\u0432": 6884, "eh": 20281, "##\u0939\u093f\u0924": 35781, "\u092c\u0902\u0926": 38800, "\u092a\u094d\u0930\u093e\u092f": 36534, "##\u76ae": 32126, "Good": 13175, "\u0915\u093e\u092f": 50122, "\u2581Imperial": 22375, "\u0442\u0435\u043b\u044c\u043d\u043e": 6128, "\u2581ebenfalls": 30045, "\u0939\u093e\u0930\u094d\u0926": 32802, "\u0930\u0935\u093f\u0936\u0902\u0915\u0930": 40003, "\u2581Geme": 7630, "\u092a\u094d\u092f\u093e\u0930\u0947": 43646, "frac": 27246, "\u2581Liste": 22679, "\u2581Unix": 12277, "\u2581\u2581\u2581\u2581\u2581": 10923, "\u092a\u0940\u0921\u093c": 33549, "oni": 20164, "dfrac": 17407, "\u2581gens": 10083, "<0x17>": 15675, "\u2581katol": 30575, "##\u0947\u0915\u094d\u091f\u0930": 42086, "\u2581SK": 26029, "blica": 8525, "\u305a": 16174, "\u0971": 48659, "\u0928\u0938\u0940": 46010, "\u0924\u0939\u0930\u0940\u0930": 36829, "\u2581por": 31661, "\u0915\u092a\u093e\u0938": 35608, "pack": 14996, "\u0916\u093f\u0932\u093e\u0921\u093f\u093c\u092f\u094b\u0902": 38496, "\u0137": 7596, "\u0650": 24139, "=\"{": 21596, "oby": 13693, "\u2581\u0430\u043f\u0440\u0435": 7789, "\u0926\u0947\u0917\u0940": 40574, "oku": 1763, "##\u092c\u093e\u0932": 39515, "\u092c\u094d\u0930\u093e\u0902\u091a": 33135, "eral": 9038, "\u092b\u0941\u0932": 43936, "\u2581plaats": 30675, "\u2581Arts": 14015, "\u0443": 29693, "\u0924\u094d\u0930": 37096, "icane": 8940, "\u2581selon": 18133, "##\u0932\u0940\u0928": 47491, "\u2581backend": 5856, "\u0441\u0442\u0430\u0432\u0438": 9725, "##\u1c5c": 49409, "\u2581Age": 10475, "\u0935\u093e\u0907\u0938": 40853, "\u2581establishment": 29652, "\u2581Kirchen": 30002, "\u0939\u0930\u093f\u0924": 36285, "\u2581\u043b\u0438\u0441\u0442\u043e": 27647, "irc": 13449, "\u2581nit": 10484, "\u2581enc": 10988, "scheidung": 21821, "##\u201c": 33854, "\u0938\u0941\u0932\u091d\u093e": 34224, "\u2581borrow": 14600, "altung": 25703, "}\\\\": 10091, "##\u30ea": 36154, "\u0930\u0948\u0932\u0940": 47846, "pmatrix": 24197, "\u0915\u0948\u0932\u094d": 33420, "\u092c\u0947\u0936": 36845, "ikt": 813, "resource": 8714, "\u2581orig": 7439, "##\u0a22": 32097, "nam": 8195, "\u2581univers": 28919, "\u2581difficult": 14332, "\u2581intr": 7343, "\u2581gering": 19277, "\u092b\u094b\u091f\u094b\u091c": 43218, "\u0442\u0442": 22635, "\u091c\u092c\u0930\u0926": 40242, "\u2581Serge": 27509, "istence": 11722, "chat": 20912, "\u0938\u0942\u091f": 45734, "\u0bb4": 36827, "\u2581rich": 12807, "\u0930\u094b\u0932": 40988, "\u2581wanted": 14997, "orld": 15846, "'])": 5975, "\u2581Stockholm": 10346, "\u2581pole": 3432, "\u0915\u0943\u0924\u091c\u094d\u091e": 41748, "ishes": 5560, "\u091c\u094b\u0930": 37995, "\u2581opportun": 2169, "visibility": 18735, "gan": 3027, "series": 17155, "\u0938\u092e\u0941\u0926\u094d\u0930\u0940": 33695, "stwo": 6691, "\u2581nic": 2916, "\u0905\u0901\u0917": 41442, "oses": 25296, "\u2581important": 16235, "\u0906\u0908": 43611, "\u0917\u0924\u093f\u0935\u093f\u0927\u093f\u092f\u094b\u0902": 45466, "PAR": 1445, "\u2581estadounidense": 8418, "\u2581kill": 4431, "SF": 13444, "\u2581Schweiz": 28707, "POST": 29303, "LOCK": 11347, "\u0939\u0949\u0938\u094d\u092a\u093f\u091f\u0932": 44131, "\u2581detail": 8794, ";}": 26150, "trat": 19941, "##\u0917\u0922": 49657, "\u0938\u093f\u0915": 39095, "\u0938\u093e\u0915\u094d\u0937\u093e\u0924\u094d\u0915\u093e\u0930": 46522, "\u00fct": 5571, "lie": 12511, "\u092a\u093e\u0915\u0940": 39949, "\u2581runt": 16112, "between": 1781, "\u2581\u043b\u044e\u0434\u0438": 18880, "\u2581superficie": 13774, "\u2581just": 4356, "\u092e\u0947\u0930\u0947": 46903, "ierung": 10872, "\u2581comfortable": 24296, "\u092a\u0930\u093f\u092a\u094d\u0930\u0947\u0915\u094d\u0937\u094d\u092f": 49844, "\u0917\u093e\u092f": 46948, "\u2581\u043e\u0441\u0442": 14935, "\u2581Adolf": 29304, "Conne": 8809, "\u010b": 12181, "##\u230a": 38426, "\u2581Philippe": 25838, "\u2581newsp": 11334, "\u2581H\u00f6": 15576, "\u2581Bibliograf\u00eda": 29713, "arie": 26188, "\u0916\u0924\u0930\u094b\u0902": 38712, "zs": 26379, "\u0924\u092e": 41593, "\u2581philosophy": 29106, "\u2581casos": 31713, "\u0938\u0926\u0948\u0935": 32378, "\u092a\u0930\u0947\u0921": 50736, "\u2581\u2019": 11182, "ighed": 26991, "atti": 11025, "\u2581Little": 20700, "##\u091a\u093f\u0938\u094d\u0924\u093e\u0928": 36197, "\u0938\u0930\u094d\u0935\u092a\u094d\u0930": 42827, "\u2581encoded": 30007, "\u2581Tax": 27381, "\u8a9e": 28730, "jus": 8345, "\u2581coordin": 19179, "\u0936\u094d\u0930\u0947\u0937\u094d\u0920": 46618, "asure": 19651, "##\u4f50": 37828, "\u2581Meister": 22241, "\u2581\u043f\u0440\u0435": 8430, "\u2581hijo": 7780, "<0xE1>": 12835, "\u60f3": 7069, "\u2581partial": 8021, "allen": 10261, "\u0938\u094d\u0935\u0947": 38766, "\u2581figlio": 16968, "\u2581stress": 19068, "ContentView": 24206, "\u2581Coast": 3881, "\u2581gallery": 27632, "\u0b36": 41960, "\u2581folders": 3171, "textarea": 22808, "\u0909\u0924\u094d\u0924\u0930\u0926\u093e\u092f\u093f\u0924\u094d\u0935": 32784, "##\u0926\u093f\u0930": 45096, "\u092a\u094d\u0930\u0935\u093e\u0938\u093f\u092f\u094b\u0902": 44232, "fre": 26458, "\u092c\u0928\u093e\u092f\u093e": 37185, "\u0906\u092f\u094b\u091c": 38026, "\u0d42": 33656, "}^{\\": 1961, "\u1021": 47740, "Join": 28235, "\u1100": 32641, "\u0935\u093f\u0927\u093e\u092f": 47159, "\u2581\u043f\u043e\u043f\u0443": 3107, "\u2581wor": 10181, "mor": 18853, "##\u0937\u094d\u091f\u094d\u0930\u0940\u092f": 43408, "\u0932\u0917\u093e\u0935": 39042, "?:": 23211, "\u30d1": 4932, "\u2581Sied": 14371, "adr": 13435, "uellement": 10155, "\u0905\u092c\u0924\u0915": 35150, "olu": 17503, "\u2581nob": 15109, "empty": 23652, "f": 31797, "\u2581sua": 2974, "\u00e9t\u00e9s": 26210, "\u2581Jacques": 10159, "uv": 4019, "\u2581Template": 16021, "arna": 5458, "PATH": 609, "##\u0932\u0915": 35309, "\u0913\u0921\u093f\u0936\u093e": 34584, "\u2581Een": 17646, "\u2581hopefully": 26271, "\u0a05": 43950, "\u0932\u0915": 47148, "\u2581school": 23818, "hed": 23079, "##\u0927\u0940": 43174, "\u2581lay": 386, "\u2581deep": 3058, "\u2581km": 15347, "\u2581Gran": 2521, "\u0447\u0435\u0441\u043a\u0438\u0445": 7742, "##\u092a\u0941\u0924\u094d\u0930": 41814, "crete": 31082, "\u0924\u094b\u0939": 37253, "ictwo": 8897, "\u0915\u093f\u0924\u0928\u093e": 43550, "\u092e\u093e\u0932\u0926\u0940\u0935": 46563, "\u0909\u092a\u0932\u092c\u094d\u0927\u0924\u093e": 43325, "\u2581zat": 22753, "##\u9053": 39778, "\u092c\u093e\u0909": 48473, "aza": 28804, "\u0142\u00f3w": 14567, "ever": 2824, "\u2581Dre": 18094, "\u2581rescue": 11344, "relative": 712, "reme": 12375, "\u2581\u0441\u0442\u0435": 28839, "Weight": 2684, "\u2581ubic": 14914, "##\u091c\u093e\u0930": 33735, "j\u00e4r": 17589, "\u2581Typ": 24127, "\u0441\u043a\u043e\u0458": 581, "\u092a\u0924\u094d\u0925": 40422, "\u2581teaching": 30523, "\u2581controllers": 17122, "\u2581beautiful": 12051, "linewidth": 11095, "\u2581mongo": 7988, "\u0926\u0941\u0906": 39301, "velop": 15648, "\u2581compat": 13964, "details": 31808, "\u2581Seit": 18746, "icional": 26724, "##\u5c11": 36485, "\u2581Columbia": 20041, "\u2581dal\u0161\u00ed": 22011, "\u2581reprodu": 3144, "usepackage": 12421, "named": 23595, "\u0938\u094d\u0935\u0940": 34778, "\u092c\u094d\u0930\u093f\u0917\u0947\u0921": 46405, "\u2581Sainte": 26715, "<0xC5>": 10983, "##\u0914": 40495, "\u0907\u0902\u091f\u0930\u0935\u094d\u092f\u0942": 33395, "##\u0935\u0947\u0932": 37024, "Show": 17352, "##\u092a\u094d\u092a\u093e": 47445, "\u092a\u094d\u0930\u094b\u091c": 50376, "\u0938\u094d\u091f\u094b\u0930\u0947\u091c": 43296, "\u2581Roberto": 20486, "\u0915\u0941\u0930\u0941": 43587, "\u2581Energy": 27177, "\u026b": 23665, "\u0926\u0942\u0924\u093e\u0935\u093e\u0938": 37816, "\u2581animation": 894, "\u2581Millionen": 17151, "\u0938\u0940\u0906\u0908": 43984, "\u2581Application": 17109, "\u2581SP": 148, "##\u094d\u0915\u094d\u0937": 41942, "\u2581illustr": 18022, "\"/>": 3949, "\u2581\u043d\u0430\u0441\u0435\u043b\u0435\u043d\u0438\u044f": 28059, "\u0446\u0443": 4353, "\u0938\u092e\u091d\u0926\u093e\u0930\u0940": 39470, "map": 15034, "\u2581correct": 21344, "loader": 1008, "resources": 22430, "\u2581click": 9791, "\u0432\u043e\u0441\u0442\u043e": 9067, "\u5468": 5160, "##\u1c6e": 39846, "type": 1616, "\u2581lij": 30708, "\u2581regnigaste": 437, "\u2581Hand": 17018, "\u090a\u0930\u094d\u091c\u093e": 50315, "argent": 11284, "##\u092b\u093e\u0907": 32402, "##\u4fa0": 49341, "\u2581able": 28400, "\u0907\u092c\u0930\u093e\u0939\u0940\u092e": 43824, "\u2581ang": 10348, "\u092e\u0902\u0917\u094b\u0932\u093f\u092f\u093e": 44287, "\u2581Liber": 11107, "warn": 19189, "\u2581sah": 12645, "is\u00e9": 10941, "pit": 144, "]\"": 6184, "hoff": 13866, "\u2581Wars": 787, "\u0909\u0924\u094d\u200d": 36258, "\u0938\u0947\u092e\u093f\u0928\u093e\u0930": 49839, "\u4ed9": 33234, "\u2581ls": 4161, "\u2581muse": 18061, "\u2581e": 28116, "##\u092c\u094d\u0930": 46260, "\u2581Front": 27963, "ucion": 16088, "\u0936\u094d\u0930\u0940": 39771, "\u2581junior": 4090, "\u1103": 47901, "oded": 23720, "reibung": 23478, "\u2581\u0442\u043e\u0432\u0430": 25938, "\u2581arrive": 699, "\u2581helper": 16755, "\u2581survey": 1308, "\u091c\u0938\u092a\u094d\u0930\u0940\u0924": 37319, "\u2581Function": 27205, "##\u090f\u0938\u0921\u0940": 45403, "##\u094d\u092f\u092e": 49962, "\u2581\u0414\u0436\u043e\u043d": 27406, "\u0936\u093e\u0938\u094d\u0924\u094d\u0930": 40866, "##\u093e\u0907\u0932\u094b\u0902": 43786, "\u0938\u0902\u0918\u094b\u0902": 39466, "\u092f\u0936\u0935\u0902\u0924": 49500, "\u091c\u091c": 32615, "\u2581tem": 8765, "\u2581libraries": 7345, "brie": 30534, "\u2581pes": 9196, "\u0930\u093f\u0915\u094d": 40264, "\u0938\u093e\u092f": 49021, "\u2581academic": 31663, "##\u0935\u0947\u0928": 38058, "\u0915\u0930\u094b\u0917\u0947": 37497, "\u1f30": 20701, "lapsed": 13031, "?](": 29987, "\u2581params": 4731, "AP": 6092, "\u8bb0": 28310, "\u2581sor": 22147, "\u092b\u0948\u0938\u0932\u093e": 44552, "\u0386": 19592, "\u77ed": 44836, "ceed": 5744, "\u092c\u0902\u0926\u0940": 38857, "\u2581Mall": 19691, "what": 1680, "\u2581photo": 29791, "\u0935\u093f\u0928\u093f\u0930\u094d\u0926\u093f\u0937\u094d\u091f": 46091, "\u068c": 50026, "Unis": 3659, "\u2581pull": 29481, "\u092a\u0941\u0932\u093f\u0938\u0915\u0930\u094d\u092e": 45646, "reven": 23853, "\u0911\u0921": 39214, "##\u0d33": 50358, "\u2581elect": 3541, "clam": 19714, "\u2581Formula": 5956, "\u0448\u0438\u0439": 1893, "\u2581Computer": 6554, "\u0917\u0941\u0930\u0941": 42033, "\u2581sn": 15484, "\u00ea": 31893, "##\u0935\u0948\u0927\u093e\u0928\u093f\u0915": 49287, "Transform": 6376, "\u0909\u0920\u093e\u090f": 36051, "\u2581\u0437\u0430\u0441\u043b\u0443": 13688, "##\u091c\u0930": 47331, "\u2581arbeitete": 19127, "\u2581r": 19947, "utes": 18243, "race": 6921, "##\u0440": 36124, "\u092a\u0902\u091a\u0915\u0942\u0932\u093e": 38053, "\u2581meilleur": 22938, "\u2581rectangle": 6766, "\u0917\u094b\u0939": 45568, "\u0938\u094d\u0925\u093f\u0924\u093f": 46889, "same": 16796, "\u2581through": 30927, "\u092a\u094d\u0930\u0916\u094d\u092f\u093e\u0924": 32670, "\u2581dynam": 27538, "\u092a\u094d\u0930\u0936\u0902\u0938\u0915": 46996, "\u0906\u0930\u094d\u092e\u0940": 44852, "\u0906\u092b": 39991, "icago": 8225, "\u2581\u041f\u0456\u0441\u043b\u044f": 25219, "!)": 23375, "virt": 11760, "\u091b\u093e\u092f\u093e": 48067, "\u2581feas": 25146, "\u2581ED": 24406, "\u043f\u043e\u0432": 1401, "\u06ac": 39178, "mathchar": 21634, "\u2581noted": 12883, "\u2581man": 20525, "\u0907\u0902\u0917\u094d\u0932\u0948\u0902\u0921": 43152, "tau": 23942, "\u0921\u093e\u0932": 33772, "tml": 20851, "##\u092b\u093c\u094d\u0930": 45921, "\u2581september": 22268, "itime": 25724, "\u2581dign": 17689, "\u043d\u0438\u0439": 5887, "\u2581\u0437\u0430\u043d\u044f": 5922, "thy": 1313, "Portail": 20611, "\u091a\u093e\u0932\u0940": 35698, "\u0926\u094d\u0935\u0940\u092a\u094b\u0902": 47479, "\u0905\u092d\u093f\u0928": 36992, "\u95e8": 23274, "\u092a\u0947\u0936\u093e": 36588, "\u2581:)": 9858, "\u092a\u0939\u093f\u0932\u0947": 46180, "\u0905\u0938\u094d\u0925": 39599, "\u2581radial": 22878, "\u2581grown": 9398, "\u0928\u093e\u0928": 43933, "\u2581\u0412\u044b": 27865, "\u094a": 44116, "\u0938\u0941\u0927\u093e\u0930\u094b\u0902": 46472, "\u091b\u0947\u0921\u093c": 32586, "an": 7091, "urname": 19840, "\u0938\u0947\u091f": 46298, "\u2581pubblic": 705, "\u0939\u093e\u0908": 40157, "\u0905\u0930\u094d\u0925\u0935\u094d\u092f\u0935\u0938\u094d\u0925\u093e\u0913\u0902": 42761, "fix": 7021, "\u2581suggestions": 11699, "\u2581Physics": 2758, "##h": 49867, "\u0938\u0902\u0917\u094d\u0930\u0939": 45047, "\u2581Mam": 15409, "\u2581ambient": 2034, "\u0905\u0916\u092c\u093e\u0930": 48031, "##\u0947\u0902": 49603, "seg": 11661, "\u2581exterior": 11908, "\u0915\u093c\u0926\u092e": 36133, "protocol": 15691, "ote": 18186, "\u0936\u093f\u0928\u093e\u0916\u094d\u0924": 46504, "\u2581quelque": 3836, "\u2581escrit": 22864, "\u2581csv": 2915, "\u0449\u0430\u044f": 12890, "\u2581tomb": 19519, "lor": 24603, "\u2581upgrade": 20136, "ensus": 166, "##\u072a": 36812, "##\u094d\u092a": 49784, "##\u092c\u0930\u094d\u0917": 48263, "o": 24735, "\u0938\u0939\u0915\u093e\u0930\u093f\u0924\u093e": 32587, "\u091c\u0947\u0921\u0940\u090f\u0938": 48299, "\u2581shut": 21001, "\u092a\u094d\u0930\u0947\u0930\u093f\u0924": 37776, "\u2581total": 20338, "uous": 20322, "\u9b3c": 9510, "iele": 30235, "\u0938\u0924\u094d\u0924\u093e\u0930": 48051, "\u091a\u093e\u0930\u094d\u091c": 36187, "##\u0918\u093e\u0924": 41108, "\u2581generator": 19042, "\u092e\u093f\u091f\u093e": 35997, "\u091f\u0942\u091f": 33547, "\u2581evening": 7249, "\u2581innerhalb": 29799, "met": 18485, "\u2581Machine": 19057, "\u2581Ku": 2632, "\u0915\u093f\u0936\u094b\u0930": 46209, "\u0905\u0928\u093f\u0936\u094d\u091a\u093f\u0924\u0924\u093e": 47238, "\u2581constitu": 30019, "\u0928\u093f\u0930\u094d\u0923": 35333, "\u2581Max": 4566, "\u2581timing": 14534, "\u2581Veg": 20870, "inv": 26270, "\u0938\u0902\u0926\u0940\u092a": 43673, "\u092e\u0941\u0915\u094d\u0924": 41252, "\u0928\u093f\u0935\u0947\u0926\u0928": 49062, "!...": 2533, "\u0928\u091c\u093c\u0926\u0940": 49906, "\u043f\u0440\u043e\u0441\u0442\u0440\u0430": 12824, "\u2581increased": 18741, "\u2581dot": 17944, "\u00eas": 1263, "aci": 16889, "\u0447\u0435": 18575, "\u2581dollars": 20061, "\u092c\u093e\u0902\u0927": 47327, "\u2581Publications": 13152, "bus": 25212, "\u0e44": 2327, "lose": 16629, "\u043c\u0435\u0441\u0442": 6525, "\u0911\u0915\u094d\u091f\u093e": 42624, "\u092e\u094c\u0916\u093f\u0915": 37924, "\u0938\u094d\u0925": 36539, "\u2581\u043a\u043e\u0458\u0438": 12356, "\u2581orientation": 4145, "##\u0916\u092c\u0930\u0940": 48038, "dawn": 27269, "ikan": 23873, "\u0915\u0902\u092a\u0928\u093f\u092f\u093e\u0902": 46183, "riter": 12035, "r": 29685, "\u091c\u093e\u0928\u0928\u093e": 38439, "alus": 29581, "foot": 27621, "\u2581opin": 14862, "\u2581border": 21012, "\u2581auc": 5358, "\u092e": 8166, "\u0631": 12239, "\u2581Entertain": 14825, "\u2581mistaken": 8145, "\u0907\u0938\u0915\u0940": 42244, "\u80f6": 44428, "\u2581clim": 30674, "\u2581tall": 14352, "##\u0b3f": 48110, "()": 857, "##\u0923\u0940": 43435, "\u0437\u044c": 20674, "\u2581Studio": 12328, "\u0441\u043b\u0435\u0434\u043e\u0432\u0430": 3690, "\u092e\u0902\u0917\u0932": 39764, "umbn": 11930, "##\ud835\uddf9": 39007, "\u2581Schne": 4166, "\u2581d\u00e9": 17319, "\u2581conse": 2957, "\u0924\u0948\u092f\u092c\u093e": 46411, "\u2581breaks": 9128, "##\u0935\u0932\u0940": 33127, "num": 16325, "##\u093f\u0928\u0940": 32667, "czas": 29300, "\u00e2tre": 10428, "\u0936\u0935\u094b\u0902": 47948, "##\u0947\u0928\u0947": 44036, "\u2581oracle": 14414, "\u2581Console": 5097, "##\u092e\u0915": 37958, "\u0935\u093f\u0926\u094d\u092f\u093e": 39664, "Panel": 27511, "\u0938\u093e\u092b\u093c": 32689, "ission": 30341, "##\u0a41": 38747, "\u2581bless": 8171, "\u092a\u0930\u093f\u0938\u0902\u092a\u0924\u094d\u0924\u093f\u092f\u094b\u0902": 40405, "\u2581upload": 13039, "\u0905\u092a\u0930": 46934, "\u0930\u093e\u0936\u093f": 34517, "\u2581future": 25483, "\u2581Urban": 29402, "\u0932\u093e\u0928": 50043, "\u0442\u0438\u044f": 9051, "\u2581Rechts": 27276, "##\u0bcd": 43952, "\u092e\u094b\u0930\u094d\u091a\u0947": 33271, "\u2581consisted": 1985, "\u0909\u0932\u094d\u0932\u0902\u0918\u0928": 50071, "\u0905\u0902\u0927": 40226, "\u0932\u0921\u093c\u0928\u093e": 33276, "\u09b8": 8695, "<0xDF>": 12731, "\u00e9nt": 8144, "\u2581hydro": 8396, "\u092a\u094d\u0930\u094b\u091f\u094b\u0915\u0949\u0932": 50155, "\u2581d\u00e9r": 16837, "caa": 33657, "##\u092d\u091c\u0928": 35801, "\u2581magyar": 24627, "\u091a\u094c\u0927\u0930\u0940": 40072, "\u2581cic": 8101, "\uf602": 44140, "\u2581heter": 19338, "##\u8428": 47891, "\u2581whe": 15413, "\u2581Valle": 22694, "\u6642": 528, "\u0bb0": 21902, "\u0922\u093e\u0902\u091a\u093e": 49186, "\u2500\u2500\u2500\u2500": 20980, "\u2581pr\u00e9sente": 14848, "\u2581propriet": 26510, "##\u093f\u091c\u093c": 47210, "\u0906\u0930\u094d": 41130, "\u2581Abs": 23255, "##okia": 40222, "##^": 46234, "\u0915\u0932\u094d\u092f\u093e\u0923": 41792, "xaml": 2577, "##\u0939\u0947": 40646, "bject": 31426, "\u2581closed": 29016, "\u2581voz": 24785, "\u0907\u0930\u093e\u0915": 36291, "\u0928\u0949\u0928": 42106, "##\u091c\u093c": 50704, "\u2581handled": 29312, "\u2581dinner": 30056, "Pool": 27200, "\u2581Jur": 6502, "\u2581SI": 20186, "##\u0936\u094d\u0935\u093f\u0915": 35136, "\u092e\u0947\u092e\u094b\u0930\u093f\u092f\u0932": 37244, "\u0905\u0928\u0941\u0938\u093e\u0930": 41098, "\u2581vessel": 26438, "##\u092e\u093e": 45283, "glass": 11655, "\u0915\u0943\u092a": 46422, "\u0905\u092e\u0930\u0928\u093e\u0925": 36322, "##\ud835\uddfb": 43116, "\u043d\u0430\u043c\u0438": 8575, "\u0905\u0928\u0941\u091a\u093f\u0924": 49660, "----------------": 30154, "\u2581maior": 20678, "##fc": 42041, "\u2581Court": 12633, "\u2581publish": 4815, "Azure": 11849, "\u2581\u0420\u0435\u0437\u0443": 25428, "\u2581Value": 16217, "\u021ba": 14607, "\u0913\u092c\u0940\u0938\u0940": 46678, "Counter": 29965, "\u2581Met": 22844, "MT": 80, "\u1ea7": 10937, "bf": 14739, "energy": 28325, "\u2581Drag": 239, "##\u094b\u0902": 38555, "istre": 19270, "##\ufedf": 42976, "\u2581Garden": 7957, "##\u0916\u0932\u0947": 47685, "ka\u0144": 5847, "Json": 30832, "onneur": 11455, "##\u0938\u094d\u200d\u0925": 42414, "\u2581achter": 5681, "\u2581holds": 13132, "\u2581\u043a\u0430\u043d": 31387, "##iz": 32514, "\u092c\u0947\u0917": 43802, "\u0927\u0930\u0928\u0947": 43300, "\u2581Valid": 30702, "\u2581Basically": 26384, "\u2581volte": 19636, "\u9054": 6004, "\u2581An": 25306, "\u0926\u0947\u0916\u093e": 40091, "\u05c1": 27139, "\u0928\u093f\u200d": 48072, "\u2581except": 25362, "\u7063": 45164, "days": 9010, "ardo": 15564, "\u2581d\u00e9partement": 12962, "\u2581kr": 27075, "\u0907\u0915\u093e\u0907\u092f\u094b\u0902": 44913, "\u2581yard": 472, "\u092c\u093e\u0907\u0915": 32055, "\u092f\u093e\u091a\u093f\u0915\u093e\u0915\u0930\u094d\u0924\u093e": 40739, "\u0938\u092e\u0924\u093e": 38089, "\u2581Var": 4818, "\u0921\u093f\u0938": 39962, "\u2581ways": 19072, "\u0938\u093f\u092a": 42370, "\u2581Jim": 677, "\u7d22": 17386, "\u7b97": 17643, "##\u092c\u094d\u0926": 37761, "\u00e1g": 30890, "\u043d\u0435": 17529, "\u0906\u0926\u092e": 39487, "dates": 15460, "dfs": 31227, "\u091f\u093f\u0915\u093e\u090a": 39508, "\u0928\u093f\u0937\u094d\u092a\u0915\u094d\u0937": 40991, "\u092e\u0941\u0906\u0935\u091c\u093e": 43764, "application": 7292, "\u092a\u093e\u0928\u0940": 50052, "contains": 17768, "initialize": 17861, "\u2581producer": 19384, "\u2581cloth": 13605, "\u2581Ton": 13625, "ovo": 6327, "oben": 29643, "\u0939\u093e\u091c\u093f\u0930": 48226, "\u0905\u0936\u094d\u0935\u093f\u0928": 36112, "\u2581\u0441\u0456\u0447\u043d\u044f": 15407, "\u0907\u0902\u0921\u0940": 35690, "fram": 13002, "athers": 15599, "\u2581assass": 7235, "\u092d\u093e\u0908\u091a\u093e\u0930\u0947": 44050, "\u092a\u094b\u0937\u093f\u0924": 33747, "').": 26504, "\u2217": 25930, "##\u044e": 45914, "##\u0ca5": 44321, "ar\u00e1": 15653, "##\u093f\u092f\u094b\u0902": 32160, "\u2581pag": 23173, "irect": 29491, "\u092e\u0939\u093e\u0930\u093e\u0937\u094d\u091f\u094d\u0930": 50366, "\u0927\u093e\u0930\u093e\u0913\u0902": 41207, "\u0927\u093e\u0930\u0923\u093e": 39533, "\u0935\u0930\u094d\u0923": 48436, "\u2581capac": 12945, "onomy": 21265, "mode": 18104, "\u2581\u0448\u0438": 21362, "\u2581Ti": 1064, "##\u092f\u094b": 35010, "##\u0909\u0902\u0921": 40594, "CLARE": 16702, "anging": 28642, "\u0442\u043e\u0439": 21065, "\u72b6": 18965, "\u092c\u0932\u094d\u0932\u0947\u092c\u093e\u091c\u094b\u0902": 32981, "\u0935\u093f\u0936\u093e\u0916\u093e\u092a": 43913, "##ive": 32319, "\u00f5es": 7921, "##\u0932\u0947\u0902": 45081, "\u0435\u043b\u044c": 31541, "tek": 18330, "##\u0930\u094d\u091a": 35492, "\u0938\u092e\u0928\u094d\u0935": 48216, "\u0938\u0924\u094d\u0924\u093e\u0930\u0942\u0922\u093c": 46974, "\u2581vendor": 7525, "\u2581Fahr": 29006, "\u091f\u0949": 49079, "\u2581temporal": 18691, "rop": 435, "\u2581ip": 7658, "imas": 14303, "\u2581Jews": 10523, "\u090f\u0928\u0921\u0940": 47737, "\u2581\u043e\u0431\u044a": 3761, "\u2581Dem": 31215, "##\u094d\u092f\u0941\u0932\u0930": 50338, "##\u0947\u0915\u094d\u091f": 41848, "\u2581Size": 24477, "IMAGE": 2721, "\u0945": 32809, "##\u0921\u093f\u092f\u094b\u0902": 45224, "\u2581Kirk": 3110, "\uc694": 26320, "\u0924\u092c": 38046, "\u3067": 10192, "##\u0935\u0949\u091f": 36351, "##\u094b\u0930\u094d": 36198, "\u092b\u093f\u0932": 35143, "\u2581onclick": 5423, "\u092e\u0939\u0940\u0928\u094b\u0902": 50320, "\u2581themselves": 16971, "kou": 15535, "\u0928\u093f\u0930\u093e": 38247, "\u092a\u094d\u0930\u092e\u094b\u0936\u0928": 47162, "ultado": 27920, "\u2581Charlot": 10773, "intro": 23775, "acja": 393, "\u2581Newton": 20143, "\u092d\u093e\u0937\u093e\u0913\u0902": 45172, "\u2581zie": 4522, "\u2581Sid": 14240, "\u2581ii": 12452, "\u2581Primera": 4872, "brains": 26330, "pling": 10288, "\u0907\u0902\u0921\u093f\u092f\u0928": 41916, "\u2581asking": 24524, "\u534e": 10628, "\u092a\u094d\u0930\u0924\u093f\u091c\u094d\u091e\u093e": 34724, "abil": 9971, "\u2581zw": 19650, "\u2581\u0427\u0438": 27198, "alter": 29600, "##\u093e\u092f\u093e\u0939": 35842, "\u043c\u0435\u043d\u0435": 4035, "\u2581characteristics": 8792, "\u2581Foo": 9252, "##\u0935\u093e\u0921\u093c\u0947": 49069, "ccion": 10295, "\u092a\u094d\u0932\u0947\u091f": 35236, "\u0906\u0936\u094d\u091a\u0930\u094d\u092f": 40177, "\u2581Super": 29942, "nested": 10365, "\u0936\u092c": 48526, "\u2581air": 3347, "\u0432\u0440\u043e": 23158, "\u0935\u093e\u0915\u094d\u092f": 33663, "\u2581refresh": 5626, "\uf02c": 34893, "\u2581Before": 15987, "\u2581hogy": 6178, "\u0932\u0947\u0921\u0940": 47698, "\u043b\u043e": 7919, "\u0921\u093e\u0915\u094d\u091f\u0930\u094b\u0902": 50271, "\u2581\u043a\u043e\u043b\u0438": 248, "inner": 9952, "embers": 17280, "\u2581revealed": 4062, "\u2581ehem": 30820, "\u2581b\u00f6r": 9216, "\u2581exact": 26630, "\u2581\u043f\u0440\u043e\u0438\u0437": 19000, "\u2581expectation": 20651, "\u2581four": 17084, "\u7b2c": 11234, "\u2581paper": 15720, "\u2581abitanti": 13499, "\u092e\u094b\u0939": 45346, "\u2581*.": 18204, "##\u093e\u0930\u0923": 43456, "\u2581wave": 10537, "\u091f\u0947\u0932\u0940\u0915\u0949\u092e": 39544, "\u2581HO": 19341, "\u2581Chinese": 716, "\u092e\u0947\u0917\u093e": 40642, "\u0938\u094d\u092a\u0937\u094d\u091f\u0940\u0915\u0930\u0923": 37268, "\u2581course": 18256, "bug": 14325, "\u0906\u092a\u0926\u093e\u0913\u0902": 37884, "\u2581Pennsylvan": 9742, "\u826f": 14589, "wan": 10387, "\u092a\u0948\u0917\u093c": 49358, "\u2581Verein": 8503, "\u0938\u0940\u0927\u0947": 42939, "sets": 28000, "\u2581closure": 23222, "\u2581Font": 1800, "\u090f\u092a\u093f\u0938": 40172, "\u2581HD": 15844, "\u0915\u093f\u0928\u093e\u0930\u0947": 49460, "\u0938\u0902\u0938\u094d\u200d\u0925\u093e\u0928\u094b\u0902": 44412, "\u2581Democr": 5316, "\u2581reun": 6719, "\u2581tim": 160, "##\u0915\u0947\u0936\u0928": 33335, "izard": 3486, "\u0938\u094d\u091f\u094b\u0930": 49454, "\u0905\u0902\u092c": 43613, "\u0920\u0939\u0930\u093e\u092f\u093e": 39013, "##\u0936\u0947\u0926": 37667, "\u00edo": 2726, "BeanFactory": 18270, "##\u0e94": 39417, "\u1f31": 12191, "\u00f4le": 13799, "schied": 19910, "##ission": 43450, "curr": 29497, "\u0926\u093f\u0938\u0902\u092c\u0930": 50656, "\u0928\u093f\u0915\u093e\u092f": 34979, "IAL": 4653, "verify": 18803, "\u2581MC": 22288, "n\u011b": 5551, "\u0936\u092e\u0940": 43855, "##\u0580": 33675, "Zone": 21533, "##\u092a\u0940\u090f": 34805, "\u0907\u0932": 47453, "umble": 2371, "\u2581determine": 15467, "\u092e\u0947\u0939\u0930\u093e": 46113, "ex": 15056, "lbl": 20391, "\u2581accepting": 16635, "\u2581protected": 14474, "\u091a\u0941\u0928\u094c": 40458, "\u2581pitch": 18036, "\u00e8se": 5210, "\u2581meets": 27510, "\u2581issues": 3279, "istro": 9877, "\u092c\u0948\u0920\u0940": 41866, "chs": 4552, "\u092a\u094d\u0930\u0947\u0937\u093f\u0924": 41534, "\u092a\u094d\u0930\u0935": 32011, "\u2581Put": 21229, "\u2581seguito": 31711, "<0x81>": 13616, "\u2581verf": 13895, "##\u0918\u093e\u091f\u0928": 47070, "ject": 23249, "\u092f\u0942\u092a\u0940\u090f": 47955, "##\u091f\u0915\u093e": 35577, "\u2581terrain": 13559, "\u2581reduction": 5, "skip": 2869, "\u0928\u0940\u0924\u093f\u092f\u094b\u0902": 43650, "\u00e9n\u00e9": 19427, "\u091b\u093e\u0908": 36394, "\ubc29": 24448, "##\u093e\u0907\u092f\u094b\u0902": 36068, "##\u7586": 50489, "\u0905\u092e": 39269, "youtube": 5051, "\u2581+": 23389, "spieler": 14268, "##\u5cf6": 38754, "\u0939\u0948\u0926\u0930\u093e\u092c\u093e\u0926": 34170, "\u0144cz": 18298, "\u091c\u094b\u0938\u0947\u092b": 32362, "ard": 29775, "\u0924\u0924\u094d\u092a\u0930": 32617, "\u2581Evangel": 30243, "\u2581sido": 2753, "\u2581arrival": 26771, "\u2581verse": 6098, "lar": 9730, "isions": 12622, "Th": 2983, "\u2609": 22964, "\u0926\u094b\u0928\u094b": 49669, "extra": 1180, "##\u559c": 35873, "\u0909\u0924\u094d\u0924\u0930\u0926\u093e\u092f\u0940": 48330, "\u00e9m": 30730, "\u2581LIMIT": 20573, "atorial": 26996, "\u2581neglect": 12709, "summary": 17284, "\u2581weapon": 24768, "\u0273": 34296, "\u2581exception": 14488, "unsigned": 19569, "\u0905\u0928\u0941\u092c\u0902\u0927": 36450, "Ital": 5848, "\u0917\u0902\u0917": 37467, "\u0295": 32563, "\u091f\u0947\u0938\u094d\u200d\u091f": 33250, "v\u00e9": 6002, "stackexchange": 3404, "\u2581sb": 5449, "\u092e\u0941\u0906": 34776, "\u2581Tig": 206, "nung": 2435, "\u6ee8": 41211, "\u0915\u093e\u0930\u0923\u094b\u0902": 43818, "##\u0915\u093e\u0930\u093f\u092f\u094b\u0902": 49744, "\u2581Figure": 28949, "\u2581launch": 18325, "\u092a\u0921\u093c\u0924\u0940": 35694, "\u2581Meyer": 3620, "AS": 11792, "##\u0927\u093f\u0915\u0943\u0924": 35156, "\u2581chanson": 30860, "\u2581[];": 31218, "ongs": 10770, "\u2581rat": 16565, "\u0917\u0935\u0930\u094d\u0928": 45300, "\u092e\u093e\u0928\u0924\u0940": 36618, "\u0939\u093e\u0930\u0947": 45565, "##\u0915\u094d\u091f\u0940": 39086, "ently": 30810, "\u2581Anders": 30645, "\u2581Ham": 10354, "\u0938\u094d\u091f\u094b\u0915\u094d\u0938": 38976, "\u2581William": 25696, "\u2581ant": 15425, "\u2581usual": 1423, "\u2581easiest": 12742, "liga": 24290, "\\}$": 18136, "\u2581becomes": 5466, "orp": 4875, "\u092a\u094d\u0930\u0924\u093f\u092d\u093e\u0917\u0940": 44697, "\u0440\u0438\u0438": 9480, "\u092a\u0930\u0902\u092a\u0930\u093e\u0913\u0902": 49810, "--": 2939, "\u2581\u0444\u043b\u043e": 18339, "Famil": 10669, "\u2581Ji": 5301, "\u2581defe": 6388, "\u2581Row": 25644, "##\u200d": 43128, "\u8868": 24087, "\u0905\u0928\u092e": 32471, "##\u092d\u093e\u0935": 34922, "##\u03b1": 37072, "##\u0930\u094d\u0928": 49712, "\u092a\u0942\u0930\u094d\u0935\u093e\u0928\u0941\u092e\u093e\u0928": 35242, "zia\u0142": 15083, "\u0905\u0921\u094d\u0921\u0947": 41425, "\u2581restaur": 18261, "Indicator": 11155, "\u0938\u0930\u0926\u093e\u0930": 39292, "ow\u0105": 8409, "\u0442\u0430\u044f": 11498, "\u2581download": 31449, "ups": 29321, "Thread": 29466, "\u0939\u091c\u093e\u0930": 43917, "rift": 28269, "\u2581Luc": 19067, "\u092a\u0940\u0938": 43476, "Univers": 12001, "\u0916\u093c\u093e\u0938": 45233, "structure": 637, "##\u09ac": 36071, "\u0441\u044c\u043a\u043e\u044e": 4831, "\u2581hover": 18214, "\u25a1": 3783, "\u0906\u092f\u0947": 43948, "Will": 28079, "\u2581lock": 537, "\u043b\u0438\u0441\u044f": 12449, "ROM": 17317, "\u092c\u0948\u0920\u0928\u0947": 43860, "\u0921\u093e\u0932\u0940": 39549, "\u2581Monday": 26382, "##\u0a82": 41319, "\u2581cru": 18553, "\u2581Casa": 8139, "\u2581spre": 16882, "ding": 26561, "\u2581mention": 20351, "\u0926\u0902\u0921\u093e": 48883, "awa": 16424, "through": 16255, "##\u093e\u0930\u094d\u092e": 45531, "\u2581their": 5221, "##\u0c03": 49546, "\u0928\u0940\u0926\u0930\u0932\u0948\u0902\u0921": 35714, "\u2581\"#": 26685, "\u0926\u0940\u0915\u094d\u0937": 48502, "<0x0E>": 558, "\u092a\u0930\u093f\u0938\u0902\u092a\u0924\u094d\u0924\u093f": 37541, "kur": 20517, "\u0441\u0441": 29461, "\u2581stre": 29339, "Hint": 17187, "adapter": 12822, "\u2581transform": 9962, "\u0918\u0940": 40693, "kir": 28924, "\u0442\u0438\u043b": 24392, "\u2581wenig": 13353, "\u00e9r": 5675, "oj": 13411, "\u091f\u0948": 37388, "\u00fclt": 30695, "\u2581saf": 30786, "Boolean": 13694, "\u535a": 15170, "##rc": 43004, "\u2581issu": 24820, "##\u4e89": 45644, "\u2581talent": 18008, "ced": 29396, "##at": 50515, "\u092e\u0928": 46195, "\u2581Jan": 7107, "\u0918\u0928": 36684, "\u2581resize": 29002, "\u0935\u093f\u0927": 50004, "\u2581Warszawa": 29411, "\u4e2d": 4332, "\u2581pm": 10976, "\u0927\u093e\u092e": 41638, "\u2581receiver": 11326, "\u741b": 48818, "##\u0935\u093e\u0938\u0928": 34120, "\u043c\u0438\u043d\u0438": 17294, "\u092e\u0941\u0938\u094d\u0932": 42600, "\u2581zosta\u0142": 31856, "\u0905\u0938\u092e\u093e\u0928\u0924\u093e": 46940, "haft": 22222, "##\u0911": 41179, "\u00e9ro\u00ef": 20487, "\u2581Jules": 29311, "\u0623": 11064, "\u0932\u0940": 43492, "\u2581ay": 835, "\u0938\u092e\u0942": 47513, "\u2581guests": 28881, "embly": 21591, "\u2581Mah": 2338, "\u221a": 29283, "Alignment": 21601, "special": 20655, "\u0935\u093f\u0915\u094d\u0930\u092f": 50469, "iverse": 2196, "##\u753b": 42789, "kt\u00f3ber": 22054, "\u091f\u093f\u0915\u091f": 38598, "aque": 19124, "\u091c\u093f\u0928\u0915\u093e": 45293, "\u2581env": 3089, "\u2581Julia": 17663, "________": 26523, "\u092d\u0930\u092a\u0942\u0930": 33207, "\u4e48": 26580, "\u2581\u0436\u043e\u0432\u0442": 16240, "\u0430\u043d": 12213, "\u0921\u0940\u091c\u0932": 33462, "\u2581teach": 22325, "\u0938\u093e\u092e\u093e\u0928\u094d\u200d\u092f": 47597, "return": 7559, "\u092e\u093f\u0930\u094d\u091a": 48751, "\u2581\u00b0": 2423, "\u2581Gaussian": 15313, "<0x0C>": 29230, "oked": 3910, "\u2581Une": 9126, "##\u0442": 45310, "Resource": 30881, "ggreg": 4732, "runner": 9596, "\u2581\u043a\u043b\u0438": 3004, "\u092a\u094d\u0930\u0926\u0947\u0936\u094b\u0902": 47305, "\u062f": 3160, "\u092e\u0939\u093f\u0932\u093e": 34733, "##\u0935\u0947\u091c": 33131, "##\u094d\u200d\u091a\u093f\u0924": 35288, "\u2581indent": 5418, "\u2581view": 21670, "kal": 3656, "Run": 13924, "mapping": 29553, "\u0938\u093e\u091c": 43697, "esterd": 11659, "##\u0902\u0921\u0940": 34200, "\u2581bek": 27751, "alleng": 17713, "\u2581\u0440\u0435\u0430": 14141, "\u5343": 19611, "\u043d\u043e\u0432\u0435": 9927, "\u0928\u0935\u0930\u093e\u0924\u094d\u0930\u093f": 35163, "\u2581Bret": 17211, "lla": 18108, "\u1030": 38913, "\u092e\u093e\u092c\u0942\u0926": 37162, "Browser": 26873, "\u2581traject": 9621, "##\u0d39": 36465, "\u092c\u0928\u093e": 34707, "\u2581Fame": 15492, "\u2581Award": 28113, "##\u10d7": 37400, "##\u092a\u093e\u0926\u093f\u0924": 32398, "l\u00f6": 3380, "\u092f\u093e\u0926": 44114, "\u2581Season": 14094, "unit": 25047, "\u8cb4": 20510, "##\u0941\u0932\u0947\u0936\u0928": 45482, "\u0dcf": 31333, "\u2581Beit": 10356, "Integr": 29838, "\u0905\u0930\u0947": 41550, "\u0915\u094d\u0937": 38642, "\u2581cheval": 23889, "\u2581Return": 18112, "\u2581brut": 28767, "Three": 30613, "apt": 25774, "\u2581Sof": 27328, "\u2581showing": 12335, "lient": 6123, "##\u0e21": 39912, "However": 1881, "\u092e\u093f": 46912, "\u0926\u092c\u093e\u0935": 50733, "\u2581modific": 23412, "\u091a\u093f\u092a": 45665, "^(": 16406, "\u0928\u0935\u094b": 49540, "\u2581\u0423\u043a\u0440\u0430": 21694, "javase": 20602, "\u091a\u092e\u0915": 50533, "\u2581tower": 26658, "\u2581clusters": 724, "snapd": 37689, "dar": 30944, "\u2581touched": 8096, "\u0905\u0932\u0917\u093e\u0935": 37282, "\u0930\u093f\u091f\u0947\u0932": 38608, "\u092c\u0926\u0924\u0930": 46707, "##\u094d\u0932\u093f\u0915\u0947\u0936\u0928": 36288, "\u57fa": 12092, "##is": 49129, "\u09c7": 16853, "\u0938\u0947\u0935\u0915\u093e\u0908": 37109, "etes": 11719, "\u0c46": 37082, "\u2581events": 8835, "iben": 5655, "\u0caa": 50075, "##\u06e0": 48183, "art": 6345, "Com": 17297, "\u092e\u0948\u0928": 37205, "\u092e\u093f\u0932\u0947\u0917\u093e": 48323, "##\u101b": 35892, "\u2581decrease": 20625, "\u091a\u0932\u0947": 50089, "##\u0710": 40160, "\u2581moments": 24642, "\u2581pd": 21007, "\u092b\u094d\u0930": 44504, "\u092a\u0930\u0940\u0915\u094d\u0937\u093e": 40263, "CS": 15643, "ANGE": 30358, "\u2581jul": 12778, "\u0926\u0930\u092e": 50002, "marine": 19272, "##\u0915\u091f": 37132, "urrency": 15856, "Detail": 7975, "\u091c\u0942\u091f": 45036, "\u2581Pero": 16043, "\u0915\u093e\u0930\u094d\u092f\u0915\u094d\u0937\u0947\u0924\u094d\u0930": 37824, "weight": 24670, "\u2581dai": 16013, "\u2581gepubliceerd": 3021, "##\u094d\u0930\u0947\u091f\u0930\u0940": 40193, "valu": 15880, "\u0926\u094c\u0930\u0947": 42523, "\u091c\u093e\u0930\u0940": 41050, "\u2581lig": 23697, "\u092d\u0947\u091c\u0928\u093e": 50036, "\u2581annual": 3813, "\u0928\u093f\u0930\u094d\u0926\u0947\u0936\u0928": 39845, "\u2581extended": 13883, "\u0917\u094b\u092a\u093e\u0932": 45546, "Get": 4209, "Ready": 13822, "izi": 3294, "\u2581concluded": 14615, "\u2581lleg": 16452, "\u0938\u094d\u091f\u0947\u0921\u093f\u092f\u092e": 32694, "ency": 3909, "r\u00e1sok": 10822, "\u2581crist": 21193, "rgb": 30033, "\u2581Rav": 19785, "\uac15": 23348, "##\u0926\u0947\u0935\u0940": 48735, "##\u1d5d": 33075, "\u2581Dub": 9666, "\u2581stating": 12920, "\u2581Coun": 5147, "\u0938\u093e\u0902\u092a": 50367, "ection": 10262, "\u2581tong": 12888, "\u0911\u0921\u093f\u092f\u094b": 45702, "\u2581enthus": 22355, "Equals": 26951, "\u653f": 21576, "##\u0924\u0930\u0947": 44370, "\u0936\u094d\u0935\u0947\u0924": 33575, "\u092e\u0940\u0921\u093f\u092f\u093e": 43453, "\u0432\u0435\u0434": 20772, "\u2581Admin": 23861, "##\u0e84": 49260, "\u2581forum": 6044, "\u0441\u0438\u044f": 9835, "Description": 19772, "\u0939\u0947\u092e\u0902\u0924": 40363, "\u0909\u092e\u094d\u092e\u0940\u0926": 33088, "##\u0a4d": 33660, "\u2581provide": 17991, "\u0ca1": 46318, "\u043b\u0435\u043d\u043d\u044f": 3911, "\u0909\u0924\u094d\u092a\u093e": 48446, "\u0916\u093f\u0924\u093e\u092c": 49710, "\u2581Gesellschaft": 29696, "\u2581Fran\u00e7a": 25660, "\u2581Sometimes": 10471, "##\u094b\u0915\u0928": 40917, "\u092a\u094b\u0924\u0947": 45484, "\u091a\u094c\u0902\u0915": 49368, "\u2581chi": 14506, "\u092b\u0942\u0932\u094b\u0902": 48425, "DateTime": 675, "\u2581provincial": 8480, "\u2581hip": 20548, "aves": 695, "\u0930\u0942\u092a\u092f\u0947": 44052, "\u2581cons": 31132, "##\u8655": 35713, "ipl": 44582, "\u090f\u0915\u0938\u093e\u0925": 45571, "\u2581Pr": 20742, "have": 19404, "\u2581compared": 22217, "\u2581par": 4137, "erm": 22006, "##\u092f\u0902\u0938": 48535, "\u2581String": 2295, "\u2581causes": 5348, "\u5bff": 37320, "ropy": 24766, "\u2581Dic": 8204, "\u2581enter": 16179, "\u092e\u093f\u0936\u094d\u0930\u093f\u0924": 36245, "\u2581Ryan": 16453, "\u2581arrow": 2734, "\uacf5": 16098, "\u2581applies": 25128, "osof": 23320, "\u090f\u0938\u0906\u0908\u091f\u0940": 35090, "kreich": 25404, "\u663e": 1641, "wal": 22548, "\u2581observe": 11726, "\u2581specifically": 22444, "##\u05bc": 40700, "PM": 31955, "\u6d32": 16748, "\u0cd6": 49737, "\u2581Apr\u00e8s": 26930, "\ud83c\udf30": 36713, "owany": 3247, "<0xBC>": 7484, "\u2581Ap": 664, "\u2581$.": 15241, "\u0939\u0921\u093c": 38412, "ris": 14994, "\u2581latest": 31545, "\u2581comune": 10510, "##\u062c": 38110, "\u0938\u092a\u094d\u200d\u0924\u093e\u0939": 37802, "\u092e\u093e\u0926": 45743, "act\u00e9ristiques": 21043, "<0xE7>": 31697, "\u092a\u0930\u0940\u0915\u094d\u0937\u093e\u0913\u0902": 43965, "u\u00e9s": 22858, "inline": 11482, "\u2581\u2581\u2581\u2581\u2581\u2581\u2581\u2581\u2581\u2581\u2581\u2581": 1011, "\u0431\u0430\u0439": 20502, "itas": 12290, "\u00e4ng": 11019, "\u0932\u0926\u094d\u0926\u093e": 50754, "\u2581truly": 17712, "\u2581chrom": 575, "\u092a\u0930\u093f\u092d\u093e\u0937": 37608, "\u091c\u092f\u0930\u093e\u092e": 38501, "\u2581Pen": 31430, "Bounds": 4827, "\ud835\uddf1": 48013, "##\u0935\u0930\u0942\u092a": 42553, "##\u0917\u0947\u091f\u093f\u0935": 40017, "pe": 27110, "\u0936\u094d\u0930\u0947\u0923\u093f\u092f\u094b\u0902": 44427, "\u2581abstra": 18153, "\u2581glob": 22882, "\u2581Tod": 25241, "ADD": 15180, "\u2581word": 12043, "\u092d\u093e\u0901": 37974, "##\u092e\u0924\u093e\u0913\u0902": 42858, "##\u092e\u093e\u0930\u094d": 44282, "\u2581instanceof": 5592, "\u2581Mark": 16705, "\u2581gent": 8441, "\u201c.": 29985, "\u0909\u0928\u094d\u0939\u094b\u0928\u0947\u0902": 38192, "\u092a\u094b\u0916\u0930\u093f\u092f\u093e\u0932": 45275, "\u0905\u092b\u0935\u093e\u0939": 35814, "ispiel": 6621, "sci": 14386, "\u2581gminy": 15415, "\u2581enh": 31600, "\u092a\u0942\u091b\u0924\u093e\u091b": 42174, "\u0939\u0940\u0930\u094b": 42720, "\u0925\u0930": 49742, "\u2581kis": 6738, "\u2581Arbeit": 21400, "\u00e1nico": 16793, "\u0915\u0941\u092e\u093e\u090a\u0901": 36066, "\u092f\u0942\u090f\u0908": 42014, "\u2581\u0420\u0435": 31635, "\u2581\u2014": 31501, "\u0908\u090f\u0938\u0906\u0908": 39166, "\u092d\u093e": 45898, "\u2581assistant": 817, "##\u0917\u093f\u0932": 39327, "\u0442\u0432\u043e": 6159, "\u0939\u0915\u0940\u0915\u0924": 47010, "mbH": 1558, "ements": 5722, "\u2581filled": 10997, "\u2581degrees": 15632, "\u0905\u092a\u0930\u093e\u0927\u0940": 41567, "\u092e\u0924\u094d": 34615, "\u0965": 47315, "\u2581donn\u00e9": 17526, "igs": 24963, "\ud83d\udc4d": 38390, "\u2581Kam": 1912, "enses": 8446, ")\u00bb.": 18197, "\u0938\u092e\u093e\u092f": 49265, "##\u0924\u093e\u092a": 46340, "CCE": 25629, "\u0938\u0930\u092a\u0902\u091a": 49490, "##\u0930\u0940\u092c\u0940": 39261, "\u2581abs": 23488, "\u2581u": 1169, "ughing": 28545, "\u090f\u0915\u093e": 50739, "\u0435\u0440": 19196, "\u0938\u092e\u093f\u0924": 32506, "##\u094c\u0938": 49953, "\u2581establish": 26316, "zik": 28057, "lage": 23515, "\u2581area": 19200, "##\u0644": 43245, "\u2581$\\": 8007, "\u2581append": 6085, "\u092e\u093e\u0926\u093e": 39160, "\u092b\u093f\u0930": 41162, "akt": 27296, "edom": 5445, "\u2581literature": 4704, "ationen": 6298, "\u2581\u0430\u0432\u0438\u0430": 13907, "\u2581Street": 21548, "\u2581strong": 7529, "\u092c\u094b\u0928": 48837, "##\u0268": 38535, "\u2581iss": 14902, "lymp": 25198, "\u2581SS": 10170, "##\u091f\u0915\u0947": 39823, "\u2581towards": 25484, "\u092a\u094d\u0930\u094b\u0924\u094d\u200d\u0938\u093e\u0939\u093f\u0924": 37663, "\u0924\u092e\u093e": 45575, "##\u0905\u0928": 41036, "\u2581loved": 5650, "##st": 33018, "\uf03e": 48289, "\u0442\u043d\u0438\u043a": 9844, "\u2581readers": 14582, "\u2581capital": 31045, "\u5854": 6114, "Doc": 6043, "oles": 12986, "##\u0a3c": 49832, "\u0915\u093e\u0930\u094d\u092c\u0928": 48622, "FIG": 4237, "\u0917\u0941\u0923\u094b\u0902": 35430, "*$": 23385, "\u2581wear": 7572, "Radius": 19497, "\u0932\u093f\u092f\u094b": 36977, "ayer": 3287, "\\_": 5558, "\u2581Harry": 30473, "\u2581Afghan": 4130, "\u2581measures": 5669, "\u091f\u094d\u0930\u0947\u0932\u0930": 49941, "\u0928\u093f\u092f\u0924": 50438, "shift": 18901, "##\u6cbb": 32545, "sem": 1532, "White": 13168, "\u092a\u0930\u092e\u0947\u0936": 49465, "buff": 21309, "].[": 3834, "\u0930\u0935\u0940": 50529, "\u03ce": 4080, "\u2581\u0443\u043d\u0438\u0432\u0435\u0440\u0441\u0438\u0442\u0435": 11684, "\u2581Irish": 8012, "\u2581distances": 13068, "ournal": 12808, "\u2581defend": 1158, "\u092e\u094b\u091f\u0930\u094d\u0938": 34298, "\u091c\u0941\u0921\u093c": 39789, "\u96fb": 17455, "\u091c": 15084, "\u0440\u0435\u0441": 12416, "<0xCE>": 28414, "fahr": 20920, "\u2581BE": 11850, "supp": 14910, "numeric": 25477, "##\u0998": 45089, "\u1214": 48192, "\u092b\u0930\u094d\u091c\u0940": 43196, "\u2581trained": 31625, "\u091a\u093f\u0928\u094d\u0939\u093f\u0924": 34939, "\u2581nuevo": 12775, "\u2581Haz": 8242, "##\u0915\u092a": 32818, "\u00e1st": 9377, "##\u0941\u092e\u094d\u092c": 45033, "\u2581Dean": 15606, "\u0930\u0948\u092a": 49379, "\u4e4c": 36878, "\u2581fase": 22811, "##\u0939\u0930\u0923": 37267, "\u0938\u094d\u0935\u0930\u094d": 50440, "\u0926\u094b\u0938\u094d\u0924": 35285, "##\u52d5": 37352, "\u2581invas": 29975, "Con": 4703, "\u00fcll": 27134, "\u2581nice": 11732, "\u0930\u0923\u092c\u0940\u0930": 48763, "##\u0928\u093e\u0932": 42905, "\u092c\u093e\u0932\u094b\u0902": 49083, "\u092a\u0930\u0935\u0930\u0926\u093f\u0917\u093e\u0930": 43957, "\u2581\u043e\u043a\u0440\u0443": 27913, "correct": 14625, "\u092e\u093f\u0936\u094d\u0930\u0923": 46928, "\u2581\u043d\u0443": 21636, "Native": 4487, "\u092a\u0939\u0932\u0947": 49768, "\u2581t\u00e9c": 12254, "\u091c\u092f\u0932\u0932\u093f\u0924\u093e": 50131, "\u00e9t": 17083, "wide": 19383, "BUG": 4471, "\u0915\u0943\u0924\u093f": 33616, "\u091c\u092e\u093e\u0924": 49067, "\u2581sometimes": 23636, "\u0928\u0947\u0939\u0930": 32571, "\u0938\u094d\u0915\u094d": 44337, "\u2581proph": 22587, "ansion": 2464, "##\u094d\u092f\u0942\u0928\u0932": 49421, "\u2581Ori": 11750, "dirname": 12641, "\u2581syd": 11959, "##\u0947\u0902\u0938": 33104, "\u092f\u0915\u093c\u0940\u0928": 34165, "\u0921\u093e\u091f\u093e": 46307, "\u092a\u094d\u0930\u0924\u093f\u0937\u094d\u0920\u093e\u0928": 41943, "\u091a\u093f\u0915\u093f\u0924\u094d\u0938\u0915": 36704, "recht": 30137, "VI": 3358, "\u043b\u0430\u0441\u044c": 25261, "\u2581\u0428": 10870, "##\u0924\u094d\u0924\u093f": 40070, "\u2581Schauspieler": 6157, "xi": 11144, "\u2581parser": 24668, "\u2581Institute": 15721, "\u2581charset": 29447, "\u2581blocked": 8299, "\u0926\u093f\u0917\u094d": 42136, "\u092a\u0939\u0941\u0902\u091a\u093e\u092f\u093e": 45541, "\u82d4": 43985, "\u0907\u092e\u093e\u092e": 37673, "\u2581Francesco": 17811, "estra": 30339, "abeth": 20178, "\u2581arab": 13978, "\u092e\u091b\u0932\u0940": 50639, "\u0928\u0941\u0915": 39241, "\u0927\u093e\u0930\u0923": 35541, "\u2581feel": 13396, "\u2581Olimp": 5842, "Det": 16071, "nodes": 7491, "\u2581Seg": 18865, "\u0935\u093f\u0926\u0947\u0936": 47998, "\u2581Start": 5247, "arel": 22296, "usted": 7100, "RENT": 24582, "second": 18962, "\u2581intuit": 22150, "\u2581czy": 15035, "\u0905\u0932\u094d\u092a\u0938\u0902\u0916\u094d\u092f\u0915\u094b\u0902": 42142, "umed": 24026, "NotFound": 13510, "##\u96b8": 36330, "folg": 3102, "\u00c2": 19843, "\u0932\u0940\u091f\u0930": 44359, "xpath": 14767, "\u092a\u0902\u0915\u091c": 34795, "\u093e": 5315, "\u0906\u0935\u0902\u091f\u093f\u0924": 39864, "\u092a\u0940\u091f\u0940\u0906\u0908": 33550, "##\u103e": 49860, "\uacbd": 3692, "\u0e19": 21699, "suit": 23134, "\u0938\u0940\u0924\u093e\u0930\u092e\u0923": 40623, "##\u0938\u093f\u0915": 34548, "\u2581\u0431\u0443\u043b\u043e": 7794, "AE": 14451, "\ud83d\udc4a": 45480, "\u30c1": 21121, "\u2581arrang": 12603, "ously": 2281, "\u0935\u0930\u0940\u092f\u0924\u093e": 39134, "##\u0917\u0908": 44797, "\u2581Philosoph": 25552, "\u0917\u094b\u092a": 37007, "\u2581implementing": 13226, "\u0906\u0928\u094d\u0927": 43599, "\u090f\u0932\u0940": 40201, "\u2581Fu\u00dfballspieler": 1344, "\u2581\u0431\u043e\u043b\u044c": 26830, "Los": 16218, "\u2581Monte": 31447, "\u2581amazon": 15396, "\u0938\u0941\u0928\u0915\u0930": 43820, "\u2581ancest": 23340, "Task": 13697, "\u6f14": 40606, "\u2581zp": 15066, "##\u0942\u092e": 46797, "\u2581selbst": 28193, "\u2581ihn": 19849, "\u0926\u093f\u0928\u0947\u0936": 50317, "\u2581notification": 10763, "\u043d\u044b\u043c": 31965, "\u2581Bian": 17980, "assign": 10256, "##\u094b\u091c\u0915": 44054, "\u2581market": 20479, "\u2581Als": 9423, "##\u094d": 47844, "\u2581\u0441\u0438\u0441\u0442\u0435": 12677, "\u092c\u0939\u0941\u0924\u0947\u0930\u0947": 40899, "\u2581Ley": 25201, "free": 26370, "osed": 31385, "\u2581platform": 19115, "Eq": 21804, "\u2581nunca": 7245, "anger": 13652, "-(": 14475, "\u0938\u0902\u0938\u094d\u0915\u0930\u0923": 43474, "ARY": 27676, "\u2581Zobacz": 15362, "\u0909\u092a\u092d\u094b\u0917": 36038, "\u2581c\u00edm": 27879, "indust": 2694, "\u092c\u0928\u0947\u0917\u093e": 43166, "\u0918\u0930": 43774, "\u0906\u0901\u0916\u094b\u0902": 47720, "\u2581carre": 9649, "\u2581Connection": 28407, "\u2581versione": 29228, "\u2581vend": 17601, "##\u0577": 35233, "\u2581Internet": 12951, "##ee": 45029, "\u2581kost": 18579, "\u2581Lars": 6176, "\u2581est\u00e1n": 15429, "\u043d\u043e\u043b\u043e\u0433\u0438": 27039, "\u0938\u0902\u0936\u094b\u0927": 36388, "##\u200c": 39048, "\u12dd": 33560, "\u2581yourself": 19217, "\u2581d\u00e1tum": 6743, "cije": 7539, "imo": 26881, "\u092c\u0922\u093c\u0924\u0940": 49901, "\u091a\u093f\u0926\u0902\u092c\u0930": 36826, "\uf64f": 48372, "\u0921\u093f\u092a\u0949\u091c\u093f\u091f": 46376, "\u092d\u0942": 32868, "##\u0930\u093f\u0938": 39263, "\u0938\u0926\u0938\u094d\u092f\u0924\u093e": 41485, "\u0939\u093f\u0938\u093e\u092c": 47521, "\u2581Dark": 22793, "\u0915\u0948\u0926\u0940": 40378, "##\u0917\u0930": 47845, "\u092a\u0940\u0938\u0940": 38756, "\u0117": 24860, "available": 5302, "geb": 23955, "\u0938\u093f\u0926\u094d\u0927\u093e\u0928\u094d\u0924": 48305, "skap": 9509, "\u0906\u092f\u0924\u0947\u0902": 42435, "\u0930\u093e\u092f\u092c\u0930\u0947\u0932\u0940": 36310, "\u2581z\u00e1k": 19273, "Face": 7588, "##\u092d\u0942\u0924\u093f": 33712, "\u2581Kno": 2040, "\u0909\u091c\u093e\u0917\u0930": 42757, "\uff1b": 22790, "<0xF1>": 11478, "\u092a\u0930\u093f\u0926\u0943\u0936\u094d\u092f": 44503, "\u2265": 26287, "Search": 18438, "Range": 20311, "\u2581Xml": 17044, "\u2581radi": 19371, "\u02da": 6744, "\u2581Cr": 31445, "\u2581nr": 17720, "\u2581Tell": 6262, "<0x8E>": 2760, "\u2581earnest": 6060, "\u2581effort": 21692, "\u092e\u0902\u0917": 49926, "\u0928\u0935\u0902\u092c\u0930": 47032, "\u030a": 39118, "\u2581resulted": 6848, "\u2581cin\u00e9ma": 26105, "##\u094b\u0930\u0947": 42204, "\u0939\u093f\u0915": 43014, "<0x52>": 2246, "\u2581XIXe": 10812, "\u2581managed": 237, "mysql": 14548, "##\u0720": 40916, "\u2581antes": 26343, "\u2581thats": 28302, "router": 2056, "\u0e39": 14756, "\u2581\u0447\u043e": 476, "##\u093f\u092f\u0928": 45826, "\u092d\u0947\u091c\u093e": 50504, "\u0935\u094d\u092f\u0935\u0939\u093e\u0930": 48564, "\u2581\u043f\u0440\u043e\u0432\u0435": 16570, "cou": 25948, "\u0924\u0948\u0930": 39412, "\u2581przez": 23413, "\u0906\u0930\u0938\u0940": 36274, "human": 18306, "Cont": 10853, "\u521b": 26243, "\u043c\u0435": 10200, "\u2581makes": 9064, "comes": 11736, "length": 9951, "##\u0924\u093f\u092e\u093e": 33723, "\u090f\u0915\u0926\u092e": 44089, "\u2581Dres": 10265, "\u2581more": 12201, "\u2581\u0437\u0435\u043c": 23918, "\u2581Wh": 16001, "chain": 6898, "\u2581serial": 26082, "\u2581Station": 2781, "\u092a\u094d\u0930\u0935\u093e\u0938": 39959, "\u2581poco": 5737, "uncia": 15394, "zone": 28863, "\u2581\u041e\u0444\u0438\u0446\u0438\u0430\u043b\u044c": 29922, "\u2581bon": 19191, "\u0906\u0930\u0924\u0940": 46555, "vre": 11647, "\u2581princes": 9044, "\u0d27": 39163, "ich": 24389, "\u092b\u094d\u0932\u093f\u092a": 43249, "PART": 2581, "\u2581Bast": 22208, "\u0905\u0930\u094b\u0921\u093c\u093e": 37931, "##\u091f\u0940\u0938\u0940": 37614, "\u2581formal": 4299, "\u091a\u0940\u0928\u0940": 39921, "\u0433\u0438\u0438": 5897, ":]": 4974, "\u2581){": 26044, "apers": 19281, "\u0936\u0936\u093f": 43375, "\u0255": 855, "\u2581Probably": 14754, "optim": 7943, "\u2581Failed": 5719, "\u4ef6": 3367, "\u0926\u0930\u094d\u0936\u093e\u0924\u093e": 42978, "##\u0927\u094d": 49888, "iska": 12015, "\u0935\u093e\u0932\u094b\u0902": 36240, "\u092a\u094d\u0930\u0926\u0930\u094d\u0936\u093f\u0924": 34571, "\u2581Papa": 3275, "\u00fdm": 1478, "\u090f\u091f": 39406, "\u2581naz": 29382, "\u2581\u0444\u043e\u043d": 28265, "\u2581ranking": 20523, "own": 6950, "\u7fa9": 9712, "aj": 23064, "##\u094d\u0930\u0924": 34217, "##\u0938\u0902\u092c\u0902\u0927": 39946, "ni": 12667, "angen": 18672, "\u2581Efter": 6809, "longrightarrow": 26622, "\u0930\u093e\u092e": 34862, "\u2581mach": 9934, "\u8fd0": 31109, "\u2581Arte": 4625, "\u6cf0": 5988, "\u0915\u093c\u0941\u092c": 33447, "\u2581ende": 1225, "\u0928\u0947\u092a\u093e\u0932\u0940": 45523, "nut": 22958, "imir": 25722, "\u2581emer": 24853, "\u0924\u094b\u0921\u093c": 35081, "\u0938\u0935\u093e\u0932": 50510, "\u2581environ": 28188, "\u091a\u092e\u094b\u0932\u0940": 44460, "etal": 14857, "\u0914\u0938\u0924\u0928": 33123, "\u092c\u0928\u094d\u0926\u094b\u0902": 44629, "\u0938\u0948\u0928\u0940": 32331, "Modal": 31511, "\u0939\u0948\u092a\u094d\u092a\u0940": 45853, "\u092e\u094c": 38294, "\u2581scenarios": 9230, "##\u05e7": 32510, "/-": 15697, "\u2581c\u00e9l": 28428, "\u2581its": 4533, "\u2581rub": 18565, "\u2581ease": 18337, "export": 11487, "\u30b2": 5756, "quisition": 21244, "##\u0443": 40701, "\u2581Brand": 7920, "anno": 9961, "ov": 14955, "chmark": 9172, "\u2581gave": 31169, "\u092a\u0939\u093e\u0921\u093c\u0940": 39158, "\u0441\u0442\u043e\u0432\u0443": 1296, "fish": 23265, "\u2581\u0441\u0435\u0432\u0435\u0440\u043e": 13993, "\u2581Robert": 22359, "\u0936\u0947": 43996, "\"?": 10353, "builder": 21510, "##\u0996": 49448, "<0x73>": 28827, "\u0930\u0947\u092a\u094b": 47317, "\u2581esto": 13227, "##\u0965": 48979, "\u092b\u093f\u0930\u094b\u091c": 46916, "\u00cd": 30515, "ogne": 30618, "como": 14409, "\u0915\u093e\u0930\u094d\u092f\u0936\u093e\u0932\u093e": 32396, "\u2581prevents": 17590, "##\u056c": 50577, "\u2581global": 20935, "\u0938\u0940\u0930\u093f\u092f\u093e": 32191, "DAT": 23703, "##\u3059": 48756, "\u0442\u043e\u043c\u0443": 2842, "\u0930\u0916": 42231, "\u092a\u0947\u092a\u0930": 38812, "\u0909\u092a\u093e\u0938": 36898, "edge": 29385, "\u2581\u0448\u0442\u043e": 21285, "\u0935\u0938\u0941": 44484, "\u2581early": 6068, "\u0446\u043e": 21554, "\u2581luego": 27043, "UN": 5465, "\u0935\u093f\u0932\u093f\u092f\u092e\u0938\u0928": 37502, "\u2581dioc": 24135, "\u092a\u0941\u0902\u091b": 33161, "\u2581decay": 28468, "\u0938\u0902\u0927\u0942": 46834, "\u2581\u0422\u0443\u0440": 15727, "opy": 15610, "\u2581\u0424\u043e": 21198, "iah": 12604, "\u0e07": 3149, "\u0930\u094b\u0936\u0928": 44417, "\u0906\u0913": 32848, "decl": 21271, "\u043d\u0430": 18916, "\u0930\u0947": 44301, "\u2581documented": 14755, "**": 1516, "TW": 25071, "##\u092e\u0948": 50517, "\u2581hope": 5313, "\u2581divor": 15869, "!=": 3466, "\u2581nun": 15763, "\u092f\u0926\u093f": 44636, "Errors": 17239, "\u0928\u091c": 46184, "lua": 20743, "##\u0926\u0940\u0935": 33664, "schen": 22182, "\u00f3w": 18150, "\u0bb5": 9599, "Assert": 25276, "\u2581Schiff": 18871, "\u0930\u093f\u091c\u0932\u094d\u091f": 49601, "ligt": 14781, "\u2581suffix": 2693, "nth": 8209, "##\u0938\u0902\u0917": 33076, "\u2581face": 19500, "\u0938\u0941\u0930\u0915\u094d\u0937\u093f\u0924": 39702, "ieve": 13015, "job": 31161, "\u0944": 43057, "\u2581almost": 31224, "##\u091a\u094d": 36454, "##\u092e\u0947\u0930": 46295, "\u2581\u0430\u043b\u044c": 4881, "##\u092a\u093e\u0938": 35525, "\u2713": 21593, "\u2581municipality": 9916, "\u2581toss": 9283, "\u2581Provin": 29669, "\u2581Doctor": 24897, "\u2581boolean": 16266, "\u092e\u0941\u092e\u094d\u092c\u0908": 41306, "\u2581monitor": 2122, "\u0938\u0940\u0906\u0930\u092a\u0940\u090f\u092b": 40679, "\u0928\u093e\u0930\u093e": 45325, "\u2581->": 20228, "##\u094d\u0930\u0941": 39299, "\u091c\u093c\u094d\u092f\u093e\u0926\u093e\u0924\u0930": 40671, "\u0932\u093e\u0928\u0924": 49497, "\u2581y": 28617, "\u2581compt": 20448, "\u092b\u0902\u0938\u093e": 36694, "\u092d\u0942\u092e\u093f\u0915\u093e": 49887, "\u0928\u093f\u0938": 34100, "\u0561": 22728, "\u2581l\u00e4": 31585, "\ubc31": 17129, "\u0915\u0939\u0940\u0902": 39635, "##\u0935\u093f\u091c\u094d\u091e\u093e\u0928": 39028, "\u0938\u093e\u0930\u094d\u0925\u0915": 39273, "\u2581\u0431": 26109, "\u043d\u0433": 4561, "\u2581explain": 1374, "\u2581these": 4048, "##\u0a35": 44625, "##\u0938\u0941\u0930": 32451, "\u2581opinions": 11690, "\u2581\u00e4r": 26918, "\u092c\u0940\u0924\u0947": 49456, "\u0928\u0940\u0932\u0947": 50445, "##\u094d\u0930\u0947\u0936\u0928": 48544, "##\u093e\u091a\u093e\u0930": 47189, "\u2581'./": 23153, "\u2581replaced": 2911, "\u0103t": 19561, "\uc11c": 31263, "\u2581s\u00e9": 25969, "Version": 30564, "\u0081": 5867, "\u0928\u093f\u0915\u0932\u0924\u093e": 49532, "\u2581cluster": 23118, "##\u093e\u0932\u093e": 38727, "\u0314": 47756, "\u2581CI": 9567, "\u0219ti": 21263, "\u2581Campeonato": 15762, "\u092a\u093f\u091b\u0932\u0940": 37859, "##\u091a\u093e\u0930\u093e": 36345, "\u0928\u093f\u0936\u093e\u0928\u093f\u092f\u094b\u0902": 43071, "\u090f\u0915\u094d\u0938\u091a\u0947\u0902\u091c": 45262, "\u2581central": 15102, "\u2581compl": 9815, "\uc6d0": 21728, "\u2581interactions": 25756, "riminal": 16039, "\u2581demsel": 10264, "v\u00ed": 6784, "\u0926\u0915\u094d\u0937": 48580, "\u2581Draw": 25542, "\u2581Karriere": 4845, "ativa": 23137, "\u0105g": 31523, "\u2581\u0444\u0438\u043b\u044c": 3927, "##\u1c69": 43992, "\u2581Instead": 17055, "\u2581beskre": 14449, "ITable": 22701, "##\u0935\u0930\u094b\u0902": 39653, "\u2581Janeiro": 24556, "\u2581eyes": 7101, "\u091a\u093e\u091a\u093e": 40261, "\u2581hoch": 4053, "\u52a1": 15308, "umerate": 3253, "\u0936\u0939\u0940\u0926": 42477, "yi": 16469, "##\u0930\u0940\u091c\u093c": 44590, "##\ufef4": 36953, "\u2581polic": 5665, "\u2581maven": 29659, "\u2d61": 39153, "\u091a\u0941\u0928\u094c\u0924\u0940\u092a\u0942\u0930\u094d\u0923": 43087, "oman": 15824, "\u2581stati": 14369, "\u0442\u0435\u043b\u044c\u0441\u0442\u0432\u043e": 16578, "\u0916\u093e\u0902": 36598, "\u2581\u043d\u0430\u0458": 5153, "\u0917\u0948": 38770, "hof": 16856, "\u0935\u093e\u0926\u093e": 34361, "veg": 1820, "emia": 20295, "\u0926\u094b\u0917\u0941": 46832, "\u2581Snow": 1455, "\u2581Medic": 4843, "##\u0d02": 46336, "\u0932\u093e\u0907\u092b": 35989, "\u2581activ": 30705, "\u092e\u0948\u0924\u094d\u0930\u0940": 33750, "##\u0937\u094d\u200d\u091f\u094d\u0930\u092a\u0924\u093f": 35256, "\u091a\u0915\u094d\u0930\u0935\u0930\u094d\u0924\u0940": 36914, "\u2581\u0440\u0430": 9288, "********": 31413, "\u2581constructed": 23304, "##\u0937\u094d\u091f\u093f\u0915": 48219, "##\u0937\u094d\u200d\u091f\u094d\u0930\u0940\u092f": 34730, "\u2581accommod": 24666, "\u092c\u0943\u0939\u0938\u094d\u092a\u0924\u093f": 49113, "https": 19694, "\u0935\u093f\u0930": 35891, "enia": 27398, "`:": 31568, "mysqli": 5517, "\u091b\u0924\u094d\u0924\u0940": 49600, "\u092c\u093f\u091a": 39311, "\u2581Gang": 30188, "=\"": 25640, "bool": 19310, "\u0938\u093e\u0930\u0947": 42671, "\u2581Hi": 30956, "\u2581erh": 28945, "ella": 1006, "\u2581explicitly": 25482, "\u2581fen": 26675, "\u2581\u00f3": 29053, "\u2581acceptable": 12314, "\u0425": 10431, ")+\\": 16773, "\u092e\u0940\u0932": 32407, "aste": 9525, "\u0926\u093f\u092e\u093e": 48584, "\u0435\u0439": 27376, "\u092a\u0930\u093f\u0923\u0940": 37208, "\u2581skip": 17179, "\u0938\u091c\u094d\u091c\u0928": 38146, "\u2581algebraic": 20547, "\u2581Sachsen": 18890, "\u304b": 4455, "\u0924\u0939\u0938\u0940\u0932": 32422, "circ": 24178, "\u2581\u0421\u0442\u0430\u043d\u043e\u0432\u043d\u0438\u0448\u0442\u0432\u043e": 11152, "\u0924\u093f\u0939\u093e": 47316, "\u043d\u0435\u0440": 30904, "\u0932\u093f\u092a": 40545, "rol": 27308, "\u0153uv": 25804, "\u2581\u0415\u0432\u0440\u043e": 18505, "uliar": 11531, "\u2581Venezuela": 9315, "\u0936\u093e\u0939\u0940\u0928": 48021, "\u0446\u0456\u043e\u043d\u0430\u043b\u044c": 8752, "##app": 47227, "\u5ca1": 10897, "\u2581ceremony": 30550, "\u2581Song": 2141, "Is": 18504, "\u2581sout": 27409, "\u2581\u043a\u0440\u0438": 25616, "\u2581Mike": 2833, "\u2581table": 1859, "\u2581\u043e\u043a\u043e\u043d": 28438, "\u2581considered": 24900, "\u0926\u0930\u094d\u0936\u0915\u094b\u0902": 42360, "your": 14750, "hat\u00f3": 23707, "\u2581fits": 1009, "Fn": 30628, "\u2581tej": 30198, "\u2581canal": 14469, "ember": 18093, "\u0935\u094d\u200d\u092f\u093e": 47793, "sql": 15350, "\u0938\u0942\u0916": 48987, "imen": 14577, "##\u0916\u094d\u0924\u0947\u092f\u093e\u0930": 46441, "\u092c\u0941\u0916": 45747, "\u00e4tten": 7164, "\u2581connection": 30940, "yrus": 3252, "\u2581\u00e1l": 25400, "\u2581symmet": 5196, "\u2581keyword": 29103, "\u092c\u094d\u0930\u093e\u0939": 35818, "\u2581flo": 6183, "\u2581sculpt": 19314, "ermo": 20424, "Grad": 26663, "\u2581mejor": 30480, "_{-": 26566, "ubuntu": 10268, "Enter": 21224, "frame": 10675, "\u2581Allow": 25635, "\u2581Say": 30545, "eri": 2552, "\u2581\u0442\u0440\u0435": 5108, "\u2581peint": 18369, "\u092b\u093c\u093e\u0907\u0932": 40996, "\u2581International": 17271, "rou": 10630, "\u2581inizi": 23805, "<0x0B>": 14644, "##\u092f\u0939": 42065, "\u092a\u094d\u0930\u0940\u092e\u093f\u092f\u092e": 41738, "##\u0915\u094d\u0915\u0940": 33204, "\u0080": 709, "##\u093e\u092a": 38672, "\u00e1c": 3758, "\u0442\u0430\u043a": 3120, "URI": 7434, "Public": 2030, "##\u094b\u0917\u093e": 48154, "\u0915\u094b\u0920": 35104, "\u2581condu": 7785, "\u2581Pub": 19892, "\u2581notifications": 4331, "##\u093e\u092e\u0902\u0924\u094d\u0930\u0940": 35306, "##\u0941\u0924\u094b\u0937": 34134, "##\u091f\u0930\u094d\u0938": 33904, "\u2581Sil": 4393, "##\u0938\u093e\u092f\u0940": 45951, "\u2581lists": 1030, "<0x85>": 19342, "ordnung": 22401, "\u0905\u0924\u0903": 33589, "Amount": 13501, "\u0905\u0928\u0941\u0926\u093e\u0928": 40572, "\u092e\u0932\u0947\u0936\u093f\u092f\u093e": 41241, "ational": 21170, "jet": 14115, "\u76ae": 32596, "IO": 10500, "\u0906\u0926\u093f\u0924\u094d\u092f": 48243, "\u0939\u093e\u0930\u094d\u091f": 34266, "##\u094d\u0932\u0940\u0932": 42075, "RECT": 18076, "\u2581russe": 2597, "\u2581families": 31031, "oder": 14270, "\u2581pot": 7039, "\u092d\u0930\u0924": 34823, "WriteLine": 22802, "##\u0936\u0939\u0930": 33292, "\u0938\u0947\u0935\u093e\u0928\u093f\u0935\u0943\u0924\u094d\u0924": 38024, "Center": 3801, "\u2581thanks": 14435, "\u0924\u094d\u092f\u094b\u0939\u093e\u0930": 38373, "##\u0927\u093f": 36558, "\u5219": 1389, "\u2581peque": 8952, "\u2581expr": 8331, "\u2581capitale": 31027, "##\u0a4c": 32564, "\u0926\u0942\u0924": 43067, "\u2581nomm\u00e9": 20593, "Models": 26885, "\u0938\u0942\u0930\u0924": 33697, "\u0926\u0947\u0916\u094b": 46361, "\u092c\u094d\u0932\u0942": 50663, "\uacfc": 6161, "##ication": 38843, "\ua820": 45316, "\u2581spl": 5811, "\u0905\u092e\u0943\u0924": 35741, "\u11af": 38925, "\u0915\u0939\u0924\u093e": 42345, "##\uabc5": 34738, "\u2581whites": 18457, "##\u094d\u0930\u092f": 34140, "uth": 11666, "\u092a\u0939\u091a": 47051, "\u2581larger": 9349, "##\u0921\u0941": 40703, "\u2581Vers": 26910, "uffer": 17591, "\u0430\u043d\u0435": 17445, "\u0800": 33392, "\u043d\u0438\u0448": 15750, "j\u0105": 27747, "\u0938\u093e\u092e\u093e\u0928\u094d\u092f": 43351, "\u0924\u0902\u092c\u093e\u0915\u0942": 46524, "\u0909\u092a\u093e": 40431, "\u2581expressed": 25593, "\u2581\u043d\u0430\u043b\u0430\u0437\u0438": 20120, "GR": 21691, "\u091a\u0921\u094d\u0922\u093e": 33197, "##\u0936\u094b": 40224, "\u2581Jahrhundert": 24532, "gress": 30953, "Switch": 9758, "\u0938\u093f\u0915\u094d\u0915\u093f\u092e": 49949, "\u2581settembre": 2375, "##\u0b36": 32880, "\u091a\u091f\u094d\u091f\u093e\u0928": 50287, "##\u0938\u093e\u0925": 43990, "\u2581\u0441\u043b\u0443\u0447\u0430": 21494, "\u2581bay": 23425, "ryty": 13034, "outh": 14595, "\u0915\u0948\u0926\u093f\u092f\u094b\u0902": 42806, "\u2581Nak": 13485, "\u092e\u093f\u0932\u0928": 47927, "\u2581expos": 16288, "\u0918\u0947\u0930\u093e\u092c": 36546, "\u091a\u0948\u0902\u092a\u093f\u092f\u0902\u0938": 35434, "selected": 21747, "\u0939\u094b\u0928\u0940": 50156, "rides": 3121, "yo": 14803, "\u092c\u0941\u0930\u093e": 37397, "\u2581punto": 829, "##\u101a": 49340, "##\u0909\u0938": 39395, "##\u0938\u094d\u092f\u093e": 34227, "\u092d\u093e\u091c": 45603, "##\u094b\u0927\u0940": 36364, "\u255a": 18155, "\u2581preserve": 22195, "\u3011": 373, "\u2581stolet": 3245, "\u2581bras": 3285, "FOR": 452, "\u015b\u0107": 11176, "\u0938\u092e\u0947\u0915": 33917, "schluss": 21734, "\u0939\u093f\u0930\u093e": 32145, "\u091a\u093f\u0915": 38659, "##uth": 47396, "##\u0935\u093f\u0926": 46807, "sal": 11454, "\uad6d": 3023, "\u2581Assert": 28287, "##\u0924\u094d\u200d\u0924\u093e": 34667, "##\u0ebd": 32169, "\u2581suff": 18954, "\u092a\u0939\u0928\u093e": 50216, "\u092e\u0938\u094d\u0924\u0940": 38660, "\u092e\u0927\u0941": 44465, "##ly": 33219, "\u0431\u0438": 31483, "\u2581apolog": 913, "\u2581passe": 11048, "\u140a": 36442, "\u0441\u043e": 15567, "\u043d\u0456\u0432": 13547, "\u2581anglais": 360, "\u2581gauche": 7234, "nar": 19204, "\u2581continues": 20643, "Visible": 4964, "\u091c\u094b\u0927": 32435, "\u2581Deport": 4985, "\u0915\u0947\u0928\u094d\u092f\u093e": 33910, "\uf514": 39331, "\u2581javax": 22856, "\u2581B\u00fcr": 16871, "wall": 27936, "Vis": 29012, "##\u0943\u0924\u094d\u092f": 45509, "\u0909\u0928\u094d\u0939\u0947": 43421, "ast": 17708, "Mich": 29864, "\u2581Finn": 21378, "Bl": 278, "\u7801": 30828, "##\u1860": 45113, "\u2581\u041f\u0456\u0434": 13859, "\u2581licz": 17598, "\u2581CBS": 28338, "\u2581cav": 24684, "\u0938\u093e\u092a\u094d\u0924\u093e\u0939": 37694, "##\u0915\u0947\u0928": 47469, "\u0905\u0939\u0938\u093e\u0938": 48624, "totype": 10542, "\u0936\u093f\u0932\u093e\u0928": 49031, "\u2600": 40523, "ears": 1786, "\u2581jaren": 13471, "\u2581Bank": 12583, "\u090f\u092b\u0921\u0940": 49956, "\u0926\u0940": 35702, "\u2581printf": 11288, "\u22a2": 9797, "\u043a\u0442\u0438\u0432": 27471, "\u0938\u093f\u0902": 44048, "\u0907\u0902\u0917\u093f\u0924": 46957, "\u0938\u0940\u092c\u0940\u0906\u0908": 42831, "##\u73cd": 41158, "\u092c\u0902\u091f": 33999, "\u2581\u0411\u0443": 12389, "\u2581mondiale": 8830, "##\u0925\u093f\u092f\u0941\u0938": 49503, "bihar": 32839, "migr": 15212, "\u0082": 6580, "braries": 570, "\u2581sag": 13662, "|": 13046, "equals": 27038, "\u0909\u0928\u094d\u0928\u092f\u0928": 44070, "\u2581stats": 23342, "esch": 648, "\u2581\u0413\u0443": 3775, "\u2581font": 31049, "\u091f\u094b\u0932": 35373, "\u0905\u0935\u092f": 45315, "ashington": 13036, "##\u0947\u091f\u093f\u0915": 50602, "\u2581bits": 10678, "\u0926\u0930\u094b\u0902": 42641, "replace": 21143, "ossa": 30193, "\u2581{-": 21105, "YS": 7478, "\u0926\u093f\u0932\u0940\u092a": 41967, "dependency": 1676, "\u2581constructor": 12351, "\u044e\u0442\u044c\u0441\u044f": 13045, "\u2581\u0430\u0432\u0442\u043e\u0440": 24598, "atform": 21717, "##\u093e\u0930\u094d\u0915": 43566, "\u0939\u0938\u0928": 43290, "\u2581Thank": 1644, "\u0915\u092e\u093e\u0908": 34192, "\u0938\u091c": 42090, "##\u0928\u094d\u092e": 34984, "\u2581Ins": 11082, "ene": 622, "\u2581sorrow": 4972, "\u2581Cent": 21721, "\u0938\u094d\u092a\u0949\u091f": 35655, "western": 16539, "\u0938\u093e\u092e\u0902\u091c": 40187, "\u2581factory": 4990, "gems": 28956, "onk": 15718, "##\u0c4a": 35747, "\u0442\u0438\u0440\u043e\u0432\u0430": 10481, "\u0926\u0936\u092e\u0932": 45487, "\u041a": 16494, "\u2581Kill": 29245, "\u0428": 3190, "cademy": 29688, "\u0441\u043a\u0430": 12699, "\u2581conflic": 29578, "\u2581produz": 20658, "##\u093e\u091c\u093f\u0924": 49201, ")[": 15883, "ittee": 18795, "\u2581nombreux": 12069, "\u092c\u091a": 48617, "##\u091f\u094b": 33687, "\u2581possess": 29991, "\u2581decent": 13930, "\u092e\u094c\u091c\u093f\u091c\u093c\u0947": 34253, "\u0905\u0917\u0938\u094d\u200d\u0924": 50265, "\u2581\u010dl\u00e1nku": 28762, "iter": 13102, "\u0412\u043e": 5733, "\u7b51": 43663, "\u2581novel": 3137, "ba": 25910, "\u2581Gate": 9149, "##\u092c\u093e\u0930\u094b\u0902": 38297, "\u2581Premier": 21199, "\u2581Wind": 25394, "\u0930\u093f\u0936\u094d\u0924\u0947\u0926\u093e\u0930": 37642, "##\u0939\u0932": 36101, "\u2581\u0433\u043e\u0440\u043e\u0434\u0430": 7291, "\u2581AB": 1166, "##\u6d45": 34949, "\u98df": 15286, "\u2581scope": 27231, "\u2581hotel": 13415, "asser": 15021, "\u092c\u0932\u094d\u0915\u093f": 38252, "\u0905\u0924\u093f\u0930\u093f\u0915\u094d\u200d\u0924": 48823, "bound": 10044, "opter": 10435, "\u2581Father": 17079, "rin": 19265, "\u0dad": 49522, "##\u0915\u0930\u0928\u0947": 48433, "##\u0930\u094d\u0935\u0947": 45161, "\u2581recognition": 14438, "\u091f\u093e\u0907\u092e": 38605, "<0xA6>": 332, "\u2581mir": 2112, "\u2581sends": 15477, "\u0938\u091f\u0940": 42343, "\u6001": 25636, "\u2581\u0441\u0442\u0430\u043d\u043e\u0432": 26674, "\u2581Current": 27467, "\u2581\u0435": 19481, "\u0b3c": 40965, "\u0921\u093f\u092a": 44844, "edi": 18081, "\u2581pred": 4512, "\u2581denied": 10246, "\u2581tour": 2116, "\u017adzier": 20524, "ensis": 26808, "parallel": 6671, "\u2581xml": 1589, "sil": 27937, "ras": 23688, "Router": 26193, "nest": 31007, "\u2581induction": 10808, "\u092e\u0928\u094b": 38274, "\u092e\u0928\u093e\u0932\u0940": 45916, "\u2581broke": 24499, "\u091c\u094b\u0928": 33229, "\u2581vern": 10919, "##\u2019": 46862, "\u2581Company": 8974, "\u2581heav": 29727, "\u0907\u0938\u092e\u0947\u0902": 33294, "\u092a\u094d\u0930\u094c": 50057, "\u2581amounts": 29767, "##p": 42193, "##\u094b\u091c\u0928": 40828, "\u2581clicked": 17285, "\u0928\u093f\u0937\u094d\u0915\u0930\u094d\u0937": 45112, "\u0e13": 7675, "\u2581exp": 14584, "PORT": 13354, "\ud68c": 2850, "\u2581opposite": 31407, "\u2581going": 8382, "##\u3064": 47825, "\u0938\u094d\u0935\u0940\u0915\u0943\u0924\u093f": 41926, "\u2550\u2550\u2550\u2550": 8822, "\u2581\u043f\u0440\u0430\u0432": 24790, "\u2581cer": 22951, "\u2581Exec": 24783, "##\u093e": 42563, "Develop": 31938, "##ya": 49088, "\u0926\u093e\u0902": 36726, "\u0938\u093f\u0932\u0938": 32841, "\u0921\u0940\u092c\u0940\u091f\u0940": 34987, "##\u092b\u093e\u0932": 33330, "\u2581Agency": 17728, "discussion": 30677, "\u0442\u0430\u043d": 15862, "\u2581confusing": 31537, "MC": 23362, "\u010dn\u00ed": 16213, "\u2581argument": 22427, "\u2581st": 2659, "\u2581proofs": 48, "\u2581\u0412\u0438\u0434\u0438": 8807, "\u0938\u0902\u092d\u093e\u0932\u0928\u0947": 42452, "\u2581Default": 10050, "\u2581\u0431\u043b\u0438": 31914, "creens": 12606, "loss": 3763, "\u2581inform\u00e1ci\u00f3k": 23218, "\u2581studio": 10934, "\u0938\u0902\u0927": 48396, "}}^{": 2261, "\u2581}\\": 29551, "\u0935\u093e\u0924\u093e": 32603, "\u2581went": 9675, "\u091a\u0947\u0928\u094d\u0928\u0908": 41939, "watch": 6638, "\u674f": 38224, "(...)": 2598, "\u2581poss": 13614, "##\u1d4a": 39102, "Running": 1711, "upd": 34139, "\u2581Dienst": 21812, "\u0905\u0939\u092e\u0926": 44556, "\u2581enqu": 8889, "olare": 22095, "\u1105": 42834, "\u2581europ\u00e9enne": 6042, "\u2581provinces": 20279, "\u2581Rahmen": 15187, "MODE": 28283, "\u2581Never": 18259, "\u2581Fou": 21608, "\u2581sister": 5024, "\u2581\u041f\u043e\u043b\u044c": 23202, "\u0964'": 48718, "\ud802\udc43": 44231, "apolis": 11604, "\u2581frame": 20256, "\u0432\u0438\u0441\u0438": 20929, "Hom": 10381, "\u10e0": 16649, "intendo": 7968, "anza": 17528, "\u092e\u0949\u0932": 41169, "heimer": 22660, "Middle": 8061, "clos": 16754, "\u2581sehen": 20939, "\u092e\u0941\u092c\u093e\u0930\u0915": 49983, "\u2581Sver": 26103, "\u2581Err": 24015, "\u05de": 27135, "##\u093e\u0930\u094d\u091c\u0941\u0928": 43070, "kit": 5893, "\u092e\u093e\u0924\u093e": 43068, "\u2581des": 10793, "\u2581allerdings": 14122, "\u0911\u092a\u094d\u091f": 32231, "\u0938\u094d\u0935\u0930": 47734, "\u0906\u0916\u093c": 49787, "yt": 24365, "orge": 16076, "sk\u00fd": 1471, "stats": 25298, "\u2581fest": 5876, "\u2581set": 3766, "\u2581pg": 29291, "\u2581Begriffe": 6495, "\u0930\u0916\u0924\u0947": 43107, "\u2581doubt": 9321, "\u0924\u093e\u0932\u094d\u0932": 35520, "##\u1037": 40333, "halten": 26958, "adora": 17596, "cm": 25253, "\u2581timer": 22680, "tip": 27934, "\u0932\u093e\u0932\u091a": 44965, "autorit\u00e9": 23499, "\u2581engaged": 14476, "\u091f\u0947\u0915\u094d": 40063, "\u0444\u0438\u043a\u0430": 8616, "##\u8109": 48393, "\u092c\u094b\u0932\u0928\u093e": 39056, "matches": 12501, "\u0938\u094d\u092e\u093e\u0930\u0915": 39016, "##\u02b0": 41741, "\u2581rear": 15616, "##\u68b0": 32431, "\u0915\u0948\u0938\u0947": 33388, "\u2581Either": 17269, "\u2581erf": 18329, "scal": 4392, "\u2581tax": 24345, "##\u092c\u094d\u092c": 35958, "##\u093e\u0907\u0932": 34764, "\u0d24": 27170, "\u2581ast": 24555, "\u0938\u093e\u0930\u094d\u0915": 40556, "##\u0938\u094d\u091f\u0947\u092c\u0932": 44464, "\u2581Bah": 16641, "##\u0915\u094d\u0937\u0947": 32637, "##\u0926\u094d\u0930\u094b\u0939": 41971, "obi": 16465, "\u2581Saturday": 271, "\u2581\u043e\u0440\u0443": 10724, "\u211d": 28241, "\u0447\u0430": 21523, "\u092a\u094d\u0930\u093e\u0930\u0902\u092d": 46158, "\u2581Rot": 16065, "\u00fcber": 15766, "\u2581investig": 16715, "Let": 7092, "##\u091f\u0940\u0935\u0940": 39113, "\u092a\u0943\u0925\u094d\u0935": 35640, "\u2581celui": 20384, "\u2581nine": 2972, "\u56fe": 21816, "\u20b1": 39545, "\u0924\u093e\u0939\u093f\u0930": 44825, "dependent": 548, "\u2581apparten": 2717, "isis": 25885, "\u2581Vict": 26074, "\u0928\u0947\u0939\u0935\u093e\u0932": 37623, "##\u304d": 36663, "\u2581mostra": 550, "\u0aad": 45728, "dump": 471, "ailand": 23919, "\u092b\u091c\u093c\u0932": 44513, "\u0930\u093e\u0935": 41773, "<0xC6>": 12737, "\u0915\u093e\u0909\u0902\u091f\u0930": 46843, "\u2581restrict": 14656, "\u092a\u0941\u0930\u0941\u0937\u094b\u0902": 46018, "##\u06d5": 36370, "\u2581liste": 13252, "\u092a\u0902\u0915": 37718, "##\u0c2f": 32612, "\u0935\u093f\u092f\u0924\u0928\u093e\u092e": 36503, "icro": 29085, "\u2581lan": 8403, "##\u0915\u094d\u200d\u0924\u093f\u092f\u094b\u0902": 36432, "\u0449\u0435\u0435": 29644, "\u1c5b": 34847, "##\u8af8": 42926, "\u0444\u043e\u0440\u043c\u0430": 24335, "\u2581MO": 24748, "\u0906\u0936\u094d\u091a\u0930\u094d\u092f\u091c\u0928\u0915": 47079, "\u091a\u093e\u0932\u0915\u094b\u0902": 37342, "\u092a\u091f\u0928\u093e": 40258, "\u2581Engineering": 21212, "SA": 28573, "\u2581charm": 1592, "\u1edd": 9764, "\u2581Tree": 11260, "\u2581findViewById": 15708, "\u2581inclus": 31880, "\u092c\u0941\u0935\u093e\u0908": 32330, "ipt": 5908, "Rest": 6326, "##\u030c": 48796, "##\u092c\u0928": 49353, "\u2581cookies": 5372, "\u1109": 42016, "\u0161\u00ed": 20345, "\u090f\u092e": 47732, "\u2581limited": 23511, "Format": 17494, "##\u092a\u0947\u0915\u094d\u0937": 45385, "\u0930\u093e\u0924\u094d\u0930\u093f": 40483, "Default": 29065, "\u2581Normal": 5898, "\u2581usually": 30287, "\u2581|": 11600, "##\u0938\u094d": 34839, "\u2581pse": 29940, "\u2581acqu": 14598, "\u0935": 16704, "\u0b1f": 37626, "\u2581Right": 11160, "eval": 5435, "##\u0928\u094d\u0926\u094d\u0930": 37875, "\u2581cele": 25215, "\u0930": 1560, "\u0915\u0943\u0937\u094d\u0923\u093e": 38386, "\u0906\u0938\u092a\u093e\u0938": 49974, "\u0432\u043e\u0435": 29695, "\u2581Pedro": 27592, "\u2581artificial": 26211, "\u0939\u0930\u0938\u093f\u092e\u0930\u0924": 32274, "\u2581Y": 4632, "##\u0939\u093e\u0930\u0940": 37622, "\u0a88": 43168, "Static": 3336, "\u092f\u0942\u0928\u093e\u0928\u0940": 47458, "\u2581Javascript": 20002, "\u0907\u0938\u0915\u0947": 43906, "\u0917\u0941": 49701, "\u092a\u0940\u0922\u093c\u093f\u092f\u094b\u0902": 48248, "\u2581swo": 31974, "RY": 5405, "\u0939\u0930\u093f\u0926\u094d\u0935\u093e\u0930": 47787, "\u0932\u0917": 46171, "\u2581gev": 9174, "\u0917\u094b\u092a\u0940": 36733, "\u2581h\u00e9": 24843, "=\".": 27027, "iled": 20891, "\u0938\u094d\u200d\u091f": 37151, "\u2581mentre": 1246, "\u0916\u0930\u0940\u0926\u093e": 47271, "\u2581Address": 15395, "\u2581Delete": 30711, "##\u0924\u0928": 36988, "\u0939\u0938\u094d\u0924\u0915\u094d\u0937\u0947\u092a": 38782, "\u2581mieszka\u0144": 5094, "\u0926\u0947\u0938\u0940": 41882, "ithmet": 24677, "\u2581\u0432\u0440\u0435": 16863, "##\u00b1": 48033, "\u0917\u0923": 49541, "\u2581includes": 15220, "\u2581guid": 31175, "\u0917\u094c\u0930": 47320, "Inv": 29346, "##\u0936\u093f\u0924": 43518, "##\u0915\u093e\u092c": 41263, "\u043e\u0437": 9790, "\u2581Anton": 31477, "scribe": 142, "##\u093f\u092f\u093c": 41633, "\ud559": 17372, "\u092e\u093e\u0926\u0915": 50167, "\u2581Observable": 9783, "kmal": 1342, "\u2581Jakob": 22414, "\u0e02": 2245, "\u2581motion": 4639, "\u2581words": 11434, "\u0f63": 23695, "\u2581perspective": 11374, "\u0924\u0947\u0930\u0940": 41704, "##\u0915\u0943\u0924": 32393, "\u2581episode": 20028, "##\u0982": 42478, "\u2581woman": 27314, "lles": 11187, "\u2581output": 28250, "Unit": 4416, "\u2581hospital": 14277, "##\u30a2": 40602, "otimes": 2356, "\u090f\u0928\u090f": 46810, "\u2581minist": 14307, "\u2581Ireland": 24174, "\u091b\u0924\u094d\u0924\u0940\u0938\u0917\u0922\u093c": 43620, "##\u0948\u0932": 39693, "a\u00f1a": 2701, "\u0938\u092e\u091d\u094c\u0924\u093e": 46129, "\u0935\u093f\u0936\u094d\u0932\u0947\u0937\u0923": 45263, "virti": 356, "##\u0e1a": 37246, "\u0438\u043b": 14271, "penas": 25873, "\u2581Mart\u00ednez": 31607, "\u2581McK": 7624, "\u2581FALSE": 404, "sound": 17429, "Type": 13190, "##\u093f\u0936\u0930": 32691, "\u0926\u0948\u0928\u093f\u0915": 39994, "\u2581advis": 6588, "##\u0947\u0930\u0924": 49646, "\u2581XX": 23769, "\u2581classific": 28084, "SV": 8088, "\u0930\u093e\u092f\u092c": 39246, "inte": 22233, "\u2581\".": 5699, "\u2581listening": 14253, "\u092a\u0930\u093f\u0935": 33007, "\u092d\u0942\u0915\u0902\u092a": 47455, "\u0906\u0932\u093f\u092f\u093e": 46569, "Then": 31401, "\u0924\u093e\u0930": 45684, "Longrightarrow": 20928, "\u2581genannt": 20179, "TABLE": 1598, "\u2581Animal": 26567, "\u2581snap": 4723, "\u2581weeks": 29102, "\u2581distinct": 20868, "\u091a\u0941\u092a\u094d\u092a\u0940": 35118, "\u2581AG": 28831, "\u2581\u0441\u0442\u0430\u043d\u043e\u0432\u043d\u0438\u043a\u0430": 24129, "\u2581fos": 6280, "##\u0940\u092a": 40411, "\u2d5b": 48279, "orphism": 29342, "\u043f\u0443\u0442\u0430": 9546, "Location": 30971, "\u2581\u0437\u0434\u0430": 27716, "riage": 740, "\u2581Angeles": 6943, "\u0948": 18279, "jets": 10875, "\u2581DDR": 14061, ")=": 7035, "\u2581sharp": 29224, "##\u0928\u093e\u0915": 45958, "\u2581scheme": 5599, "\u2581restart": 25323, "\u091c\u093f\u092e\u094d\u092e\u0947": 44668, "child": 30735, "nika": 7447, "ds": 10550, "\u0932\u0917\u093e\u0924\u093e": 46258, "##\u0935\u094d\u092f\u0942": 32146, "\u0928\u0915\u094d\u0938\u0932\u0940": 50451, "\u2581brick": 21627, "ark": 11443, "\u2581dessen": 13157, "\u0921\u093f\u091c": 43506, ")_{": 28403, "\u072a": 49434, "iterator": 24991, "\u2581hus": 26978, "\u2581Jay": 27609, "\u092e\u0932\u094d": 42187, "\u2581aliment": 3601, "##\u0c9f": 46583, "\u092a\u093f\u091f": 40113, "Top": 24852, "ords": 31126, "Owner": 8748, "##\u0938\u0902\u0939\u093e\u0930": 47198, "\u2581kr\u00f3": 8049, "\u2581addr": 2274, "\u2581\u043e\u043a\u0440\u0443\u0433\u0430": 14113, "\u2581Filip": 8384, "adrat": 26626, "\u0159": 11377, "DP": 4273, "\u00ee": 31685, "arters": 15007, "Austral": 12448, "##\u091c\u0940\u0932\u0948\u0902\u0921": 36289, "\u2581tr": 2188, "\u0905\u0938\u094d\u0925\u093e\u0928\u093e": 43189, "\u0434\u043e\u043d": 18158, "enti": 1316, "isi": 31038, "##\u0925\u0930": 48528, "\u092e\u093e\u0932\u0942\u092e": 37678, "\u0936\u093f\u0915\u0938\u094d\u0924": 38355, "\u2581neat": 28770, "\u2581cub": 27483, "\u2581separately": 9970, "\u0938\u094b\u0928\u0942": 48499, "fg": 23373, "\u2581jeden": 20974, "\u2581associated": 508, "uber": 18650, "\u092e\u0939\u0924\u094d\u0935\u092a\u0942\u0930\u094d\u0923": 44126, "lichen": 22516, "abi": 5724, "##\u30a3": 50516, "lywood": 17268, "itos": 565, "ley": 5702, "\u0905\u0928\u0941\u092d": 47026, "project": 23932, "Her": 23763, "\u2581aware": 15210, "\u0c07": 34956, "\u091c\u093e\u0928\u0947": 32875, "\u2581indices": 8788, "\u2581\u00e9t": 23871, "riors": 3798, "\u2581advers": 28619, "season": 14222, "\u2581Reich": 19337, "##\u0939\u093e\u0932": 36277, "\u2581kw": 6664, "\u2581concrete": 8804, "\u2581equals": 31232, "ere": 16753, "\u0938\u094d\u0935\u0930\u0942\u092a": 35850, "\u2581GitHub": 11858, "\u2581Parse": 12387, "##\u0927\u0940\u0928\u0917\u0930": 45144, "obs": 5657, "\u092e\u0925\u0941\u0930\u093e": 48891, "\u0905\u0915\u094d\u0937\u092f": 42189, "\u2581build": 26405, "\u2581seu": 11126, "\u2581\u0421\u0435\u0440\u0433": 3152, "\u2581n\u00e3o": 30905, "\u2581accepts": 6805, "Mo": 5364, "##\u092a\u094d\u0932\u0947\u0915\u094d\u0938": 33223, "%'": 29086, "ery": 26218, "\u2581Navar": 22583, "ierra": 1027, "\u091a\u093f\u0902\u0924\u093e": 40751, "\u0936\u0947\u0930": 38207, "enix": 1226, "\u043c\u0443": 30559, "\u2581computing": 15325, "\u2581remaining": 16199, "\u1c60": 35868, "\u0435\u0434\u0435\u0440\u0430": 26182, "\u092e\u093e\u0928\u093e": 34999, "\u092c\u0948\u0920\u0915\u0930": 38600, "\u2581asi": 17188, "\u2581graf": 28029, "\u0935\u0948\u0926\u093f\u0915": 32279, ")|": 20014, "##\u0caa": 33734, "\u2581corn": 6214, "\u2581appe": 11076, "eqn": 5022, "##\u092c\u0940\u092a\u0940": 32767, "\u2581cab": 31202, "sigma": 23655, "bey": 12180, "\u2581ask": 17740, "\u0925\u0930\u094d\u092e\u0932": 34077, "oko": 2986, "\u0906\u0930\u094d\u091f\u093f\u0915\u0932": 44490, "atu": 7467, "\u2581creature": 13149, "ouses": 27726, "\u0930\u093e\u0902\u091a\u0940": 45630, "\u0928\u0947\u0924\u093e\u091c\u0940": 49566, "\"];": 11059, "ife": 19771, "\u2581Lis": 6050, "aka": 4429, "\u2581Fel": 14028, "tl": 4776, "ity": 8951, "\u2581\u043e\u0434\u043d\u0430": 4671, "##\u091f\u093e\u0932\u093e": 37979, "cko": 15778, "\u2581thro": 13082, "\u0935\u093e\u092f\u0926\u093e": 33890, "\u2581\u0421\u0440\u0435\u0434": 4268, "\u2581ese": 25818, "\u0932\u0948\u0902\u0921\u093f\u0902\u0917": 37124, "ank": 2105, "\u092c\u0939\u093e\u0926\u0941\u0930": 40577, "\u2581gegen\u00fcber": 27245, "\u2581muz": 7001, "\u00edtott": 21500, "\u0917\u0941\u091c\u093e\u0930": 33973, "\u092f\u0942\u0938\u0941": 34635, "\u0935\u0947\u092c\u093f\u0928\u093e\u0930": 37834, "\u0939\u0938\u094d\u0924\u093f\u092f\u093e\u0902": 34634, "\u0936\u0939\u0940\u0926\u094b\u0902": 34722, "erner": 7874, "\u2581Deep": 7105, "\u8428": 50590, "Mobile": 23073, "\u2581practical": 31173, "\u2248": 13844, "\u2581juli": 16104, "##\u0917\u0930\u093e\u091c": 34671, "##\u0936\u093f\u092f\u0932": 43332, "\u092a\u093e\u0935\u0928": 36875, "\u2581Govern": 11994, "\u2581tomcat": 21090, "\u2581Lima": 1855, "\u2581Does": 15706, "eteor": 6133, "ville": 20936, "\u0932\u091f\u0915\u093e": 49957, "\u2581dynamics": 31753, "\u2581mv": 29433, "\u0443\u0442": 20770, "\u0938\u094d\u091f\u094d\u0930\u0940\u092e": 47415, "\u0909\u092e\u094d": 42704, "\u0928\u093f\u092d\u093e": 43961, "\u0906\u0924\u0947": 44478, "\u2581shouldn": 10285, "chsel": 9692, "\u2581profil": 27829, "\u092a\u094d\u0930\u0935\u093e\u0939": 41509, "erb": 11669, "\u5742": 11910, "east": 6130, "loc": 4642, "\u0936\u0930\u0940\u0930": 40194, "izia": 15685, "\u2581this": 18429, "\u2581StringBuilder": 3581, "\u0939\u093e\u0928\u093f\u0915\u093e\u0930\u0915": 46559, "\u2581Command": 3920, "\u0432\u044a\u0440": 9548, "\u2581\u0441\u0435\u043b\u044c\u0441\u043e\u0432": 23741, "\u091d\u0941\u0932": 44713, "\u2581<%": 7402, "\u090a\u0902\u091a\u093e\u0908": 48567, "asted": 25426, "##\u093f\u0924\u094d\u0924\u0932": 38894, "\u092a\u0926\u094d\u092e": 41562, "\u2666": 30313, "\u2581included": 7005, "\u0928\u093f\u0930\u094d\u0926\u094b\u0937": 44178, "apper": 20154, "\u2581caratter": 8987, "\u0935\u0915\u093e\u0932\u0924": 34797, "\u2581\u0432\u0435\u0440": 31595, "iko": 15634, "##\u093f\u0930\u0947": 44078, "\u0917\u0940\u0924": 50183, "Future": 30202, "\u2581confirm": 14364, "\u2581mens": 7974, "\u2581coach": 29561, "\u00b6": 10404, "\u2581luck": 7301, "\u2581\u044d\u043a\u0441": 2553, "##\u0948\u0930\u094d\u092f": 43306, "\u2581executing": 17816, "\u011bn\u00ed": 9375, "\u0430": 7783, "\u2581intended": 3882, "\u2581n\u00famer": 30434, "\u0938\u0941\u0917": 37307, "##\u0913\u0902": 32961, "\u0917\u093f\u0932": 43780, "\u092d\u093f": 42500, "\u2581Settings": 18568, "WIDTH": 18114, "\u0915\u094d\u0930\u093f\u0915\u0947\u091f": 37620, "\u9634": 38487, "ilio": 13896, "\u2581Bon": 13238, "\u2581closest": 17844, "##\u0938\u094d\u200d\u0924\u0941\u0924": 33579, "\u2581eigen": 12878, "zech": 3053, "##\u0930\u094d\u0928\u093f\u092f\u093e": 37557, "\u0336": 15936, "##\u092a\u094d\u092a": 34829, "\u2581m\u00e1s": 31533, "\u2581Bib": 10015, "esz": 9834, "\u2581ami": 22159, "\u2581troisi\u00e8me": 24165, "ometimes": 2674, "clude": 25340, "\u0905\u092d\u093f\u092f": 41224, "\u2581sales": 17880, "quez": 25571, "iak": 2148, "\u2581lot": 3462, "come": 21942, "\u0917\u094d\u0935\u093e\u0932": 32699, "\u0442\u0443\u0440\u0430": 25373, "imb": 4046, "\u043d\u0438\u043d\u0430": 18817, "\u2581painter": 26968, "that": 24265, "\u0938\u0941\u092a\u094d\u0930\u0940": 50535, "\u0449": 23672, "\u2581\u0442\u0438\u0442\u0443": 9849, "\u0905\u0928\u0941\u092a\u093e\u0932\u0928": 47405, "\"))": 6716, "\u092c\u0926\u0928\u093e\u092e": 44631, "\u0915\u0924\u0908": 47175, "\u2581desarroll": 23030, "schein": 17172, "\u2581epo": 31270, "\u092e\u0939\u093e\u0930\u093e\u091c": 49945, "\u2581propre": 4003, "\u0926\u093e\u092e\u093e": 46188, "\u0905\u0927\u094d\u092f\u0915\u094d\u0937": 50063, "Values": 16972, "##\u0930\u093f\u0915": 34391, "dp": 23100, "\u2581cpu": 22988, "auto": 12845, "\u2581Amsterdam": 18644, "\u0930\u094b\u0915\u0928\u0947": 49119, "bourne": 22978, "\u2581Short": 5578, "\u2581Button": 1696, "nero": 247, "\u2581Juni": 9214, "\u092e\u093e\u0930\u094d\u0917": 45773, "##o": 43623, "\u2581displaying": 11131, "##\u094b\u091c": 49218, "\u0938\u0930\u093e\u0939": 44702, "\u091a\u0941\u0928\u093e": 40136, "\u092b\u093c\u094b": 37401, "\u2581Api": 18948, "hou": 6914, "\u2581Else": 914, "void": 31911, "\u091f\u0915\u094d\u0915\u0930": 41875, "\u2581modal": 21625, "\u0924\u093f\u0930": 40312, "\u767a": 13760, "\u0906\u0930\u094b\u0917": 34184, "empre": 9810, "oo": 16366, "##\u0937\u094d": 38168, "raint": 24134, "\u2581gla": 20472, "\u2581perform": 3447, "\u2581Prof": 10039, "=\"<?": 6017, "\u0907\u0915\u093e\u0908": 32927, "\u2581troubles": 20798, "\u0926\u093f\u0917\u094d\u0935\u093f\u091c\u092f": 35327, "\u2581tennis": 6251, "\u2581Pok": 6774, "Split": 20196, "\u091a\u0940\u091c\u093c": 35304, "\u2581referencing": 14672, "\u092c\u093e\u0938\u094d\u0915\u0947\u091f": 49694, "##\u0930\u093e\u0917": 49626, "\u0924\u092e\u093e\u092e": 48100, "\u0938\u094d\u091f\u094d\u0930\u093e\u0907": 34649, "\u090f\u0915\u094d\u0938\u0947\u0938": 42972, "\u2581dos": 14855, "hner": 30245, "\u0915\u0941\u0926\u0930": 45809, "\u2581networking": 10175, "\u2581Musical": 3746, "fico": 23087, "\u043b\u0456": 9290, "\u2581Package": 29764, "RT": 6923, "<0x4A>": 4360, "\u2581acon": 15565, "##\u093e\u092f\u0947": 49759, "dotnet": 776, "\u2581Movie": 31822, "lac": 22822, "\u2581\u043f\u043e\u044d": 11127, "\u092e\u091c\u093f\u0938\u094d\u091f\u094d\u0930\u0947\u091f": 32434, "\u2581tokens": 26573, "\u2581v\u00e9rit": 19584, "##\u0915\u094d\u200d\u0924\u093e": 35060, "i\u00f3": 11652, "##\u0925\u093e": 44491, "\u1e25": 25189, "\u043d\u043e\u0442\u043e": 5090, "\u2581ver\u00f6ffentlicht": 28977, "\u2581Jahres": 21792, "\u2581Familien": 13465, "\u2581fortune": 10991, "##\u092c\u094b": 39469, "\u0cb0": 24294, "##\u0928\u0949": 46052, "Sh": 3328, "\u2581stabil": 18091, "\u2581probl": 21460, "\u017e": 3268, "\u2581f\u00f6l": 24802, "\u091c\u093e\u0935": 43221, "/,": 5915, "}))": 25058, "\u0915\u093f\u0932\u094b\u0917\u094d\u0930\u093e\u092e": 42625, "\u0906\u0930\u094d\u0925": 36705, "\u0935\u093f\u0935\u093e": 43576, "\u092b\u093f\u0932\u0940\u092a\u0940\u0902\u0938": 39751, "\u0a17": 40948, "\u092c\u0940\u092e\u093e\u0930": 33373, "\u090f\u0928\u091c\u0940\u0913": 32129, "p": 1227, "\u2581\u0448\u043a\u043e\u043b\u0430": 23039, "##\u2588": 43185, "\u0926\u0930\u0916\u094d\u0924": 42614, "\u2581alb": 20490, "##\u904a": 34594, "\u0905\u0928\u0941\u092e\u094b\u0926\u093f\u0924": 43914, "PI": 9184, "ament": 6853, "\u0964\"\"": 36408, "gest": 28616, "\u0928\u093f\u0936": 45680, "##\u064c": 40929, "\u2581valor": 1051, "##\u1004": 36621, "\u092d\u093e\u0917": 49718, "##ron": 34287, "\u2581hyper": 7470, "\u2581espa": 26304, "\u30b7": 22061, "ount": 2090, "\u0915\u092c\u0940\u0930": 38771, "\u2581recently": 5282, "\u092a\u0939\u0932\u0940": 47346, "blem": 25014, "\u2581root": 14455, "\u2581neighbor": 19573, "\u057f": 354, "##\u0938\u0947\u0938": 43734, "##\u0d1f": 40966, "\u2581Gest": 6546, "\u2581Games": 7463, "\u6ce2": 14788, "##\u0937\u094d\u200d\u091f\u094d\u0930": 50425, "\u092a\u094b\u0932": 32954, "\u0936\u093e\u0902\u0924\u093f\u092a\u0942\u0930\u094d\u0923": 46115, "\u2581RewriteCond": 7990, "ILL": 12648, "\u2581situated": 16175, "\u091c\u0947\u0932\u094b\u0902": 37529, "\u2002": 14208, "\u0938\u0902\u092a\u0926\u093e": 37001, "\u2581\u0442\u0440\u0430\u043d": 26463, "\u2581iz": 26977, "}}.": 14446, "\u2581Ta": 15537, "##\u0938\u094d\u200d\u0935": 42529, "##\u092a\u093e\u0932": 44097, "\u2581VB": 13606, "\u0440\u043e\u0435": 29968, "\u2581batter": 21997, "\u0905\u0938\u094d\u0924": 37099, "\u0915\u0942\u091f\u0928\u0940\u0924\u093f\u0915": 33931, "IR": 12567, "ropol": 28993, "]:": 20620, "##)": 49539, "\uc655": 9719, "##\u0930\u093e\u0937\u094d\u091f\u094d\u0930\u0940\u092f": 41044, "ANG": 21982, "\u0c56": 38850, "LY": 9287, "\u0943": 40904, "\u2581cutting": 22448, "\u2581}}": 8335, "Az": 29788, "\u6d1e": 3662, "aussian": 9740, "\u2581episodio": 17963, "\u2581Screen": 4612, "\u0906\u0908\u090f\u0928\u090f\u0915\u094d\u0938": 42170, "\u2581Hy": 16244, "\u0938\u093f\u0902\u0927": 38863, "##\u093e\u0902\u091f": 39968, "Session": 30959, "\u092c\u0922\u093c\u093e\u0924\u0947": 32885, "\u1fe6": 18622, "fall": 18157, "zing": 19441, "\u2581pleasure": 14496, "\u2581Next": 30969, "\u092b\u0948\u0915\u094d\u091f\u094d\u0930\u0940": 39276, "\u2581esterni": 5651, "##\u044b": 36599, "ologist": 15228, "sko": 29598, "##\u0c2c": 42766, "utors": 29537, "\u0907\u0902\u0938\u093e\u092b": 43317, "\u2581apenas": 12025, "\u2581integr": 22973, "\u2581Francia": 23663, "Up": 25500, "##\u0939\u0940\u0930": 42655, "\u043f\u0440": 7362, "\u092a\u094d\u0930\u094b\u0917\u094d\u0930\u093e\u092e": 48079, "jekt": 26684, "\u0447\u043a\u043e": 19632, "\u0905\u092b\u094d\u0930\u0940": 34654, "Endpoint": 6031, "\u2581nebo": 20562, "\u2581crypt": 31431, "\u2581still": 19454, "<0xAC>": 3710, "\u0915\u0948\u0902\u0938\u0930": 47063, "\u0924\u0948\u092f\u093e\u0930\u0940": 45150, "vest": 7390, "\u2581zdoby": 9220, "\ue56b": 39486, "\u0938\u0902\u0915\u0932": 32556, "\u2581graphics": 19373, "\u0442\u0438\u0432": 8080, "##\u0932\u0924": 48296, "idad": 17905, "\u2581davon": 3277, "\u2581experien": 10964, "\u090f\u0915\u094d\u200d\u0938": 35900, "',": 19355, "\u092e\u093e\u0927\u0935": 46146, "\u0906\u0915\u0938\u094d\u092e\u093f\u0915": 46130, "\u2581Initialize": 21600, "\u0939\u0940\u0930\u093e": 36135, "event": 26550, "\u2581gobierno": 13180, "\u2581Adem\u00e1s": 12054, "toire": 2867, "\u2581gilt": 11458, "\u2581Canadian": 24979, "\u2581authorization": 2729, "\u2581battle": 3208, "\u0924\u094c": 43674, "\u0938\u092e\u093f\u091f": 35432, "##\u0e41": 34055, "\u2581Database": 15664, "\u0909\u091a\u094d\u091a\u0924\u0930": 39805, "##\u094b\u0926\u092f": 49471, "Mer": 13093, "\u2581interpreter": 19162, "\u0925\u092e": 46506, "\u2581\u0415": 26719, "\u0935\u094d\u092f\u0941": 49944, "\u0915\u0926\u093e\u092a\u093f": 33610, "\u0905\u0928\u0902\u0924\u092a\u0941\u0930": 32039, "\u0915\u094d\u0930\u0942\u0930\u0924\u093e": 35882, "\u2581manera": 3113, "\u092c\u0922\u093c": 33623, "PD": 10386, "\u0939\u0948\u0902": 49661, "##\u30b9": 41731, "score": 7120, "\u2581ligne": 31081, "##\u0938\u0942": 42372, "\u2581${": 4138, "emer": 3409, "\u0917\u0941\u091c\u093c\u0930": 33749, "\u2581\u043d\u0435\u043c\u0435\u0446": 5769, "\u092a\u0928": 41181, "\uf835": 49968, "issent": 14220, "\u0906\u0928\u0947": 48209, "\u2581portrait": 21769, "\u2581maps": 19856, "##\u0928\u093f\u0930\u094d\u092d\u0930": 40257, "\u0938\u093e\u0932\u093e\u0928\u093e": 47061, "\u2581havia": 20131, "geme": 23963, "\u0917\u094b\u0932\u094d\u0921\u0928": 44158, "\u2581tutto": 24786, "\u2581gates": 11794, "\u0930\u0947\u0921": 39482, "ol": 6814, "\u0938\u0902\u0924\u0941": 46686, "\u2581Tab": 926, "\u2581szer": 22072, "stringify": 2849, "\u0926\u0930\u092e\u093f\u092f\u093e\u0928": 42617, "\u2581byla": 24622, "\u2581Frid": 11583, "##\u094d\u092f\u0942\u0932": 42237, "\u6c5f": 20958, "\u00f3l": 29165, "\u0938\u0941\u0932\u0947\u092e\u093e\u0928": 36995, "riv": 4563, "\u2581solved": 6117, "\u043a\u043e\u0432\u0430": 316, "\u0921\u0947\u0932": 37998, "##\u5e86": 35261, "\u0441\u0442\u0435": 16018, "\u2581SC": 24349, "\u2581Life": 16550, "\u0905\u0926\u093f\u0932\u093e\u092c\u093e\u0926": 45924, "\u2581wegen": 13074, "\u0938\u0926\u0928\u094b\u0902": 35626, "\u2581protest": 29972, "\u2581partecip": 11473, "cl": 12685, "\u2581Wik": 3735, "\u00e4nge": 6518, "\u092c\u0922\u093c\u093e\u0908": 41859, "\u2581snow": 7182, "jax": 31883, "\u2581\u043c\u0438\u043d\u0438": 19167, "edy": 5806, "<\\": 17121, "##\u0abf": 42115, "\u2581proposed": 2038, "\u2581\u0442\u0435\u0440\u0440\u0438\u0442\u043e": 4989, "\u092a\u0947\u0936\u0947\u0935\u0930": 35562, "\u2581revis": 24659, "\u2581Antonio": 20056, "\u2581interpreted": 9142, "\u2581tongue": 21743, "Save": 26554, "TextView": 9368, "\u2581Vector": 812, "\u2581autory": 30490, "##\u0941\u090f": 50235, "\u2581partie": 13101, "soci": 16642, "\u091c\u092e\u093e": 41461, "\u0915\u0948\u0930\u0940": 32843, "\u2581formally": 4000, "\u2581confl": 1407, "\u0909\u0924\u094d\u092a\u093e\u0926\u0915": 33147, "##\u0938\u094d\u200d\u0915\u0947\u091f": 50329, "\u2581den": 13097, "##\u2600": 45479, "idents": 4754, "##\u092f\u094b\u0928": 45766, "...)": 26576, "Level": 31486, "\u090f\u092a\u094d\u092a\u0932": 45528, "\u2581incorrectly": 10939, "\u091c\u093f": 35903, "##\u092b\u0940\u0932\u094d\u0921": 44654, "##\u0c18": 35487, "oring": 28161, "Ha": 184, "\u0905\u0932\u0930\u094d\u091f": 43089, "##\u0901": 33006, "\u0926\u093e\u0926\u093e": 38033, "\u0916\u093e\u0932\u093f\u0926": 41452, "\u090f\u0915\u0940\u0915\u0930\u0923": 49796, "##\u094d\u0935\u0924": 34786, "\u7edf": 5355, "\u2581squadra": 7221, "##\u093e\u0930\u094d\u091f\u092e": 37193, "##lection": 48412, "\u0926\u093f\u092f\u093e": 43460, "\u00e4ischen": 28883, "\u2018\u2019": 41204, "##\"\"": 48950, "unge": 14568, "##\u0930\u093e\u092f": 37664, "Result": 1336, "\u2581Nue": 15751, "\u2581focus": 11715, "\u0939\u0925": 43162, "\u0915\u091a\u0930\u093e": 49360, "\u2581zaj": 7748, "\u2581Rugby": 26987, "\u2581erfolgte": 15939, "\u2581sj": 20878, ");": 31504, "\u2581imp": 17081, "\u2581kommt": 12443, "etime": 23219, "\u0915\u0930\u0942\u0901": 37233, "\u043e\u0432": 17879, "\u092e\u094b\u0930": 42680, "era": 10804, "\u2581contin": 30929, "questions": 28594, "##\u0921\u0940\u090f\u0938": 37991, "\u092e\u091c\u0926\u0942\u0930": 42530, "\u2581Fu": 7879, "##\u093e\u091c": 36673, "\u09cd": 25767, "imos": 9187, "\u092b\u093e\u092f\u0926\u093e": 49304, "##\u092a\u0930\u094d\u0938": 32200, "\u2581threshold": 20455, "\u091f\u094d\u092f\u0942": 46741, "ises": 22346, "ulf": 23197, "\u0935\u093f\u0921\u093f\u092f\u094b": 41825, "\u2581Laravel": 2714, "\u0939\u0947\u0928\u0930\u0940": 32084, "\u2581ries": 26122, "h\u00e4ng": 23787, "##\u094b\u091f": 37204, "\u2581m\u00fas": 9246, "\u0909\u0932\u094d\u200d\u0932\u0947\u0916\u0928\u0940\u092f": 50478, "\u0911\u092f\u0932": 47853, "##\u0924\u0947\u0902": 38585, "nbsp": 16801, "poss": 14966, "ann\u00e9e": 11955, "\u0939\u093f\u0926\u093e\u092f\u0924": 39450, "Instance": 3799, "\u2581coding": 20724, "##\u30ab": 33730, "\u2581points": 19580, "##\u092e\u093f": 42561, "\u0938\u0947\u0932": 48383, "\u2581nj": 17132, "\u2581Cic": 19890, "ynt": 23770, "\u2581entry": 11104, "\u043a\u0438\u043d": 2147, "\u2581experience": 31009, "\u2581pel\u00edcula": 22277, "\u043d\u0430\u0440": 59, "\u091a\u093f\u0928\u094d\u0924\u093e": 41533, "\u0444\u0435\u0440": 14628, "\u00e1nos": 4554, "\u0409": 19494, "aca": 27329, "##\u0947\u0924": 32478, "quelle": 19421, "\u0938\u0902\u0915\u0947\u0924\u094b\u0902": 48940, "##\u093f\u0938\u0940": 37893, "\u2581Nur": 21759, "won": 11495, "##\u0928\u093e\u0925": 33625, "##\u094d\u200d\u0926": 39167, "erva": 2100, "\u0930\u094b\u091c\u093c\u0917\u093e\u0930": 37091, "Mor": 10408, "\u0930\u093e\u091c\u0938\u094d\u0935": 40500, "\u2581divid": 25998, "\u2581wszyst": 3490, "\u2581Ach": 2686, "VP": 16736, "\u0932\u0921\u093c\u0915": 35667, "egn": 21524, "\u092c\u094d\u092f\u094c": 33901, "\u040b": 31185, "\u2581Engel": 16915, "##\u092d\u093f": 47549, "encies": 22604, "\u2581imagination": 18654, "\u2581forec": 18668, "\u092a\u0930\u093f\u091c\u0928": 40288, "\u2581Ville": 17624, "\u0905\u092b\u0938\u0930": 39663, "\u2581declarations": 4786, "outube": 15700, "ielle": 25003, "\u2581t\u00e4t": 21803, "ssc": 38451, "\u0926\u0947\u0936\u092d\u0915\u094d\u0924\u093f": 32310, "\u092c\u0928\u0947\u0902": 44897, "\u0917\u093e\u0902\u0927\u0940": 40001, "Tables": 27611, "\u2581g\u00e9n\u00e9rale": 5881, "\u2581methods": 27236, "\u2581Orange": 6900, "\u0905\u0902\u0924\u0930\u0930\u093e\u0937\u094d\u200d\u091f\u094d\u0930\u0940\u092f": 45904, "\u0938\u0940\u092c\u0940\u0921\u0940\u091f\u0940": 32444, "\u2581Staat": 13944, "int": 29988, "##\u094d\u091c\u093c": 39974, "\u2581Python": 17856, "\u092c\u0924\u093e\u0924\u0947": 35911, "\u2581pdf": 6770, "\u0915\u0949\u0928\u094d": 38966, "\u091a\u0930\u094d": 38267, "\u2581gem\u00e4\u00df": 19931, "\u0cac": 35532, "\u0939\u0941\u0906": 44623, "built": 17006, "\u2581patr": 26279, "\u2581Looks": 29857, "generate": 10117, "ctrine": 23852, "##\u093e\u0924": 38263, "\u2581exercise": 10369, "\u0938\u093e\u0915\u094d\u0937\u0940": 38051, "\u2581Leg": 17272, "modi": 49598, "ryption": 6383, "vel": 20212, "\u0936\u093e\u0930": 40244, "estellt": 23882, "\u2581cerca": 13410, "\u0936\u0930\u0923\u093e\u0930\u094d\u0925\u093f\u092f\u094b\u0902": 36528, "##\u06c7": 48949, "##\u03bb": 43113, "\u092b\u0932\u094b\u0902": 33481, "\ud835\uddef": 46745, "\u2581compiled": 10949, "\u2581\u0444\u0443\u0442\u0431\u043e": 27182, "abet": 20408, "\u092e\u0947\u0939\u0924\u093e": 37603, "\u179a": 14765, "\u090f\u0902\u0921\u094d\u0930": 35654, "\u2581Character": 9695, "\u0928\u093f\u0915\u0932\u0947": 44489, "\u0441\u043e\u0432": 4398, "\u092e\u0941\u091c\u092b\u094d\u092b\u0930": 33791, "##\u091f\u0947\u0921": 33451, "\u2581withdraw": 86, "\u0938\u0939\u093e\u0930\u093e": 45329, "\u2581alcuni": 14700, "##\u093f\u0902\u0938\u093e": 38069, "\"></": 5700, "\u2581predicted": 6571, "\u2581hast": 28148, "\u2581decide": 11242, "\u0914\u0938\u0924": 43634, "##\u093f\u0936\u0928": 47814, "\u2581sword": 24273, "\u0434\u043e\u0432\u0430": 28872, "\u2581Jesus": 15103, "vars": 18442, "\u2581elles": 22673, "\u2581\u0433\u043e\u0440": 11720, "nonumber": 11130, "graph": 29320, "iona": 21302, "\u0935\u0930\u0941\u0923": 38732, "##\u090f\u0932\u092a\u0940": 40354, "##ies": 35275, "\u0938\u0940\u092e": 42421, "inst": 21278, "Empty": 25368, "\u092a\u0948\u0926\u0932": 48439, "ufe": 23221, "##tt": 41530, "\u2581Mis": 29219, "\u0916\u093e\u0926": 45902, "\u2229": 27153, "\u2581lieu": 6934, "blue": 3773, "\u0938\u0940\u091f": 34907, "\u2581[{": 23141, "\u0928\u093f\u0930\u094d\u0926\u0947\u0936\u093f\u0924": 37457, "iel": 26766, "##\u0928\u0947\u0936\u0928\u0932": 49537, "\u0921\u093f\u092a\u094d\u0932\u094b": 47877, "\u0939\u0924\u093e\u0939\u0924": 44932, "ufact": 29096, "\u2581\u00e9tant": 12753, "\u2581bank": 14806, "##\u0938\u094d\u092b": 40760, "##ric": 46211, "gef": 22555, "\u2581templates": 12151, "\u0905\u091f": 33424, "\u0905\u0935\u093f\u0936\u094d\u0935\u093e\u0938": 33087, "\u0938\u092e\u094d\u092c\u0902\u0927\u093f\u0924": 49979, "\u2581rid": 4589, "ik": 9336, "\u0926\u0932\u0940": 32861, "\u2581Ber": 31316, "\u110b": 45673, "top": 21508, "\u2581coverage": 8568, "\u2581flutter": 12777, "\u1037": 37113, "\u2581patients": 6860, "\u0905\u0927\u093f\u0938\u0942\u091a\u093f\u0924": 42024, "\u1c5a": 36054, "##\uabc3": 47723, "\u2581win": 18463, "offset": 12266, "\u091c\u093c\u0930\u0942\u0930\u0924": 40706, "des": 9373, "\u091a\u0902\u0921\u0940\u0917\u0922\u093c": 35910, "\u0906\u0935\u093e\u091c": 33844, "\u2581Mai": 15679, "\u0928\u093f\u092f\u0941": 34861, "\u0918\u091f\u0928\u093e\u0913\u0902": 49480, "\u2581Starting": 27003, "exception": 26676, "\u092e\u0941\u0901\u0939": 47908, "typeof": 31896, "gz": 22947, "\u30aa": 13630, "\u0905\u0938\u0902\u0917": 35290, "Point": 13378, "\u2581fut": 5859, "INST": 647, "\u0938\u0947\u0902\u0917\u0930": 50443, "##\u0926\u0941\u0930\u0940": 46737, "xyz": 3467, "yci": 16783, "\u2581LO": 22727, "\u0916\u0947\u0930": 47721, "icator": 19524, "\u2581deployment": 13781, "\u2581pres": 27307, "lla\u00e7os": 13546, "\u62f3": 29202, "\u2581t\u00eate": 7733, "\u2581baron": 15605, "\u2581sleep": 12041, "cade": 21103, "\u2581$('": 23621, "\u0926\u0947\u0915\u0930": 37907, "\u2581uint": 22091, "\u0938\u0930\u094d\u0935\u094b\u091a\u094d\u091a": 34850, "\u2581resource": 27731, "raise": 10518, "\u091c\u0940\u0935": 40807, "##\u09ad": 40914, "\u091b\u094b\u091f\u0947": 43181, "\u0930\u093e\u0937\u094d\u091f": 33130, "\u092c\u094d\u0932\u0947": 36491, "\u091a\u0948\u0928\u0932\u094b\u0902": 35856, "\u0916\u0941\u0930\u093e\u0915": 48962, "\u2581clip": 21062, "\u092e\u0941\u0906\u0935": 39894, "ang": 28726, "Cy": 13350, "\u2581rapp": 15227, "##\u0902\u0925\u0940": 38041, "\u5229": 12340, "\u0926\u094d\u0930\u092e\u0941\u0915": 35968, "\u2581Br": 8260, "\u2581regres": 19395, "\u0936\u093e\u0916\u093e\u0913\u0902": 36303, "\u2581\u043a\u0430\u043e": 17014, "\u2581M\u00e4r": 18758, "##\u0289": 38624, "##\u0938\u094d\u0924\u0940\u0928": 46040, "cont": 20383, "\u0936\u0948": 44107, "\u0926\u0940\u0935": 42706, "\u090f\u092a\u0940": 39456, "\u2581hade": 29474, "\u2581pri": 1101, "\u091a\u0915": 48754, "wick": 11218, "\u2581enem": 15031, "\u2581\u0434\u0456\u044f": 630, "\u0151k": 20574, "\u2581Architecture": 11772, "ythm": 13088, "mic": 19832, "\u2581judgment": 25852, "lee": 1804, "\u092e\u093f\u0932\u093e\u092f\u093e": 38958, "\u2581specifying": 13829, "\u2581\u043f\u0440\u043e\u0433\u0440\u0430\u043c": 20118, "\u092a\u0947\u091f\u0947\u0902\u091f": 42946, "\u2581Isn": 30696, "##\u0924\u0943": 38201, "\u2581bataille": 18003, "\u2581cards": 11413, "\u0928\u0935\u093e\u091c\u0941\u0926\u094d\u0926\u0940\u0928": 37548, "\u2581consumption": 22564, "##\u099b": 33819, "Exception": 11389, "##\u0924\u094b": 36666, "\u0915\u093e\u0930\u094d": 33504, "\u0574": 475, "\u043a": 25548, "##\u0938\u0948\u0928": 39807, "\u091f\u094b\u0915": 37510, "\u2581H": 8953, "\u0915\u0930\u0928\u0947\u0935\u093e\u0932\u093e": 33518, "\u0938\u0924\u094d\u092f\u093e": 40254, "\u2581particularly": 22361, "./": 12668, "\u092b\u0948\u0932\u093e\u0935": 34293, "##\u00d7": 46914, "enson": 12884, "acions": 21863, "\u0913\u090f\u0928\u091c\u0940\u0938\u0940": 36458, "\u2581Storage": 31393, "iros": 1496, "\u0915\u0939\u0915\u0930": 35866, "##\u0948\u0935": 32722, "\u0320": 38990, "\u2581interview": 16077, "\u2581rappresent": 17766, "\u091a\u0932\u0940": 44904, "<0xF3>": 10898, "que": 11560, "including": 26475, "\u0930\u0947\u0936": 35843, "\u091a\u0947\u0924": 37682, "\u0935\u094b\u091f": 36968, "\u2581Committee": 13391, "\u092a\u094d\u0930\u0938\u093e\u0930\u0923": 37398, "##\u0942\u092c": 46291, "\u09cb": 5906, "\u2581Florence": 26392, "\u0938\u093e\u092e\u0942\u0939": 50624, "##\u094b\u0927\u0928": 49542, "\u0917\u0935\u0930\u094d": 47655, "\u6de1": 46204, "##\u0935\u093e\u0938\u094d\u0924": 41513, "\u2581gover": 15171, "\u2581sir": 15946, "##ure": 34818, "##\u094d\u200d\u092e": 49639, "##\u0938\u094d\u0924\u093f\u092f\u094b\u0902": 39132, "ium": 19049, "\u2581typed": 3313, "\u2581\u044e": 3416, "chts": 4449, "\u2581Han": 26036, "\u0930\u093e\u0907": 47979, "\u2581el\u0151": 4702, "\u0938\u092e\u0943\u0926\u094d\u0927": 41637, "He": 10954, "ilo": 1249, "\u2581Advent": 11150, "\u2581Environment": 10532, "\u2581musica": 171, "\u090a\u0901\u091a": 38632, "##\u0574": 37580, "\u043d\u0430\u0434": 16624, "\u0440\u043e\u043c\u0430": 1179, "\u0c2a": 44854, "\u2581json": 3990, "\u2581Plus": 14336, "\u2581Ama": 27980, "\u0927\u092e": 33719, "\u2581EP": 21009, "\u2581lu": 1259, "\u0906\u0936\u094d\u0935": 48666, "\u2581prowad": 23384, "\u0935\u0938\u0942\u0932": 33196, "uchar": 15579, "Fe": 28397, "\u2581DNA": 26282, "\u2581#####": 12428, "<0x76>": 21905, "\u0935\u093f\u0927\u093e\u092f\u0915": 38176, "\u0938\u094d\u200d\u0925\u093e\u092a\u0928\u093e": 48724, "\u0435\u0442\u0430": 10901, "##\u06ac": 38349, "\u2581different": 15976, "{{": 14148, "\u2581relacion": 6705, "Vertical": 23542, "\u2581d": 19376, "\u2581Brandenburg": 26272, "##\u0926\u0947\u0935": 44451, "\u2581models": 23409, "\u2581assigning": 26772, "\u2581rip": 2000, "\u0930\u0948\u0928\u093e": 33726, "\u2581Anna": 24445, "\u0906\u0908\u090f\u092e\u0921\u0940": 45668, "ungen": 22450, "\u2581sac": 12476, "thing": 21819, "\u2581Hob": 2244, "hot": 20515, "##\u146d": 33943, "##an": 45520, "\u2581definition": 7366, "Christ": 18667, "egin": 9192, "urm": 28223, "\u79d2": 47128, "\u0927\u0930\u094b\u0939\u0930": 42862, "\u2581Giuseppe": 15433, "\u2581zoom": 26026, "\u2581zeit": 6122, "\u2581Mens": 22651, "\u092b\u0949": 45526, "icki": 3181, "\u064c": 41747, "\u0939\u093f\u0932\u0947": 39148, "\u0930\u0916\u093f\u090f": 49401, "##\u093e\u091c\u0928\u0915": 34195, "##\u0c24": 37369, "otta": 22505, "\u0906\u0901\u0916": 48989, "\u66f8": 22845, "\u2581minus": 5527, "Na": 10824, "\u092d\u092f\u093e\u0935\u0939": 41035, "##\u0915\u094d\u0915\u093e": 37334, "ences": 13763, "##\u0928\u094d\u0938": 40355, "ils": 18311, "rant": 2222, "\u2581\u0441\u043e\u0441\u0442\u0430\u0432\u0435": 2590, "\u2581bitmap": 12793, "\u0906\u092f\u093e\u0924": 34725, "\u2581McC": 25024, "\u0938\u093e\u0930\u094d\u0925": 46032, "\u092e\u0947\u0902": 36013, "\u2581einmal": 19780, "\u2581mainten": 1065, "\u2581\u0444\u0435\u0432\u0440\u0430\u043b\u044f": 31305, "\u2581\u043e\u0441\u0442\u0430\u043d": 16317, "\u2206": 28944, "\u0938\u0941\u0928\u0924\u0947": 47355, "\u2581tir": 5841, "Fire": 12075, "\u2581means": 25021, "\u092a\u093e\u0924\u0947": 32635, "##\u093f\u0902\u0915\u094d\u092f": 47917, "\u2581Az": 12721, "\u0432\u0430\u0440": 3193, "##\u0926\u093f\u092f\u093e": 41968, "\u2581categ": 16786, "\u2581Politik": 8773, "hindi": 46429, ")_": 2057, "\u0907\u0930\u093e": 36048, "\u2581description": 8110, "##\u0940\u0928": 44019, "\u2581\u0438\u043d": 3625, "aturday": 26332, "book": 2633, "\u2581layer": 15760, "\u0915\u091a\u094d\u200d": 45863, "\u2581overhead": 7590, "\u092d": 27031, "\u2581seats": 10397, "\u0917\u0932\u0924\u093f\u092f\u094b\u0902": 42813, "\u2581argent": 23813, "icker": 2433, "notin": 23270, "\u0917\u0947\u0902\u0926\u092c\u093e\u091c": 44523, "\u2581within": 29217, "kem": 7294, "\u091a\u094c\u0921\u093c\u093e": 32950, "\u0d31": 28599, "\u2581kraj": 31956, "\u0105z": 27582, "\u1019": 14772, "\");\r": 10927, "##\u846c": 38626, "\u0938\u094d\u092a\u0947\u0915\u094d\u091f\u094d\u0930\u092e": 34653, "lera": 20480, "\u091b\u0941\u0921\u093c\u093e": 36004, "\u2581\u0440\u043e\u0437\u0442\u0430\u0448": 3724, "\u092e\u0940\u0930\u093e": 32503, "\u2581regards": 25921, "cription": 17967, "\u2581\u0438\u043b\u0438": 15820, "\u0932\u093e\u092d\u093e\u0930\u094d\u0925\u093f\u092f\u094b\u0902": 48806, "\u2581Fon": 2149, "\u2581\u0411\u0438": 15835, "\u5305": 21818, "\u2581'%": 24928, "\u2581humans": 10213, "##\u0947\u0902\u091a": 35478, "\u0924\u0940\u0930\u094d\u0925\u092f\u093e": 50003, "\u092b\u093e\u092f\u0926\u0947\u092e\u0902\u0926": 35849, "\u2581along": 2143, "##\u0960": 33073, "##\u092e\u0947\u0932": 49212, "GET": 27607, "##\u0941\u0930": 41937, "\u0917\u093e\u092f\u093f\u0915\u093e": 39005, "\u2581\u043f\u0430\u0440": 8884, "\u2581companion": 8078, "##pf": 40425, "hmen": 8486, "\u092e\u094c\u0930\u094d\u092f": 41678, "\u0928\u093f\u0930\u094d\u092d": 47603, "\u2581Rick": 6833, "\u0938\u0947\u0932\u094d\u0938": 36299, "\u0905\u092a\u0935": 39519, "\u0935\u093e\u091c": 46049, "\u2581eventually": 13571, "\u0448\u0435": 20506, "\u2581Goth": 2182, "\u2581Beat": 28130, "\u2581minutes": 12887, "\u2581Fra": 322,
[...]
