{
  "version": "1.0",
  "truncation": null,
  "padding": null,
  "added_tokens": [
    {
      "id": 0,
      "content": "<unk>",
      "single_word": false,
      "lstrip": false,
      "rstrip": false,
      "normalized": false,
      "special": true
    },
    {
      "id": 1,
      "content": "<pad>",
      "single_word": false,
      "lstrip": false,
      "rstrip": false,
      "normalized": false,
      "special": true
    },
    {
      "id": 2,
      "content": "<s>",
      "single_word": false,
      "lstrip": false,
      "rstrip": false,
      "normalized": false,
      "special": true
    }
  ],
  "normalizer": {
    "type": "Sequence",
    "normalizers": [
      {
        "type": "NFD"
      },
      {
        "type": "Lowercase"
      }
    ]
  },
  "pre_tokenizer": {
    "type": "Sequence",
    "pretokenizers": [
      {
        "type": "Whitespace"
      },
      {
        "type": "Digits",
        "individual_digits": true
      }
    ]
  },
  "post_processor": {
    "type": "TemplateProcessing",
    "single": [
      {
        "SpecialToken": {
          "id": "<s>",
          "type_id": 0
        }
      },
      {
        "Sequence": {
          "id": "A",
          "type_id": 0
        }
      },
      {
        "SpecialToken": {
          "id": "</s>",
          "type_id": 0
        }
      }
    ],
    "pair": [
      {
        "Sequence": {
          "id": "A",
          "type_id": 0
        }
      },
      {
        "Sequence": {
          "id": "B",
          "type_id": 1
        }
      }
    ],
    "special_tokens": {
      "</s>": {
        "id": "</s>",
        "ids": [
          2
        ],
        "tokens": [
          "</s>"
        ]
      },
      "<s>": {
        "id": "<s>",
        "ids": [
          1
        ],
        "tokens": [
          "<s>"
        ]
      }
    }
  },
  "decoder": null,
  "model": {
    "type": "WordPiece",
    "unk_token": "<unk>",
    "continuing_subword_prefix": "##",
    "max_input_chars_per_word": 100,
    "vocab": {
      "<unk>": 0,
      "<pad>": 1,
      "<s>": 2,
      "!": 3,
      "\"": 4,
      "#": 5,
      "$": 6,
      "%": 7,
      "&": 8,
      "'": 9,
      "(": 10,
      ")": 11,
      "*": 12,
      "+": 13,
      ",": 14,
      "-": 15,
      ".": 16,
      "/": 17,
      "0": 18,
      "1": 19,
      "2": 20,
      "3": 21,
      "4": 22,
      "5": 23,
      "6": 24,
      "7": 25,
      "8": 26,
      "9": 27,
      ":": 28,
      ";": 29,
      "<": 30,
      "=": 31,
      ">": 32,
      "?": 33,
      "@": 34,
      "[": 35,
      "\\": 36,
      "]": 37,
      "^": 38,
      "_": 39,
      "`": 40,
      "a": 41,
      "b": 42,
      "c": 43,
      "d": 44,
      "e": 45,
      "f": 46,
      "g": 47,
      "h": 48,
      "i": 49,
      "j": 50,
      "k": 51,
      "l": 52,
      "m": 53,
      "n": 54,
      "o": 55,
      "p": 56,
      "q": 57,
      "r": 58,
      "s": 59,
      "t": 60,
      "u": 61,
      "v": 62,
      "w": 63,
      "x": 64,
      "y": 65,
      "z": 66,
      "{": 67,
      "|": 68,
      "}": 69,
      "~": 70,
      "¡": 71,
      "¢": 72,
      "£": 73,
      "¤": 74,
      "¥": 75,
      "§": 76,
      "¨": 77,
      "©": 78,
      "ª": 79,
      "«": 80,
      "¬": 81,
      "­": 82,
      "®": 83,
      "¯": 84,
      "°": 85,
      "±": 86,
      "²": 87,
      "³": 88,
      "´": 89,
      "µ": 90,
      "¶": 91,
      "·": 92,
      "¸": 93,
      "¹": 94,
      "º": 95,
      "»": 96,
      "¼": 97,
      "½": 98,
      "¾": 99,
      "¿": 100,
      "×": 101,
      "ß": 102,
      "æ": 103,
      "ð": 104,
      "÷": 105,
      "ø": 106,
      "þ": 107,
      "đ": 108,
      "ı": 109,
      "ł": 110,
      "ŋ": 111,
      "œ": 112,
      "ſ": 113,
      "ƒ": 114,
      "ɐ": 115,
      "ɑ": 116,
      "ɒ": 117,
      "ɔ": 118,
      "ɕ": 119,
      "ə": 120,
      "ɛ": 121,
      "ɜ": 122,
      "ɡ": 123,
      "ɣ": 124,
      "ɨ": 125,
      "ɪ": 126,
      "ɫ": 127,
      "ɯ": 128,
      "ɲ": 129,
      "ɳ": 130,
      "ɵ": 131,
      "ɸ": 132,
      "ɹ": 133,
      "ɽ": 134,
      "ɾ": 135,
      "ʀ": 136,
      "ʁ": 137,
      "ʂ": 138,
      "ʃ": 139,
      "ʈ": 140,
      "ʉ": 141,
      "ʊ": 142,
      "ʋ": 143,
      "ʌ": 144,
      "ʎ": 145,
      "ʏ": 146,
      "ʒ": 147,
      "ʔ": 148,
      "ʕ": 149,
      "ʝ": 150,
      "ʟ": 151,
      "ʤ": 152,
      "ʰ": 153,
      "ʲ": 154,
      "ʹ": 155,
      "ʻ": 156,
      "ʼ": 157,
      "ʽ": 158,
      "ʾ": 159,
      "ʿ": 160,
      "ˀ": 161,
      "˂": 162,
      "ˆ": 163,
      "ˇ": 164,
      "ˈ": 165,
      "ˊ": 166,
      "ˌ": 167,
      "ː": 168,
      "˙": 169,
      "˚": 170,
      "˛": 171,
      "˜": 172,
      "˝": 173,
      "ˠ": 174,
      "ˤ": 175,
      "˧": 176,
      "̀": 177,
      "́": 178,
      "̂": 179,
      "̃": 180,
      "̄": 181,
      "̆": 182,
      "̇": 183,
      "̈": 184,
      "̉": 185,
      "̊": 186,
      "̋": 187,
      "̌": 188,
      "̍": 189,
      "̓": 190,
      "̔": 191,
      "̛": 192,
      "̞": 193,
      "̠": 194,
      "̣": 195,
      "̧": 196,
      "̨": 197,
      "̩": 198,
      "̪": 199,
      "̮": 200,
      "̯": 201,
      "̱": 202,
      "̸": 203,
      "͂": 204,
      "ͅ": 205,
      "͘": 206,
      "͡": 207,
      "ͧ": 208,
      "΄": 209,
      "α": 210,
      "β": 211,
      "γ": 212,
      "δ": 213,
      "ε": 214,
      "ζ": 215,
      "η": 216,
      "θ": 217,
      "ι": 218,
      "κ": 219,
      "λ": 220,
      "μ": 221,
      "ν": 222,
      "ξ": 223,
      "ο": 224,
      "π": 225,
      "ρ": 226,
      "ς": 227,
      "σ": 228,
      "τ": 229,
      "υ": 230,
      "φ": 231,
      "χ": 232,
      "ψ": 233,
      "ω": 234,
      "ϒ": 235,
      "ϕ": 236,
      "ϵ": 237,
      "ϸ": 238,
      "а": 239,
      "б": 240,
      "в": 241,
      "г": 242,
      "д": 243,
      "е": 244,
      "ж": 245,
      "з": 246,
      "и": 247,
      "к": 248,
      "л": 249,
      "м": 250,
      "н": 251,
      "о": 252,
      "п": 253,
      "р": 254,
      "с": 255,
      "т": 256,
      "у": 257,
      "ф": 258,
      "х": 259,
      "ц": 260,
      "ч": 261,
      "ш": 262,
      "щ": 263,
      "ъ": 264,
      "ы": 265,
      "ь": 266,
      "э": 267,
      "ю": 268,
      "я": 269,
      "і": 270,
      "ј": 271,
      "ћ": 272,
      "ғ": 273,
      "җ": 274,
      "қ": 275,
      "ң": 276,
      "ү": 277,
      "ҷ": 278,
      "һ": 279,
      "ә": 280,
      "ө": 281,
      "ա": 282,
      "բ": 283,
      "ե": 284,
      "զ": 285,
      "թ": 286,
      "ի": 287,
      "լ": 288,
      "ծ": 289,
      "կ": 290,
      "հ": 291,
      "ղ": 292,
      "ճ": 293,
      "մ": 294,
      "յ": 295,
      "ն": 296,
      "շ": 297,
      "ո": 298,
      "ռ": 299,
      "ս": 300,
      "տ": 301,
      "ր": 302,
      "ց": 303,
      "ւ": 304,
      "օ": 305,
      "և": 306,
      "ְ": 307,
      "ִ": 308,
      "ֵ": 309,
      "ֶ": 310,
      "ַ": 311,
      "ָ": 312,
      "ֹ": 313,
      "ֺ": 314,
      "ּ": 315,
      "ׁ": 316,
      "א": 317,
      "ב": 318,
      "ג": 319,
      "ד": 320,
      "ה": 321,
      "ו": 322,
      "ז": 323,
      "ח": 324,
      "ט": 325,
      "י": 326,
      "כ": 327,
      "ל": 328,
      "ם": 329,
      "מ": 330,
      "ן": 331,
      "נ": 332,
      "ס": 333,
      "ע": 334,
      "פ": 335,
      "צ": 336,
      "ק": 337,
      "ר": 338,
      "ש": 339,
      "ת": 340,
      "،": 341,
      "ء": 342,
      "ا": 343,
      "ب": 344,
      "ة": 345,
      "ت": 346,
      "ث": 347,
      "ج": 348,
      "ح": 349,
      "خ": 350,
      "د": 351,
      "ذ": 352,
      "ر": 353,
      "ز": 354,
      "س": 355,
      "ش": 356,
      "ص": 357,
      "ض": 358,
      "ط": 359,
      "ظ": 360,
      "ع": 361,
      "غ": 362,
      "ـ": 363,
      "ف": 364,
      "ق": 365,
      "ك": 366,
      "ل": 367,
      "م": 368,
      "ن": 369,
      "ه": 370,
      "و": 371,
      "ى": 372,
      "ي": 373,
      "ٌ": 374,
      "َ": 375,
      "ُ": 376,
      "ِ": 377,
      "ّ": 378,
      "ْ": 379,
      "ٓ": 380,
      "ٔ": 381,
      "ٕ": 382,
      "ٰ": 383,
      "ٱ": 384,
      "ٹ": 385,
      "ټ": 386,
      "ٽ": 387,
      "پ": 388,
      "چ": 389,
      "ڈ": 390,
      "ډ": 391,
      "ڌ": 392,
      "ڑ": 393,
      "ژ": 394,
      "ڙ": 395,
      "ښ": 396,
      "ڠ": 397,
      "ک": 398,
      "ڪ": 399,
      "ګ": 400,
      "ڬ": 401,
      "ڭ": 402,
      "گ": 403,
      "ں": 404,
      "ھ": 405,
      "ہ": 406,
      "ۃ": 407,
      "ۇ": 408,
      "ی": 409,
      "ۍ": 410,
      "ێ": 411,
      "ې": 412,
      "ے": 413,
      "۔": 414,
      "ە": 415,
      "۠": 416,
      "ܐ": 417,
      "ܒ": 418,
      "ܕ": 419,
      "ܘ": 420,
      "ܚ": 421,
      "ܝ": 422,
      "ܟ": 423,
      "ܠ": 424,
      "ܡ": 425,
      "ܢ": 426,
      "ܣ": 427,
      "ܩ": 428,
      "ܪ": 429,
      "ܲ": 430,
      "ހ": 431,
      "މ": 432,
      "ލ": 433,
      "ަ": 434,
      "ް": 435,
      "ࠀ": 436,
      "ँ": 437,
      "ं": 438,
      "ः": 439,
      "अ": 440,
      "आ": 441,
      "इ": 442,
      "ई": 443,
      "उ": 444,
      "ऊ": 445,
      "ऋ": 446,
      "ऌ": 447,
      "ऍ": 448,
      "ऎ": 449,
      "ए": 450,
      "ऐ": 451,
      "ऑ": 452,
      "ऒ": 453,
      "ओ": 454,
      "औ": 455,
      "क": 456,
      "ख": 457,
      "ग": 458,
      "घ": 459,
      "ङ": 460,
      "च": 461,
      "छ": 462,
      "ज": 463,
      "झ": 464,
      "ञ": 465,
      "ट": 466,
      "ठ": 467,
      "ड": 468,
      "ढ": 469,
      "ण": 470,
      "त": 471,
      "थ": 472,
      "द": 473,
      "ध": 474,
      "न": 475,
      "प": 476,
      "फ": 477,
      "ब": 478,
      "भ": 479,
      "म": 480,
      "य": 481,
      "र": 482,
      "ल": 483,
      "ळ": 484,
      "व": 485,
      "श": 486,
      "ष": 487,
      "स": 488,
      "ह": 489,
      "़": 490,
      "ऽ": 491,
      "ा": 492,
      "ि": 493,
      "ी": 494,
      "ु": 495,
      "ू": 496,
      "ृ": 497,
      "ॄ": 498,
      "ॅ": 499,
      "ॆ": 500,
      "े": 501,
      "ै": 502,
      "ॉ": 503,
      "ॊ": 504,
      "ो": 505,
      "ौ": 506,
      "्": 507,
      "ॐ": 508,
      "॑": 509,
      "॒": 510,
      "॓": 511,
      "॔": 512,
      "ॠ": 513,
      "ॡ": 514,
      "ॢ": 515,
      "ॣ": 516,
      "।": 517,
      "॥": 518,
      "०": 519,
      "१": 520,
      "२": 521,
      "३": 522,
      "४": 523,
      "५": 524,
      "६": 525,
      "७": 526,
      "८": 527,
      "९": 528,
      "॰": 529,
      "ॱ": 530,
      "ॲ": 531,
      "ॽ": 532,
      "ঁ": 533,
      "ং": 534,
      "ঃ": 535,
      "অ": 536,
      "আ": 537,
      "ই": 538,
      "ঈ": 539,
      "উ": 540,
      "ঋ": 541,
      "এ": 542,
      "ঐ": 543,
      "ও": 544,
      "ঔ": 545,
      "ক": 546,
      "খ": 547,
      "গ": 548,
      "ঘ": 549,
      "ঙ": 550,
      "চ": 551,
      "ছ": 552,
      "জ": 553,
      "ঝ": 554,
      "ঞ": 555,
      "ট": 556,
      "ঠ": 557,
      "ড": 558,
      "ঢ": 559,
      "ণ": 560,
      "ত": 561,
      "থ": 562,
      "দ": 563,
      "ধ": 564,
      "ন": 565,
      "প": 566,
      "ফ": 567,
      "ব": 568,
      "ভ": 569,
      "ম": 570,
      "য": 571,
      "র": 572,
      "ল": 573,
      "শ": 574,
      "ষ": 575,
      "স": 576,
      "হ": 577,
      "়": 578,
      "া": 579,
      "ি": 580,
      "ী": 581,
      "ু": 582,
      "ূ": 583,
      "ৃ": 584,
      "ে": 585,
      "ৈ": 586,
      "্": 587,
      "ৗ": 588,
      "০": 589,
      "২": 590,
      "৮": 591,
      "৯": 592,
      "ৰ": 593,
      "ৱ": 594,
      "৹": 595,
      "ਂ": 596,
      "ਅ": 597,
      "ਆ": 598,
      "ਇ": 599,
      "ਈ": 600,
      "ਉ": 601,
      "ਊ": 602,
      "ਏ": 603,
      "ਐ": 604,
      "ਕ": 605,
      "ਖ": 606,
      "ਗ": 607,
      "ਘ": 608,
      "ਚ": 609,
      "ਜ": 610,
      "ਝ": 611,
      "ਟ": 612,
      "ਡ": 613,
      "ਢ": 614,
      "ਣ": 615,
      "ਤ": 616,
      "ਥ": 617,
      "ਦ": 618,
      "ਧ": 619,
      "ਨ": 620,
      "ਪ": 621,
      "ਫ": 622,
      "ਬ": 623,
      "ਭ": 624,
      "ਮ": 625,
      "ਯ": 626,
      "ਰ": 627,
      "ਲ": 628,
      "ਵ": 629,
      "ਸ": 630,
      "ਹ": 631,
      "਼": 632,
      "ਾ": 633,
      "ਿ": 634,
      "ੀ": 635,
      "ੁ": 636,
      "ੂ": 637,
      "ੇ": 638,
      "ੈ": 639,
      "ੋ": 640,
      "ੌ": 641,
      "੍": 642,
      "ੜ": 643,
      "੦": 644,
      "੧": 645,
      "੯": 646,
      "ੰ": 647,
      "ੱ": 648,
      "ં": 649,
      "ઃ": 650,
      "અ": 651,
      "આ": 652,
      "ઈ": 653,
      "એ": 654,
      "ઓ": 655,
      "ક": 656,
      "ખ": 657,
      "ગ": 658,
      "છ": 659,
      "જ": 660,
      "ઝ": 661,
      "ટ": 662,
      "ઠ": 663,
      "ડ": 664,
      "ણ": 665,
      "ત": 666,
      "થ": 667,
      "દ": 668,
      "ધ": 669,
      "ન": 670,
      "પ": 671,
      "ફ": 672,
      "બ": 673,
      "ભ": 674,
      "મ": 675,
      "ય": 676,
      "ર": 677,
      "લ": 678,
      "ળ": 679,
      "વ": 680,
      "શ": 681,
      "ષ": 682,
      "સ": 683,
      "હ": 684,
      "ા": 685,
      "િ": 686,
      "ી": 687,
      "ુ": 688,
      "ૂ": 689,
      "ૃ": 690,
      "ે": 691,
      "ો": 692,
      "્": 693,
      "ଅ": 694,
      "ଆ": 695,
      "ଉ": 696,
      "ଓ": 697,
      "କ": 698,
      "ଗ": 699,
      "ଚ": 700,
      "ଛ": 701,
      "ଜ": 702,
      "ଝ": 703,
      "ଟ": 704,
      "ଡ": 705,
      "ତ": 706,
      "ଦ": 707,
      "ଧ": 708,
      "ନ": 709,
      "ପ": 710,
      "ର": 711,
      "ଲ": 712,
      "ଳ": 713,
      "ଶ": 714,
      "ସ": 715,
      "଼": 716,
      "ା": 717,
      "ି": 718,
      "ୂ": 719,
      "େ": 720,
      "୍": 721,
      "அ": 722,
      "ஆ": 723,
      "இ": 724,
      "ஈ": 725,
      "உ": 726,
      "ஏ": 727,
      "க": 728,
      "ங": 729,
      "ச": 730,
      "ஜ": 731,
      "ட": 732,
      "ண": 733,
      "த": 734,
      "ந": 735,
      "ன": 736,
      "ப": 737,
      "ம": 738,
      "ய": 739,
      "ர": 740,
      "ற": 741,
      "ல": 742,
      "ள": 743,
      "ழ": 744,
      "வ": 745,
      "ஷ": 746,
      "ஸ": 747,
      "ா": 748,
      "ி": 749,
      "ீ": 750,
      "ு": 751,
      "ூ": 752,
      "ெ": 753,
      "ே": 754,
      "ை": 755,
      "்": 756,
      "ం": 757,
      "ః": 758,
      "అ": 759,
      "ఆ": 760,
      "ఇ": 761,
      "క": 762,
      "గ": 763,
      "ఘ": 764,
      "చ": 765,
      "జ": 766,
      "ట": 767,
      "డ": 768,
      "ణ": 769,
      "త": 770,
      "థ": 771,
      "ద": 772,
      "ధ": 773,
      "న": 774,
      "ప": 775,
      "బ": 776,
      "భ": 777,
      "మ": 778,
      "య": 779,
      "ర": 780,
      "ల": 781,
      "వ": 782,
      "ష": 783,
      "స": 784,
      "హ": 785,
      "ా": 786,
      "ి": 787,
      "ీ": 788,
      "ు": 789,
      "ూ": 790,
      "ృ": 791,
      "ె": 792,
      "ే": 793,
      "ొ": 794,
      "ో": 795,
      "్": 796,
      "ౖ": 797,
      "౹": 798,
      "ಂ": 799,
      "ಅ": 800,
      "ಆ": 801,
      "ಉ": 802,
      "ಎ": 803,
      "ಕ": 804,
      "ಗ": 805,
      "ಚ": 806,
      "ಜ": 807,
      "ಟ": 808,
      "ಡ": 809,
      "ಣ": 810,
      "ತ": 811,
      "ಥ": 812,
      "ದ": 813,
      "ಧ": 814,
      "ನ": 815,
      "ಪ": 816,
      "ಬ": 817,
      "ಮ": 818,
      "ಯ": 819,
      "ರ": 820,
      "ಲ": 821,
      "ಳ": 822,
      "ಸ": 823,
      "ಹ": 824,
      "ಾ": 825,
      "ಿ": 826,
      "ು": 827,
      "ೂ": 828,
      "ೃ": 829,
      "ೆ": 830,
      "್": 831,
      "ೕ": 832,
      "ೖ": 833,
      "ം": 834,
      "അ": 835,
      "ആ": 836,
      "ഉ": 837,
      "ഊ": 838,
      "ഓ": 839,
      "ക": 840,
      "ഗ": 841,
      "ഘ": 842,
      "ങ": 843,
      "ച": 844,
      "ജ": 845,
      "ഞ": 846,
      "ട": 847,
      "ഠ": 848,
      "ണ": 849,
      "ത": 850,
      "ഥ": 851,
      "ദ": 852,
      "ധ": 853,
      "ന": 854,
      "പ": 855,
      "ബ": 856,
      "ഭ": 857,
      "മ": 858,
      "യ": 859,
      "ര": 860,
      "റ": 861,
      "ല": 862,
      "ള": 863,
      "ഴ": 864,
      "വ": 865,
      "ശ": 866,
      "ഷ": 867,
      "സ": 868,
      "ഹ": 869,
      "ാ": 870,
      "ി": 871,
      "ീ": 872,
      "ു": 873,
      "ൂ": 874,
      "ൃ": 875,
      "െ": 876,
      "േ": 877,
      "ൈ": 878,
      "്": 879,
      "ൻ": 880,
      "ർ": 881,
      "ൽ": 882,
      "ൾ": 883,
      "ං": 884,
      "අ": 885,
      "ක": 886,
      "ග": 887,
      "ජ": 888,
      "ට": 889,
      "ඩ": 890,
      "ණ": 891,
      "ත": 892,
      "ද": 893,
      "න": 894,
      "ප": 895,
      "බ": 896,
      "භ": 897,
      "ම": 898,
      "ය": 899,
      "ර": 900,
      "ල": 901,
      "ව": 902,
      "ස": 903,
      "හ": 904,
      "්": 905,
      "ා": 906,
      "ැ": 907,
      "ෑ": 908,
      "ි": 909,
      "ී": 910,
      "ු": 911,
      "ෙ": 912,
      "ก": 913,
      "ข": 914,
      "ค": 915,
      "ง": 916,
      "จ": 917,
      "ฉ": 918,
      "ช": 919,
      "ซ": 920,
      "ญ": 921,
      "ฎ": 922,
      "ณ": 923,
      "ด": 924,
      "ต": 925,
      "ถ": 926,
      "ท": 927,
      "ธ": 928,
      "น": 929,
      "บ": 930,
      "ป": 931,
      "ผ": 932,
      "พ": 933,
      "ภ": 934,
      "ม": 935,
      "ย": 936,
      "ร": 937,
      "ล": 938,
      "ว": 939,
      "ษ": 940,
      "ส": 941,
      "ห": 942,
      "อ": 943,
      "ะ": 944,
      "ั": 945,
      "า": 946,
      "ำ": 947,
      "ิ": 948,
      "ี": 949,
      "ื": 950,
      "ุ": 951,
      "ู": 952,
      "฿": 953,
      "เ": 954,
      "แ": 955,
      "โ": 956,
      "ใ": 957,
      "ไ": 958,
      "็": 959,
      "่": 960,
      "้": 961,
      "์": 962,
      "๥": 963,
      "ຄ": 964,
      "ງ": 965,
      "ຈ": 966,
      "ຍ": 967,
      "ດ": 968,
      "ທ": 969,
      "ນ": 970,
      "ບ": 971,
      "ພ": 972,
      "ຣ": 973,
      "ລ": 974,
      "ວ": 975,
      "ຫ": 976,
      "ອ": 977,
      "ະ": 978,
      "ັ": 979,
      "າ": 980,
      "ູ": 981,
      "ຼ": 982,
      "ຽ": 983,
      "ເ": 984,
      "້": 985,
      "་": 986,
      "།": 987,
      "ཁ": 988,
      "ག": 989,
      "ང": 990,
      "ཐ": 991,
      "ད": 992,
      "ན": 993,
      "ཕ": 994,
      "བ": 995,
      "མ": 996,
      "ཚ": 997,
      "ཞ": 998,
      "འ": 999,
      "ཡ": 1000,
      "ར": 1001,
      "ལ": 1002,
      "ས": 1003,
      "ི": 1004,
      "ུ": 1005,
      "ེ": 1006,
      "ོ": 1007,
      "ྐ": 1008,
      "ྒ": 1009,
      "ྔ": 1010,
      "ྩ": 1011,
      "ྫ": 1012,
      "ྭ": 1013,
      "ྱ": 1014,
      "ྲ": 1015,
      "ྷ": 1016,
      "က": 1017,
      "ခ": 1018,
      "င": 1019,
      "စ": 1020,
      "ည": 1021,
      "တ": 1022,
      "ဒ": 1023,
      "န": 1024,
      "ပ": 1025,
      "ဖ": 1026,
      "ဗ": 1027,
      "ဘ": 1028,
      "မ": 1029,
      "ယ": 1030,
      "ရ": 1031,
      "လ": 1032,
      "သ": 1033,
      "အ": 1034,
      "ာ": 1035,
      "ိ": 1036,
      "ီ": 1037,
      "ု": 1038,
      "ူ": 1039,
      "ေ": 1040,
      "ဲ": 1041,
      "့": 1042,
      "း": 1043,
      "္": 1044,
      "်": 1045,
      "ျ": 1046,
      "ြ": 1047,
      "ွ": 1048,
      "ှ": 1049,
      "ა": 1050,
      "ბ": 1051,
      "დ": 1052,
      "ე": 1053,
      "ვ": 1054,
      "ზ": 1055,
      "თ": 1056,
      "ი": 1057,
      "ლ": 1058,
      "ნ": 1059,
      "ო": 1060,
      "პ": 1061,
      "რ": 1062,
      "ს": 1063,
      "ტ": 1064,
      "უ": 1065,
      "ქ": 1066,
      "ᄀ": 1067,
      "ᄂ": 1068,
      "ᄃ": 1069,
      "ᄅ": 1070,
      "ᄆ": 1071,
      "ᄇ": 1072,
      "ᄉ": 1073,
      "ᄋ": 1074,
      "ᄌ": 1075,
      "ᄎ": 1076,
      "ᄐ": 1077,
      "ᄒ": 1078,
      "ᅡ": 1079,
      "ᅢ": 1080,
      "ᅥ": 1081,
      "ᅦ": 1082,
      "ᅧ": 1083,
      "ᅨ": 1084,
      "ᅩ": 1085,
      "ᅪ": 1086,
      "ᅮ": 1087,
      "ᅯ": 1088,
      "ᅲ": 1089,
      "ᅳ": 1090,
      "ᅴ": 1091,
      "ᅵ": 1092,
      "ᆨ": 1093,
      "ᆫ": 1094,
      "ᆯ": 1095,
      "ᆷ": 1096,
      "ᆸ": 1097,
      "ᆼ": 1098,
      "ላ": 1099,
      "ል": 1100,
      "ሔ": 1101,
      "ሕ": 1102,
      "ሚ": 1103,
      "ረ": 1104,
      "ሪ": 1105,
      "ሮ": 1106,
      "ሰ": 1107,
      "ቡ": 1108,
      "ብ": 1109,
      "ቦ": 1110,
      "ታ": 1111,
      "ች": 1112,
      "ና": 1113,
      "ኦ": 1114,
      "ክ": 1115,
      "ዝ": 1116,
      "ያ": 1117,
      "ደ": 1118,
      "ᐅ": 1119,
      "ᐊ": 1120,
      "ᑖ": 1121,
      "ᑦ": 1122,
      "ᑭ": 1123,
      "ᒃ": 1124,
      "ᓄ": 1125,
      "ᓇ": 1126,
      "ᓗ": 1127,
      "ᓯ": 1128,
      "ᕿ": 1129,
      "ᖅ": 1130,
      "ᛀ": 1131,
      "ᛯ": 1132,
      "គ": 1133,
      "ង": 1134,
      "ជ": 1135,
      "ត": 1136,
      "ទ": 1137,
      "ន": 1138,
      "ប": 1139,
      "ព": 1140,
      "ម": 1141,
      "យ": 1142,
      "រ": 1143,
      "ល": 1144,
      "វ": 1145,
      "ស": 1146,
      "ហ": 1147,
      "អ": 1148,
      "ា": 1149,
      "េ": 1150,
      "ៃ": 1151,
      "ោ": 1152,
      "ះ": 1153,
      "៌": 1154,
      "័": 1155,
      "្": 1156,
      "᠌": 1157,
      "᠍": 1158,
      "ᠠ": 1159,
      "ᠨ": 1160,
      "ᠩ": 1161,
      "ᠯ": 1162,
      "ᠴ": 1163,
      "ᡠ": 1164,
      "ᡤ": 1165,
      "ᡳ": 1166,
      "ᡵ": 1167,
      "ᱚ": 1168,
      "ᱛ": 1169,
      "ᱜ": 1170,
      "ᱞ": 1171,
      "ᱟ": 1172,
      "ᱠ": 1173,
      "ᱡ": 1174,
      "ᱤ": 1175,
      "ᱥ": 1176,
      "ᱦ": 1177,
      "ᱨ": 1178,
      "ᱩ": 1179,
      "ᱪ": 1180,
      "ᱫ": 1181,
      "ᱭ": 1182,
      "ᱮ": 1183,
      "ᱯ": 1184,
      "ᱱ": 1185,
      "ᱵ": 1186,
      "ᱶ": 1187,
      "ᱷ": 1188,
      "ᱸ": 1189,
      "ᱹ": 1190,
      "ᱺ": 1191,
      "ᱽ": 1192,
      "ᴀ": 1193,
      "ᴇ": 1194,
      "ᴜ": 1195,
      "ᵊ": 1196,
      "ᵝ": 1197,
      "ᶣ": 1198,
      "​": 1199,
      "‌": 1200,
      "‍": 1201,
      "‎": 1202,
      "‏": 1203,
      "‐": 1204,
      "‑": 1205,
      "–": 1206,
      "—": 1207,
      "―": 1208,
      "‘": 1209,
      "’": 1210,
      "‚": 1211,
      "“": 1212,
      "”": 1213,
      "„": 1214,
      "‟": 1215,
      "†": 1216,
      "‡": 1217,
      "•": 1218,
      "․": 1219,
      "…": 1220,
      "‪": 1221,
      "‬": 1222,
      "′": 1223,
      "″": 1224,
      "‵": 1225,
      "‹": 1226,
      "›": 1227,
      "⁃": 1228,
      "⁄": 1229,
      "⁠": 1230,
      "⁡": 1231,
      "⁰": 1232,
      "⁴": 1233,
      "⁻": 1234,
      "ⁿ": 1235,
      "₀": 1236,
      "₁": 1237,
      "₂": 1238,
      "₣": 1239,
      "₩": 1240,
      "₪": 1241,
      "₫": 1242,
      "€": 1243,
      "₮": 1244,
      "₱": 1245,
      "₹": 1246,
      "℃": 1247,
      "ℓ": 1248,
      "™": 1249,
      "⅓": 1250,
      "←": 1251,
      "↑": 1252,
      "→": 1253,
      "↓": 1254,
      "↔": 1255,
      "⇒": 1256,
      "⇔": 1257,
      "⇨": 1258,
      "⇩": 1259,
      "∂": 1260,
      "∅": 1261,
      "∆": 1262,
      "∇": 1263,
      "∈": 1264,
      "∑": 1265,
      "−": 1266,
      "∙": 1267,
      "√": 1268,
      "∝": 1269,
      "∞": 1270,
      "∠": 1271,
      "∨": 1272,
      "∪": 1273,
      "∫": 1274,
      "∮": 1275,
      "∼": 1276,
      "≈": 1277,
      "≡": 1278,
      "≤": 1279,
      "≥": 1280,
      "⊂": 1281,
      "⊕": 1282,
      "⊖": 1283,
      "⊙": 1284,
      "⋅": 1285,
      "⋆": 1286,
      "⋯": 1287,
      "⌊": 1288,
      "⌋": 1289,
      "⏎": 1290,
      "─": 1291,
      "═": 1292,
      "█": 1293,
      "■": 1294,
      "□": 1295,
      "▪": 1296,
      "▫": 1297,
      "△": 1298,
      "▶": 1299,
      "▸": 1300,
      "►": 1301,
      "▼": 1302,
      "◆": 1303,
      "◇": 1304,
      "○": 1305,
      "◌": 1306,
      "●": 1307,
      "◻": 1308,
      "☀": 1309,
      "☃": 1310,
      "★": 1311,
      "☆": 1312,
      "☫": 1313,
      "☺": 1314,
      "☻": 1315,
      "♀": 1316,
      "♥": 1317,
      "♦": 1318,
      "♪": 1319,
      "♫": 1320,
      "♭": 1321,
      "♯": 1322,
      "⚡": 1323,
      "⚥": 1324,
      "⚧": 1325,
      "✅": 1326,
      "✍": 1327,
      "✓": 1328,
      "✔": 1329,
      "✨": 1330,
      "❍": 1331,
      "❏": 1332,
      "❑": 1333,
      "❖": 1334,
      "❤": 1335,
      "➎": 1336,
      "➖": 1337,
      "➡": 1338,
      "➢": 1339,
      "➣": 1340,
      "➤": 1341,
      "➧": 1342,
      "➲": 1343,
      "⟩": 1344,
      "⠀": 1345,
      "⦁": 1346,
      "ⴰ": 1347,
      "ⴱ": 1348,
      "ⴹ": 1349,
      "ⴼ": 1350,
      "ⵇ": 1351,
      "ⵉ": 1352,
      "ⵍ": 1353,
      "ⵎ": 1354,
      "ⵏ": 1355,
      "ⵔ": 1356,
      "ⵕ": 1357,
      "ⵖ": 1358,
      "ⵛ": 1359,
      "ⵡ": 1360,
      "ⵢ": 1361,
      "ⵣ": 1362,
      "、": 1363,
      "い": 1364,
      "き": 1365,
      "く": 1366,
      "こ": 1367,
      "さ": 1368,
      "し": 1369,
      "す": 1370,
      "た": 1371,
      "ち": 1372,
      "っ": 1373,
      "つ": 1374,
      "て": 1375,
      "な": 1376,
      "に": 1377,
      "の": 1378,
      "は": 1379,
      "ほ": 1380,
      "ま": 1381,
      "み": 1382,
      "ら": 1383,
      "り": 1384,
      "る": 1385,
      "ん": 1386,
      "゙": 1387,
      "゚": 1388,
      "ア": 1389,
      "ィ": 1390,
      "イ": 1391,
      "ェ": 1392,
      "エ": 1393,
      "カ": 1394,
      "キ": 1395,
      "ク": 1396,
      "コ": 1397,
      "サ": 1398,
      "シ": 1399,
      "ス": 1400,
      "セ": 1401,
      "タ": 1402,
      "チ": 1403,
      "ッ": 1404,
      "テ": 1405,
      "ト": 1406,
      "ナ": 1407,
      "ハ": 1408,
      "ヒ": 1409,
      "フ": 1410,
      "ヘ": 1411,
      "ホ": 1412,
      "メ": 1413,
      "モ": 1414,
      "ャ": 1415,
      "ュ": 1416,
      "ョ": 1417,
      "ヨ": 1418,
      "ラ": 1419,
      "リ": 1420,
      "ル": 1421,
      "レ": 1422,
      "ロ": 1423,
      "ワ": 1424,
      "ン": 1425,
      "ヶ": 1426,
      "ー": 1427,
      "一": 1428,
      "七": 1429,
      "三": 1430,
      "下": 1431,
      "不": 1432,
      "世": 1433,
      "东": 1434,
      "中": 1435,
      "主": 1436,
      "义": 1437,
      "乌": 1438,
      "乐": 1439,
      "乔": 1440,
      "乗": 1441,
      "九": 1442,
      "乞": 1443,
      "乡": 1444,
      "争": 1445,
      "事": 1446,
      "二": 1447,
      "云": 1448,
      "五": 1449,
      "交": 1450,
      "京": 1451,
      "人": 1452,
      "仏": 1453,
      "仙": 1454,
      "代": 1455,
      "仮": 1456,
      "份": 1457,
      "会": 1458,
      "佐": 1459,
      "体": 1460,
      "使": 1461,
      "侠": 1462,
      "保": 1463,
      "信": 1464,
      "倭": 1465,
      "備": 1466,
      "光": 1467,
      "党": 1468,
      "公": 1469,
      "兰": 1470,
      "共": 1471,
      "关": 1472,
      "兵": 1473,
      "内": 1474,
      "冊": 1475,
      "农": 1476,
      "出": 1477,
      "切": 1478,
      "刊": 1479,
      "券": 1480,
      "創": 1481,
      "力": 1482,
      "功": 1483,
      "加": 1484,
      "动": 1485,
      "動": 1486,
      "務": 1487,
      "勝": 1488,
      "包": 1489,
      "北": 1490,
      "匯": 1491,
      "区": 1492,
      "區": 1493,
      "十": 1494,
      "半": 1495,
      "华": 1496,
      "協": 1497,
      "南": 1498,
      "印": 1499,
      "历": 1500,
      "原": 1501,
      "厳": 1502,
      "县": 1503,
      "叉": 1504,
      "发": 1505,
      "口": 1506,
      "台": 1507,
      "叶": 1508,
      "司": 1509,
      "合": 1510,
      "名": 1511,
      "吐": 1512,
      "吴": 1513,
      "和": 1514,
      "哈": 1515,
      "唐": 1516,
      "啟": 1517,
      "喜": 1518,
      "器": 1519,
      "四": 1520,
      "国": 1521,
      "國": 1522,
      "園": 1523,
      "圓": 1524,
      "土": 1525,
      "圣": 1526,
      "地": 1527,
      "坂": 1528,
      "坡": 1529,
      "城": 1530,
      "基": 1531,
      "堀": 1532,
      "場": 1533,
      "塘": 1534,
      "士": 1535,
      "备": 1536,
      "夕": 1537,
      "外": 1538,
      "多": 1539,
      "夜": 1540,
      "大": 1541,
      "天": 1542,
      "太": 1543,
      "套": 1544,
      "奠": 1545,
      "如": 1546,
      "姫": 1547,
      "子": 1548,
      "字": 1549,
      "孙": 1550,
      "孫": 1551,
      "宁": 1552,
      "安": 1553,
      "宋": 1554,
      "定": 1555,
      "实": 1556,
      "宫": 1557,
      "宮": 1558,
      "家": 1559,
      "富": 1560,
      "寒": 1561,
      "寺": 1562,
      "寿": 1563,
      "封": 1564,
      "小": 1565,
      "少": 1566,
      "尔": 1567,
      "屏": 1568,
      "山": 1569,
      "岗": 1570,
      "岛": 1571,
      "岡": 1572,
      "島": 1573,
      "崎": 1574,
      "川": 1575,
      "州": 1576,
      "工": 1577,
      "巧": 1578,
      "巻": 1579,
      "市": 1580,
      "希": 1581,
      "帝": 1582,
      "幌": 1583,
      "年": 1584,
      "广": 1585,
      "庆": 1586,
      "库": 1587,
      "庙": 1588,
      "府": 1589,
      "度": 1590,
      "建": 1591,
      "开": 1592,
      "式": 1593,
      "張": 1594,
      "彭": 1595,
      "後": 1596,
      "心": 1597,
      "志": 1598,
      "忠": 1599,
      "快": 1600,
      "思": 1601,
      "怡": 1602,
      "恭": 1603,
      "情": 1604,
      "慕": 1605,
      "慧": 1606,
      "成": 1607,
      "戦": 1608,
      "户": 1609,
      "所": 1610,
      "手": 1611,
      "才": 1612,
      "扎": 1613,
      "承": 1614,
      "拉": 1615,
      "拳": 1616,
      "指": 1617,
      "放": 1618,
      "政": 1619,
      "故": 1620,
      "教": 1621,
      "断": 1622,
      "新": 1623,
      "方": 1624,
      "族": 1625,
      "旗": 1626,
      "无": 1627,
      "日": 1628,
      "旧": 1629,
      "旭": 1630,
      "时": 1631,
      "昆": 1632,
      "昌": 1633,
      "明": 1634,
      "星": 1635,
      "春": 1636,
      "時": 1637,
      "普": 1638,
      "智": 1639,
      "曆": 1640,
      "曲": 1641,
      "更": 1642,
      "月": 1643,
      "有": 1644,
      "朗": 1645,
      "朝": 1646,
      "木": 1647,
      "本": 1648,
      "札": 1649,
      "李": 1650,
      "杏": 1651,
      "材": 1652,
      "村": 1653,
      "来": 1654,
      "東": 1655,
      "极": 1656,
      "林": 1657,
      "株": 1658,
      "根": 1659,
      "桂": 1660,
      "桶": 1661,
      "械": 1662,
      "棚": 1663,
      "検": 1664,
      "楚": 1665,
      "業": 1666,
      "楼": 1667,
      "楽": 1668,
      "横": 1669,
      "樺": 1670,
      "機": 1671,
      "正": 1672,
      "武": 1673,
      "死": 1674,
      "殉": 1675,
      "殿": 1676,
      "毒": 1677,
      "比": 1678,
      "民": 1679,
      "水": 1680,
      "永": 1681,
      "汉": 1682,
      "江": 1683,
      "沃": 1684,
      "沙": 1685,
      "沢": 1686,
      "河": 1687,
      "油": 1688,
      "治": 1689,
      "泉": 1690,
      "法": 1691,
      "泰": 1692,
      "洛": 1693,
      "派": 1694,
      "流": 1695,
      "浅": 1696,
      "浜": 1697,
      "浦": 1698,
      "海": 1699,
      "液": 1700,
      "淑": 1701,
      "淘": 1702,
      "淡": 1703,
      "渓": 1704,
      "港": 1705,
      "渾": 1706,
      "湖": 1707,
      "湯": 1708,
      "準": 1709,
      "滕": 1710,
      "滨": 1711,
      "滴": 1712,
      "演": 1713,
      "漢": 1714,
      "漫": 1715,
      "澤": 1716,
      "濃": 1717,
      "灣": 1718,
      "灯": 1719,
      "焉": 1720,
      "熟": 1721,
      "爱": 1722,
      "版": 1723,
      "牙": 1724,
      "物": 1725,
      "王": 1726,
      "珍": 1727,
      "班": 1728,
      "現": 1729,
      "球": 1730,
      "理": 1731,
      "琉": 1732,
      "琛": 1733,
      "生": 1734,
      "用": 1735,
      "田": 1736,
      "由": 1737,
      "申": 1738,
      "画": 1739,
      "番": 1740,
      "畿": 1741,
      "疆": 1742,
      "癘": 1743,
      "白": 1744,
      "百": 1745,
      "皇": 1746,
      "皮": 1747,
      "直": 1748,
      "相": 1749,
      "省": 1750,
      "県": 1751,
      "瞳": 1752,
      "知": 1753,
      "短": 1754,
      "石": 1755,
      "硕": 1756,
      "碩": 1757,
      "社": 1758,
      "祝": 1759,
      "神": 1760,
      "祭": 1761,
      "福": 1762,
      "秋": 1763,
      "秒": 1764,
      "秦": 1765,
      "移": 1766,
      "稲": 1767,
      "空": 1768,
      "立": 1769,
      "章": 1770,
      "竹": 1771,
      "筑": 1772,
      "箱": 1773,
      "篪": 1774,
      "簾": 1775,
      "籠": 1776,
      "米": 1777,
      "精": 1778,
      "糸": 1779,
      "系": 1780,
      "紫": 1781,
      "經": 1782,
      "続": 1783,
      "維": 1784,
      "網": 1785,
      "総": 1786,
      "織": 1787,
      "红": 1788,
      "组": 1789,
      "经": 1790,
      "维": 1791,
      "绿": 1792,
      "网": 1793,
      "羅": 1794,
      "羊": 1795,
      "羌": 1796,
      "義": 1797,
      "羽": 1798,
      "習": 1799,
      "老": 1800,
      "考": 1801,
      "者": 1802,
      "耆": 1803,
      "聚": 1804,
      "聪": 1805,
      "聯": 1806,
      "股": 1807,
      "育": 1808,
      "胎": 1809,
      "胶": 1810,
      "能": 1811,
      "脉": 1812,
      "腦": 1813,
      "膏": 1814,
      "臣": 1815,
      "臨": 1816,
      "自": 1817,
      "臺": 1818,
      "舊": 1819,
      "舞": 1820,
      "航": 1821,
      "船": 1822,
      "良": 1823,
      "色": 1824,
      "芝": 1825,
      "苔": 1826,
      "草": 1827,
      "荷": 1828,
      "莱": 1829,
      "菠": 1830,
      "菩": 1831,
      "華": 1832,
      "萨": 1833,
      "葬": 1834,
      "蒙": 1835,
      "蓝": 1836,
      "薩": 1837,
      "薫": 1838,
      "藤": 1839,
      "蘇": 1840,
      "蘿": 1841,
      "處": 1842,
      "蛛": 1843,
      "蜇": 1844,
      "蜘": 1845,
      "蠡": 1846,
      "血": 1847,
      "行": 1848,
      "西": 1849,
      "解": 1850,
      "記": 1851,
      "診": 1852,
      "詔": 1853,
      "試": 1854,
      "話": 1855,
      "語": 1856,
      "読": 1857,
      "諸": 1858,
      "謝": 1859,
      "警": 1860,
      "记": 1861,
      "论": 1862,
      "话": 1863,
      "说": 1864,
      "谱": 1865,
      "賡": 1866,
      "财": 1867,
      "走": 1868,
      "越": 1869,
      "路": 1870,
      "車": 1871,
      "辭": 1872,
      "農": 1873,
      "近": 1874,
      "迦": 1875,
      "送": 1876,
      "通": 1877,
      "週": 1878,
      "逸": 1879,
      "遊": 1880,
      "道": 1881,
      "遠": 1882,
      "邮": 1883,
      "郎": 1884,
      "部": 1885,
      "都": 1886,
      "酒": 1887,
      "里": 1888,
      "重": 1889,
      "金": 1890,
      "針": 1891,
      "釦": 1892,
      "鈕": 1893,
      "銀": 1894,
      "銅": 1895,
      "錢": 1896,
      "鎮": 1897,
      "鏡": 1898,
      "钱": 1899,
      "铜": 1900,
      "银": 1901,
      "镇": 1902,
      "長": 1903,
      "长": 1904,
      "門": 1905,
      "開": 1906,
      "関": 1907,
      "閣": 1908,
      "關": 1909,
      "间": 1910,
      "阎": 1911,
      "阜": 1912,
      "阴": 1913,
      "阿": 1914,
      "限": 1915,
      "陕": 1916,
      "陰": 1917,
      "陽": 1918,
      "隋": 1919,
      "隸": 1920,
      "雄": 1921,
      "集": 1922,
      "雨": 1923,
      "零": 1924,
      "電": 1925,
      "震": 1926,
      "霞": 1927,
      "露": 1928,
      "青": 1929,
      "静": 1930,
      "面": 1931,
      "韩": 1932,
      "頁": 1933,
      "順": 1934,
      "顔": 1935,
      "顺": 1936,
      "館": 1937,
      "馆": 1938,
      "首": 1939,
      "香": 1940,
      "馬": 1941,
      "駐": 1942,
      "験": 1943,
      "驻": 1944,
      "骨": 1945,
      "體": 1946,
      "高": 1947,
      "魏": 1948,
      "魯": 1949,
      "鮫": 1950,
      "鲁": 1951,
      "鳥": 1952,
      "鸭": 1953,
      "黃": 1954,
      "黄": 1955,
      "齊": 1956,
      "龍": 1957,
      "龙": 1958,
      "ꠁ": 1959,
      "ꠂ": 1960,
      "ꠇ": 1961,
      "ꠈ": 1962,
      "ꠉ": 1963,
      "ꠋ": 1964,
      "ꠌ": 1965,
      "ꠍ": 1966,
      "ꠐ": 1967,
      "ꠘ": 1968,
      "ꠛ": 1969,
      "ꠝ": 1970,
      "ꠠ": 1971,
      "ꠣ": 1972,
      "ꠤ": 1973,
      "ꯁ": 1974,
      "ꯂ": 1975,
      "ꯃ": 1976,
      "ꯄ": 1977,
      "ꯅ": 1978,
      "ꯊ": 1979,
      "ꯍ": 1980,
      "ꯏ": 1981,
      "ꯕ": 1982,
      "ꯟ": 1983,
      "ꯡ": 1984,
      "ꯢ": 1985,
      "ꯣ": 1986,
      "ꯤ": 1987,
      "ꯥ": 1988,
      "": 1989,
      "": 1990,
      "": 1991,
      "": 1992,
      "": 1993,
      "": 1994,
      "": 1995,
      "": 1996,
      "": 1997,
      "": 1998,
      "": 1999,
      "": 2000,
      "": 2001,
      "": 2002,
      "": 2003,
      "": 2004,
      "": 2005,
      "": 2006,
      "": 2007,
      "": 2008,
      "": 2009,
      "": 2010,
      "": 2011,
      "": 2012,
      "": 2013,
      "": 2014,
      "": 2015,
      "": 2016,
      "": 2017,
      "": 2018,
      "": 2019,
      "": 2020,
      "": 2021,
      "": 2022,
      "": 2023,
      "": 2024,
      "": 2025,
      "": 2026,
      "": 2027,
      "": 2028,
      "": 2029,
      "": 2030,
      "": 2031,
      "": 2032,
      "": 2033,
      "": 2034,
      "": 2035,
      "": 2036,
      "": 2037,
      "": 2038,
      "": 2039,
      "": 2040,
      "": 2041,
      "": 2042,
      "": 2043,
      "": 2044,
      "": 2045,
      "": 2046,
      "": 2047,
      "": 2048,
      "": 2049,
      "": 2050,
      "": 2051,
      "": 2052,
      "": 2053,
      "": 2054,
      "": 2055,
      "": 2056,
      "": 2057,
      "": 2058,
      "": 2059,
      "": 2060,
      "": 2061,
      "": 2062,
      "": 2063,
      "": 2064,
      "": 2065,
      "": 2066,
      "": 2067,
      "": 2068,
      "": 2069,
      "": 2070,
      "": 2071,
      "ﮕ": 2072,
      "ﮨ": 2073,
      "ﮭ": 2074,
      "️": 2075,
      "ﺍ": 2076,
      "ﺎ": 2077,
      "ﺘ": 2078,
      "ﺧ": 2079,
      "ﺨ": 2080,
      "ﺮ": 2081,
      "ﺷ": 2082,
      "ﻙ": 2083,
      "ﻜ": 2084,
      "ﻟ": 2085,
      "ﻠ": 2086,
      "ﻥ": 2087,
      "ﻨ": 2088,
      "ﻮ": 2089,
      "ﻴ": 2090,
      "﻿": 2091,
      "，": 2092,
      "／": 2093,
      "：": 2094,
      "ﾠ": 2095,
      "ﾥ": 2096,
      "￸": 2097,
      "￼": 2098,
      "𐡃": 2099,
      "𐡅": 2100,
      "𐡌": 2101,
      "𐡓": 2102,
      "𐡕": 2103,
      "𝑇": 2104,
      "𝗗": 2105,
      "𝗙": 2106,
      "𝗜": 2107,
      "𝗣": 2108,
      "𝗮": 2109,
      "𝗯": 2110,
      "𝗱": 2111,
      "𝗲": 2112,
      "𝗵": 2113,
      "𝗶": 2114,
      "𝗸": 2115,
      "𝗹": 2116,
      "𝗻": 2117,
      "𝗿": 2118,
      "𝘀": 2119,
      "𝘁": 2120,
      "𝘂": 2121,
      "𝘃": 2122,
      "𝘆": 2123,
      "𝛽": 2124,
      "🇮": 2125,
      "🇳": 2126,
      "🌙": 2127,
      "🌰": 2128,
      "🌵": 2129,
      "🍅": 2130,
      "🍆": 2131,
      "🍑": 2132,
      "🎂": 2133,
      "🏻": 2134,
      "🏼": 2135,
      "🏽": 2136,
      "🏾": 2137,
      "👇": 2138,
      "👉": 2139,
      "👊": 2140,
      "👍": 2141,
      "👨": 2142,
      "💋": 2143,
      "💐": 2144,
      "💓": 2145,
      "💕": 2146,
      "💯": 2147,
      "💻": 2148,
      "💼": 2149,
      "🔶": 2150,
      "😀": 2151,
      "😂": 2152,
      "😍": 2153,
      "🙂": 2154,
      "🙏": 2155,
      "🚩": 2156,
      "🤓": 2157,
      "🤔": 2158,
      "🤗": 2159,
      "##क": 2160,
      "##्": 2161,
      "##स": 2162,
      "##ै": 2163,
      "##व": 2164,
      "##े": 2165,
      "##ट": 2166,
      "##र": 2167,
      "##b": 2168,
      "##a": 2169,
      "##r": 2170,
      "##d": 2171,
      "##n": 2172,
      "##s": 2173,
      "##c": 2174,
      "##e": 2175,
      "##t": 2176,
      "##l": 2177,
      "##y": 2178,
      "##ॉ": 2179,
      "##म": 2180,
      "##न": 2181,
      "##प": 2182,
      "##ध": 2183,
      "##ि": 2184,
      "##त": 2185,
      "##ो": 2186,
      "##ं": 2187,
      "##थ": 2188,
      "##ु": 2189,
      "##इ": 2190,
      "##i": 2191,
      "##o": 2192,
      "##ा": 2193,
      "##h": 2194,
      "##ौ": 2195,
      "##य": 2196,
      "##ल": 2197,
      "##ी": 2198,
      "##ह": 2199,
      "##ण": 2200,
      "##v": 2201,
      "##u": 2202,
      "##p": 2203,
      "##ग": 2204,
      "##m": 2205,
      "##g": 2206,
      "##ृ": 2207,
      "##द": 2208,
      "##k": 2209,
      "##f": 2210,
      "##ज": 2211,
      "##ड": 2212,
      "##श": 2213,
      "##भ": 2214,
      "##ष": 2215,
      "##ओ": 2216,
      "##‍": 2217,
      "##w": 2218,
      "##च": 2219,
      "##z": 2220,
      "##ऋ": 2221,
      "##ख": 2222,
      "##(": 2223,
      "##'": 2224,
      "##ए": 2225,
      "##घ": 2226,
      "##x": 2227,
      "##़": 2228,
      "##ू": 2229,
      "##अ": 2230,
      "##j": 2231,
      "##फ": 2232,
      "##ढ": 2233,
      "##-": 2234,
      "##ब": 2235,
      "##आ": 2236,
      "##ई": 2237,
      "##̈": 2238,
      "##औ": 2239,
      "##ः": 2240,
      "##उ": 2241,
      "##ॆ": 2242,
      "##छ": 2243,
      "##ॅ": 2244,
      "##)": 2245,
      "##q": 2246,
      "##_": 2247,
      "##|": 2248,
      "##υ": 2249,
      "##́": 2250,
      "##μ": 2251,
      "##β": 2252,
      "##α": 2253,
      "##λ": 2254,
      "##ο": 2255,
      "##ν": 2256,
      "##ऐ": 2257,
      "##ँ": 2258,
      "##ठ": 2259,
      "##/": 2260,
      "##ऊ": 2261,
      "##្": 2262,
      "##រ": 2263,
      "##ា": 2264,
      "##ស": 2265,
      "##ទ": 2266,
      "##ល": 2267,
      "##ៃ": 2268,
      "##ऑ": 2269,
      "##ॊ": 2270,
      "##ञ": 2271,
      "##:": 2272,
      "##ل": 2273,
      "##ع": 2274,
      "##ر": 2275,
      "##ب": 2276,
      "##ي": 2277,
      "##ة": 2278,
      "##‌": 2279,
      "##\"": 2280,
      "##\\": 2281,
      "##.": 2282,
      "##?": 2283,
      "##☻": 2284,
      "##झ": 2285,
      "##়": 2286,
      "##া": 2287,
      "##–": 2288,
      "##ङ": 2289,
      "##॒": 2290,
      "##ʹ": 2291,
      "##]": 2292,
      "##ا": 2293,
      "##د": 2294,
      "##ن": 2295,
      "##ج": 2296,
      "##о": 2297,
      "##л": 2298,
      "##х": 2299,
      "##з": 2300,
      "##θ": 2301,
      "##ð": 2302,
      "##ح": 2303,
      "##م": 2304,
      "##و": 2305,
      "##!": 2306,
      "##ൂ": 2307,
      "##ന": 2308,
      "##മ": 2309,
      "##്": 2310,
      "##പ": 2311,
      "##ാ": 2312,
      "##യ": 2313,
      "##ി": 2314,
      "##ക": 2315,
      "##ു": 2316,
      "##ള": 2317,
      "##ം": 2318,
      "##ळ": 2319,
      "##ه": 2320,
      "##ː": 2321,
      "##ɒ": 2322,
      "##ش": 2323,
      "##ॢ": 2324,
      "##ك": 2325,
      "##,": 2326,
      "##‡": 2327,
      "##̛": 2328,
      "##̀": 2329,
      "##ʻ": 2330,
      "##ন": 2331,
      "##ই": 2332,
      "##̧": 2333,
      "##ə": 2334,
      "##ʊ": 2335,
      "##ˈ": 2336,
      "##ɪ": 2337,
      "##್": 2338,
      "##ಯ": 2339,
      "##ಾ": 2340,
      "##ಂ": 2341,
      "##ಕ": 2342,
      "##>": 2343,
      "##ऍ": 2344,
      "##%": 2345,
      "##̌": 2346,
      "##റ": 2347,
      "##霞": 2348,
      "##渓": 2349,
      "##’": 2350,
      "##ε": 2351,
      "##ι": 2352,
      "##σ": 2353,
      "##τ": 2354,
      "##ω": 2355,
      "##[": 2356,
      "##+": 2357,
      "##ی": 2358,
      "##ʼ": 2359,
      "##ق": 2360,
      "##ٓ": 2361,
      "##ര": 2362,
      "##സ": 2363,
      "##—": 2364,
      "##॑": 2365,
      "##ɾ": 2366,
      "##ɐ": 2367,
      "##η": 2368,
      "##ς": 2369,
      "##॔": 2370,
      "##智": 2371,
      "##如": 2372,
      "##来": 2373,
      "##॓": 2374,
      "##ف": 2375,
      "##س": 2376,
      "##‘": 2377,
      "##": 2378,
      "##": 2379,
      "##": 2380,
      "##ॄ": 2381,
      "##ہ": 2382,
      "##দ": 2383,
      "##<": 2384,
      "##и": 2385,
      "##р": 2386,
      "##у": 2387,
      "##г": 2388,
      "##а": 2389,
      "##ʁ": 2390,
      "##ɑ": 2391,
      "##̃": 2392,
      "##ُ": 2393,
      "##ّ": 2394,
      "##வ": 2395,
      "##ு": 2396,
      "##ன": 2397,
      "##்": 2398,
      "##ɵ": 2399,
      "##ʉ": 2400,
      "##$": 2401,
      "###": 2402,
      "##ت": 2403,
      "##̂": 2404,
      "##ি": 2405,
      "##হ": 2406,
      "##ה": 2407,
      "##א": 2408,
      "##ו": 2409,
      "##נ": 2410,
      "##י": 2411,
      "##ב": 2412,
      "##ר": 2413,
      "##ס": 2414,
      "##ט": 2415,
      "##خ": 2416,
      "##ങ": 2417,
      "##ऽ": 2418,
      "##由": 2419,
      "##民": 2420,
      "##主": 2421,
      "##党": 2422,
      "##̄": 2423,
      "##下": 2424,
      "##长": 2425,
      "##城": 2426,
      "##»": 2427,
      "##ল": 2428,
      "##ற": 2429,
      "##க": 2430,
      "##ல": 2431,
      "##ா": 2432,
      "##ம": 2433,
      "##ρ": 2434,
      "##~": 2435,
      "##δ": 2436,
      "##φ": 2437,
      "##ු": 2438,
      "##ම": 2439,
      "##ර": 2440,
      "##ਂ": 2441,
      "##ਡ": 2442,
      "##ੀ": 2443,
      "##ۇ": 2444,
      "##پ": 2445,
      "##ె": 2446,
      "##డ": 2447,
      "##్": 2448,
      "##చ": 2449,
      "##ల": 2450,
      "##ও": 2451,
      "##য": 2452,
      "##ম": 2453,
      "##ী": 2454,
      "##প": 2455,
      "##ু": 2456,
      "##র": 2457,
      "##ں": 2458,
      "##杏": 2459,
      "##谱": 2460,
      "##ı": 2461,
      "##ঙ": 2462,
      "##্": 2463,
      "##গ": 2464,
      "##ে": 2465,
      "##শ": 2466,
      "##ە": 2467,
      "##ێ": 2468,
      "##河": 2469,
      "##‎": 2470,
      "##…": 2471,
      "##।": 2472,
      "##̣": 2473,
      "##̊": 2474,
      "##南": 2475,
      "##}": 2476,
      "##ᛀ": 2477,
      "##γ": 2478,
      "##ະ": 2479,
      "##ຄ": 2480,
      "##ອ": 2481,
      "##ນ": 2482,
      "##ຫ": 2483,
      "##ຼ": 2484,
      "##ວ": 2485,
      "##ງ": 2486,
      "##ל": 2487,
      "##ע": 2488,
      "##事": 2489,
      "##ำ": 2490,
      "##ก": 2491,
      "##ั": 2492,
      "##ด": 2493,
      "##ש": 2494,
      "##ز": 2495,
      "##”": 2496,
      "##͂": 2497,
      "##海": 2498,
      "##ھ": 2499,
      "##ⵇ": 2500,
      "##ⴰ": 2501,
      "##ⵕ": 2502,
      "##ⵡ": 2503,
      "##ⵉ": 2504,
      "##ⵢ": 2505,
      "##ⵏ": 2506,
      "##ٔ": 2507,
      "##ک": 2508,
      "##ⵛ": 2509,
      "##ⵍ": 2510,
      "##ɹ": 2511,
      "##ʃ": 2512,
      "##き": 2513,
      "##寿": 2514,
      "##司": 2515,
      "##*": 2516,
      "##方": 2517,
      "##ض": 2518,
      "##ظ": 2519,
      "##田": 2520,
      "##چ": 2521,
      "##ਈ": 2522,
      "##ৰ": 2523,
      "##צ": 2524,
      "##ﾥ": 2525,
      "##↑": 2526,
      "##¶": 2527,
      "##π": 2528,
      "##̋": 2529,
      "##直": 2530,
      "##隸": 2531,
      "##灣": 2532,
      "##ి": 2533,
      "##ఘ": 2534,
      "##ం": 2535,
      "##ట": 2536,
      "##ు": 2537,
      "##వ": 2538,
      "##ሔ": 2539,
      "##ረ": 2540,
      "##ሰ": 2541,
      "##ቦ": 2542,
      "##ች": 2543,
      "##ና": 2544,
      "##ষ": 2545,
      "##ɛ": 2546,
      "##̨": 2547,
      "##ો": 2548,
      "##ᅡ": 2549,
      "##ᆷ": 2550,
      "##ᄉ": 2551,
      "##ᅥ": 2552,
      "##ᆼ": 2553,
      "##ɣ": 2554,
      "##ല": 2555,
      "##ੰ": 2556,
      "##ਜ": 2557,
      "##ਾ": 2558,
      "##ਬ": 2559,
      "##්": 2560,
      "##ප": 2561,
      "##ා": 2562,
      "##ত": 2563,
      "##খ": 2564,
      "##̆": 2565,
      "##岡": 2566,
      "##ਿ": 2567,
      "##ਆ": 2568,
      "##ਸ": 2569,
      "##т": 2570,
      "##б": 2571,
      "##ા": 2572,
      "##ં": 2573,
      "##બ": 2574,
      "##ુ": 2575,
      "##ડ": 2576,
      "##ှ": 2577,
      "##မ": 2578,
      "##်": 2579,
      "##း": 2580,
      "##ရ": 2581,
      "##ိ": 2582,
      "##ု": 2583,
      "##ְ": 2584,
      "##ח": 2585,
      "##ֹ": 2586,
      "##ז": 2587,
      "##ת": 2588,
      "##ி": 2589,
      "##ழ": 2590,
      "##ऎ": 2591,
      "##ٹ": 2592,
      "##า": 2593,
      "##ช": 2594,
      "##ว": 2595,
      "##ร": 2596,
      "##ม": 2597,
      "##ห": 2598,
      "##ิ": 2599,
      "##鳥": 2600,
      "##羽": 2601,
      "##天": 2602,
      "##皇": 2603,
      "##`": 2604,
      "##ټ": 2605,
      "##ى": 2606,
      "##ട": 2607,
      "##þ": 2608,
      "##ক": 2609,
      "##ং": 2610,
      "##ব": 2611,
      "##ы": 2612,
      "##н": 2613,
      "##ա": 2614,
      "##ճ": 2615,
      "##ր": 2616,
      "##ர": 2617,
      "##ப": 2618,
      "##ே": 2619,
      "##ʒ": 2620,
      "##=": 2621,
      "##к": 2622,
      "##ી": 2623,
      "##વ": 2624,
      "##ન": 2625,
      "##æ": 2626,
      "##ท": 2627,
      "##ß": 2628,
      "##白": 2629,
      "##い": 2630,
      "##ත": 2631,
      "##ต": 2632,
      "##้": 2633,
      "##่": 2634,
      "##เ": 2635,
      "##ย": 2636,
      "##็": 2637,
      "##น": 2638,
      "##ֺ": 2639,
      "##ˤ": 2640,
      "##ଉ": 2641,
      "##ଳ": 2642,
      "##ି": 2643,
      "##ଗ": 2644,
      "##ର": 2645,
      "##ง": 2646,
      "##ུ": 2647,
      "##ལ": 2648,
      "##ਵ": 2649,
      "##ਲ": 2650,
      "##州": 2651,
      "##京": 2652,
      "##維": 2653,
      "##新": 2654,
      "##政": 2655,
      "##府": 2656,
      "##ܘ": 2657,
      "##ܚ": 2658,
      "##ܢ": 2659,
      "##ۍ": 2660,
      "##ˌ": 2661,
      "##ద": 2662,
      "##ప": 2663,
      "##&": 2664,
      "##ŋ": 2665,
      "##̪": 2666,
      "##﻿": 2667,
      "##​": 2668,
      "##ড": 2669,
      "##·": 2670,
      "##е": 2671,
      "##в": 2672,
      "##ർ": 2673,
      "##گ": 2674,
      "##ந": 2675,
      "##த": 2676,
      "##ட": 2677,
      "##ை": 2678,
      "##“": 2679,
      "##̍": 2680,
      "##ా": 2681,
      "##ర": 2682,
      "##య": 2683,
      "##ణ": 2684,
      "##м": 2685,
      "##с": 2686,
      "##ɔ": 2687,
      "##ෙ": 2688,
      "##ල": 2689,
      "##ව": 2690,
      "##骨": 2691,
      "##્": 2692,
      "##ર": 2693,
      "##మ": 2694,
      "##ీ": 2695,
      "##{": 2696,
      "##ਤ": 2697,
      "##ਨ": 2698,
      "##ю": 2699,
      "##˚": 2700,
      "##年": 2701,
      "##ш": 2702,
      "##ɨ": 2703,
      "##ン": 2704,
      "##­": 2705,
      "##ய": 2706,
      "##ள": 2707,
      "##ᑭ": 2708,
      "##ᖅ": 2709,
      "##ᑖ": 2710,
      "##ᓗ": 2711,
      "##ᒃ": 2712,
      "##ங": 2713,
      "##ܕ": 2714,
      "##ೆ": 2715,
      "##ೖ": 2716,
      "##ಸ": 2717,
      "##ೂ": 2718,
      "##ರ": 2719,
      "##ು": 2720,
      "##я": 2721,
      "##ٕ": 2722,
      "##ͅ": 2723,
      "##切": 2724,
      "##り": 2725,
      "##子": 2726,
      "##兵": 2727,
      "##法": 2728,
      "##ø": 2729,
      "##َ": 2730,
      "##ٰ": 2731,
      "##ь": 2732,
      "##ث": 2733,
      "##所": 2734,
      "##走": 2735,
      "##湖": 2736,
      "##ِ": 2737,
      "##±": 2738,
      "##江": 2739,
      "##ң": 2740,
      "##顔": 2741,
      "##姫": 2742,
      "##￼": 2743,
      "##ਗ": 2744,
      "##ੁ": 2745,
      "##ਰ": 2746,
      "##਼": 2747,
      "##ุ": 2748,
      "##ษ": 2749,
      "##ฎ": 2750,
      "##์": 2751,
      "##ธ": 2752,
      "##ี": 2753,
      "##蜇": 2754,
      "##ډ": 2755,
      "##™": 2756,
      "##ڑ": 2757,
      "##п": 2758,
      "##历": 2759,
      "##ஜ": 2760,
      "##ঁ": 2761,
      "##က": 2762,
      "##္": 2763,
      "##д": 2764,
      "##ဖ": 2765,
      "##ွ": 2766,
      "##ဲ": 2767,
      "##့": 2768,
      "##ూ": 2769,
      "##జ": 2770,
      "##ৱ": 2771,
      "##山": 2772,
      "##ീ": 2773,
      "##˙": 2774,
      "##ধ": 2775,
      "##ڪ": 2776,
      "##̓": 2777,
      "##ж": 2778,
      "##賡": 2779,
      "##ང": 2780,
      "##ౖ": 2781,
      "##బ": 2782,
      "##κ": 2783,
      "##ә": 2784,
      "##җ": 2785,
      "##字": 2786,
      "##体": 2787,
      "##ာ": 2788,
      "##ခ": 2789,
      "##ျ": 2790,
      "##ပ": 2791,
      "##ɡ": 2792,
      "##汉": 2793,
      "##ـ": 2794,
      "##ണ": 2795,
      "##േ": 2796,
      "##ط": 2797,
      "##ຽ": 2798,
      "##ຈ": 2799,
      "##ັ": 2800,
      "##班": 2801,
      "##經": 2802,
      "##ܪ": 2803,
      "##ܒ": 2804,
      "##ܝ": 2805,
      "##ܠ": 2806,
      "##қ": 2807,
      "##ק": 2808,
      "##¿": 2809,
      "##ေ": 2810,
      "##ယ": 2811,
      "##တ": 2812,
      "##င": 2813,
      "##ြ": 2814,
      "##̇": 2815,
      "##路": 2816,
      "##ট": 2817,
      "##葬": 2818,
      "##ণ": 2819,
      "##ذ": 2820,
      "##工": 2821,
      "##記": 2822,
      "##ɕ": 2823,
      "##ʰ": 2824,
      "##度": 2825,
      "##驻": 2826,
      "##华": 2827,
      "##大": 2828,
      "##使": 2829,
      "##馆": 2830,
      "##゙": 2831,
      "##シ": 2832,
      "##モ": 2833,
      "##э": 2834,
      "##に": 2835,
      "##一": 2836,
      "##人": 2837,
      "##の": 2838,
      "##逸": 2839,
      "##材": 2840,
      "##さ": 2841,
      "##ん": 2842,
      "##@": 2843,
      "##ם": 2844,
      "##‏": 2845,
      "##本": 2846,
      "##漢": 2847,
      "##能": 2848,
      "##力": 2849,
      "##検": 2850,
      "##定": 2851,
      "##試": 2852,
      "##験": 2853,
      "##জ": 2854,
      "##ˊ": 2855,
      "##פ": 2856,
      "##川": 2857,
      "##原": 2858,
      "##ْ": 2859,
      "##ⴼ": 2860,
      "##ண": 2861,
      "##แ": 2862,
      "##ภ": 2863,
      "##ู": 2864,
      "##ื": 2865,
      "##อ": 2866,
      "##𝗲": 2867,
      "##𝗯": 2868,
      "##𝗿": 2869,
      "##𝘂": 2870,
      "##𝗮": 2871,
      "##𝘆": 2872,
      "##ן": 2873,
      "##χ": 2874,
      "##市": 2875,
      "##家": 2876,
      "##拳": 2877,
      "##×": 2878,
      "##話": 2879,
      "##股": 2880,
      "##开": 2881,
      "##户": 2882,
      "##´": 2883,
      "##ਦ": 2884,
      "##籠": 2885,
      "##ॽ": 2886,
      "##̱": 2887,
      "##ત": 2888,
      "##і": 2889,
      "##硕": 2890,
      "##♫": 2891,
      "##者": 2892,
      "##エ": 2893,
      "##ス": 2894,
      "##フ": 2895,
      "##゚": 2896,
      "##リ": 2897,
      "##ৃ": 2898,
      "##ł": 2899,
      "##€": 2900,
      "##ص": 2901,
      "##帝": 2902,
      "##מ": 2903,
      "##ד": 2904,
      "##畿": 2905,
      "##塘": 2906,
      "##航": 2907,
      "##ᱚ": 2908,
      "##ᱱ": 2909,
      "##ᱛ": 2910,
      "##銀": 2911,
      "##行": 2912,
      "##堀": 2913,
      "##^": 2914,
      "##غ": 2915,
      "##স": 2916,
      "##国": 2917,
      "##വ": 2918,
      "##𝗹": 2919,
      "##𝗵": 2920,
      "##𝗶": 2921,
      "##۠": 2922,
      "##บ": 2923,
      "##ณ": 2924,
      "##ª": 2925,
      "##ॐ": 2926,
      "##→": 2927,
      "##羅": 2928,
      "##菩": 2929,
      "##薩": 2930,
      "##沃": 2931,
      "##移": 2932,
      "##动": 2933,
      "##通": 2934,
      "##信": 2935,
      "##有": 2936,
      "##限": 2937,
      "##公": 2938,
      "##ผ": 2939,
      "##̔": 2940,
      "##హ": 2941,
      "##ꠣ": 2942,
      "##ꠐ": 2943,
      "##ꠘ": 2944,
      "##ꠤ": 2945,
      "##ྩ": 2946,
      "##ེ": 2947,
      "##曆": 2948,
      "##ے": 2949,
      "##મ": 2950,
      "##💐": 2951,
      "##": 2952,
      "##龙": 2953,
      "##岗": 2954,
      "##港": 2955,
      "##口": 2956,
      "##ψ": 2957,
      "##ᡳ": 2958,
      "##᠍": 2959,
      "##ᡵ": 2960,
      "##᠌": 2961,
      "##ᠨ": 2962,
      "##ڈ": 2963,
      "##͘": 2964,
      "##ᓇ": 2965,
      "##ᑦ": 2966,
      "##ᓯ": 2967,
      "##ᐊ": 2968,
      "##桶": 2969,
      "##読": 2970,
      "##み": 2971,
      "##小": 2972,
      "##龍": 2973,
      "##ɫ": 2974,
      "##ഹ": 2975,
      "##王": 2976,
      "##開": 2977,
      "##ତ": 2978,
      "##ା": 2979,
      "##ే": 2980,
      "##క": 2981,
      "##ొ": 2982,
      "##ո": 2983,
      "##հ": 2984,
      "##ե": 2985,
      "##ի": 2986,
      "##魯": 2987,
      "##番": 2988,
      "##♦": 2989,
      "##仏": 2990,
      "##殿": 2991,
      "##村": 2992,
      "##𝘀": 2993,
      "##ృ": 2994,
      "##ష": 2995,
      "##̉": 2996,
      "##ऒ": 2997,
      "##ء": 2998,
      "##থ": 2999,
      "##ੂ": 3000,
      "##動": 3001,
      "##画": 3002,
      "##は": 3003,
      "##こ": 3004,
      "##ち": 3005,
      "##ら": 3006,
      "##ᱟ": 3007,
      "##ᱹ": 3008,
      "##ᱨ": 3009,
      "##ᱭ": 3010,
      "##ᱠ": 3011,
      "##ᱮ": 3012,
      "##ᱞ": 3013,
      "##ധ": 3014,
      "##గ": 3015,
      "##钱": 3016,
      "##ྱ": 3017,
      "##ц": 3018,
      "##ʲ": 3019,
      "##ળ": 3020,
      "##ે": 3021,
      "##巧": 3022,
      "##奠": 3023,
      "##ੱ": 3024,
      "##ਘ": 3025,
      "##আ": 3026,
      "##ヶ": 3027,
      "##浦": 3028,
      "##ි": 3029,
      "##ය": 3030,
      "##经": 3031,
      "##¥": 3032,
      "##ਫ": 3033,
      "##ੋ": 3034,
      "##ཚ": 3035,
      "##ོ": 3036,
      "##ζ": 3037,
      "##ʌ": 3038,
      "##̯": 3039,
      "##蘇": 3040,
      "##安": 3041,
      "##つ": 3042,
      "##ξ": 3043,
      "##ഷ": 3044,
      "##ത": 3045,
      "##": 3046,
      "##": 3047,
      "##": 3048,
      "##͡": 3049,
      "##朝": 3050,
      "##ч": 3051,
      "##ಣ": 3052,
      "##ൈ": 3053,
      "##̠": 3054,
      "##郎": 3055,
      "##手": 3056,
      "##滴": 3057,
      "##血": 3058,
      "##": 3059,
      "##⌊": 3060,
      "##ୂ": 3061,
      "##ଜ": 3062,
      "##ꠝ": 3063,
      "##箱": 3064,
      "##॥": 3065,
      "##北": 3066,
      "##ਟ": 3067,
      "##ੇ": 3068,
      "##ਅ": 3069,
      "##ਮ": 3070,
      "##士": 3071,
      "##ফ": 3072,
      "##↔": 3073,
      "##ข": 3074,
      "##ф": 3075,
      "##ڭ": 3076,
      "##ബ": 3077,
      "##功": 3078,
      "##կ": 3079,
      "##ն": 3080,
      "##ց": 3081,
      "##ւ": 3082,
      "##බ": 3083,
      "##න": 3084,
      "##ට": 3085,
      "##ﾠ": 3086,
      "##ላ": 3087,
      "##ሪ": 3088,
      "##ગ": 3089,
      "##િ": 3090,
      "##ય": 3091,
      "##ഗ": 3092,
      "##相": 3093,
      "##織": 3094,
      "##碩": 3095,
      "##ਪ": 3096,
      "##ছ": 3097,
      "##ᆫ": 3098,
      "##ᄎ": 3099,
      "##ะ": 3100,
      "##̮": 3101,
      "##金": 3102,
      "##圓": 3103,
      "##੍": 3104,
      "##ெ": 3105,
      "##ᆸ": 3106,
      "##ᄅ": 3107,
      "##ᅩ": 3108,
      "##ᆨ": 3109,
      "##ᄀ": 3110,
      "##岛": 3111,
      "##ָ": 3112,
      "##ׁ": 3113,
      "##佐": 3114,
      "##比": 3115,
      "##ഥ": 3116,
      "##÷": 3117,
      "##名": 3118,
      "##ү": 3119,
      "##ઈ": 3120,
      "##ః": 3121,
      "##式": 3122,
      "##会": 3123,
      "##社": 3124,
      "##東": 3125,
      "##芝": 3126,
      "##尔": 3127,
      "##羌": 3128,
      "##ʈ": 3129,
      "##ʋ": 3130,
      "##ɽ": 3131,
      "##ᅳ": 3132,
      "##ᄐ": 3133,
      "##ᄋ": 3134,
      "##চ": 3135,
      "##ʾ": 3136,
      "##ঃ": 3137,
      "##": 3138,
      "##侠": 3139,
      "##说": 3140,
      "##道": 3141,
      "##県": 3142,
      "##部": 3143,
      "##ไ": 3144,
      "##ச": 3145,
      "##ⵎ": 3146,
      "##ⵔ": 3147,
      "##ⴱ": 3148,
      "##ⴹ": 3149,
      "##警": 3150,
      "##務": 3151,
      "##處": 3152,
      "##ಳ": 3153,
      "##ಿ": 3154,
      "##ಗ": 3155,
      "##ঞ": 3156,
      "##萨": 3157,
      "##关": 3158,
      "##庙": 3159,
      "##כ": 3160,
      "##ʎ": 3161,
      "##🏼": 3162,
      "##ᅯ": 3163,
      "##શ": 3164,
      "##ᄂ": 3165,
      "##ං": 3166,
      "##හ": 3167,
      "##ૂ": 3168,
      "##લ": 3169,
      "##ө": 3170,
      "##մ": 3171,
      "##െ": 3172,
      "##న": 3173,
      "##త": 3174,
      "##ॣ": 3175,
      "##−": 3176,
      "##େ": 3177,
      "##ଟ": 3178,
      "##પ": 3179,
      "##林": 3180,
      "##🇳": 3181,
      "##👉": 3182,
      "##遊": 3183,
      "##ൾ": 3184,
      "##ʝ": 3185,
      "##韩": 3186,
      "##針": 3187,
      "##ശ": 3188,
      "##濃": 3189,
      "##西": 3190,
      "##☀": 3191,
      "##順": 3192,
      "##ঘ": 3193,
      "##思": 3194,
      "##出": 3195,
      "##版": 3196,
      "##ژ": 3197,
      "##楼": 3198,
      "##ூ": 3199,
      "##ɯ": 3200,
      "##冊": 3201,
      "##竹": 3202,
      "##°": 3203,
      "##ீ": 3204,
      "##ੜ": 3205,
      "##এ": 3206,
      "##և": 3207,
      "##疆": 3208,
      "##¬": 3209,
      "##ൽ": 3210,
      "##ښ": 3211,
      "##ਚ": 3212,
      "##ൃ": 3213,
      "##լ": 3214,
      "##ਕ": 3215,
      "##精": 3216,
      "##ᱷ": 3217,
      "##ᱥ": 3218,
      "##ᱶ": 3219,
      "##ྷ": 3220,
      "##స": 3221,
      "##ꯥ": 3222,
      "##ꯟ": 3223,
      "##ꯊ": 3224,
      "##ꯣ": 3225,
      "##ꯢ": 3226,
      "##ꯕ": 3227,
      "##ꯤ": 3228,
      "##理": 3229,
      "##チ": 3230,
      "##ョ": 3231,
      "##コ": 3232,
      "##ദ": 3233,
      "##ค": 3234,
      "##中": 3235,
      "##💕": 3236,
      "##ည": 3237,
      "##န": 3238,
      "##ટ": 3239,
      "##ણ": 3240,
      "##દ": 3241,
      "##რ": 3242,
      "##ე": 3243,
      "##ზ": 3244,
      "##ი": 3245,
      "##დ": 3246,
      "##ნ": 3247,
      "##ტ": 3248,
      "##ਹ": 3249,
      "##һ": 3250,
      "##ʿ": 3251,
      "##浜": 3252,
      "##ಮ": 3253,
      "##ಟ": 3254,
      "##ಡ": 3255,
      "##𝗸": 3256,
      "##𝘁": 3257,
      "##𝗻": 3258,
      "##淘": 3259,
      "##沙": 3260,
      "##័": 3261,
      "##យ": 3262,
      "##ᱵ": 3263,
      "##ᱫ": 3264,
      "##ᱽ": 3265,
      "##體": 3266,
      "##創": 3267,
      "##毒": 3268,
      "##七": 3269,
      "##日": 3270,
      "##ꯏ": 3271,
      "##ꯅ": 3272,
      "##ꯡ": 3273,
      "##ې": 3274,
      "##ܟ": 3275,
      "##ܐ": 3276,
      "##ʂ": 3277,
      "##ս": 3278,
      "##區": 3279,
      "##ꠁ": 3280,
      "##ꠋ": 3281,
      "##ꠉ": 3282,
      "##ꠂ": 3283,
      "##代": 3284,
      "##自": 3285,
      "##車": 3286,
      "##≥": 3287,
      "##辭": 3288,
      "##₹": 3289,
      "##જ": 3290,
      "##🏻": 3291,
      "##ැ": 3292,
      "##ද": 3293,
      "##⁠": 3294,
      "##放": 3295,
      "##送": 3296,
      "##協": 3297,
      "##イ": 3298,
      "##株": 3299,
      "##ᠠ": 3300,
      "##ᠩ": 3301,
      "##ູ": 3302,
      "##ເ": 3303,
      "##ບ": 3304,
      "##້": 3305,
      "##ຍ": 3306,
      "##昌": 3307,
      "##": 3308,
      "##た": 3309,
      "##ま": 3310,
      "##ዝ": 3311,
      "##ਊ": 3312,
      "##ਥ": 3313,
      "##内": 3314,
      "##⏎": 3315,
      "##œ": 3316,
      "##共": 3317,
      "##和": 3318,
      "##陽": 3319,
      "##耆": 3320,
      "##ګ": 3321,
      "##ജ": 3322,
      "##ਣ": 3323,
      "##ূ": 3324,
      "##̩": 3325,
      "##世": 3326,
      "##章": 3327,
      "##ණ": 3328,
      "##ෑ": 3329,
      "##ග": 3330,
      "##♪": 3331,
      "##ᵊ": 3332,
      "##ោ": 3333,
      "##ऌ": 3334,
      "##ナ": 3335,
      "##キ": 3336,
      "##ュ": 3337,
      "##ラ": 3338,
      "##続": 3339,
      "##ใ": 3340,
      "##ญ": 3341,
      "##§": 3342,
      "##ɲ": 3343,
      "##ー": 3344,
      "##診": 3345,
      "##ྫ": 3346,
      "##ϸ": 3347,
      "##ঝ": 3348,
      "##ਖ": 3349,
      "##થ": 3350,
      "##☺": 3351,
      "##ⁿ": 3352,
      "##ᅮ": 3353,
      "##ಲ": 3354,
      "##ಪ": 3355,
      "##ತ": 3356,
      "##👨": 3357,
      "##ล": 3358,
      "##る": 3359,
      "##島": 3360,
      "##神": 3361,
      "##羊": 3362,
      "##快": 3363,
      "##乐": 3364,
      "##འ": 3365,
      "##レ": 3366,
      "##º": 3367,
      "##崎": 3368,
      "##宮": 3369,
      "##祭": 3370,
      "##ហ": 3371,
      "##េ": 3372,
      "##ន": 3373,
      "##ប": 3374,
      "##វ": 3375,
      "##៌": 3376,
      "##ត": 3377,
      "##ﻴ": 3378,
      "##ﺨ": 3379,
      "##ﻮ": 3380,
      "##ﻥ": 3381,
      "##断": 3382,
      "##脉": 3383,
      "##ڌ": 3384,
      "##ੌ": 3385,
      "##շ": 3386,
      "##տ": 3387,
      "##ᱦ": 3388,
      "##ᱜ": 3389,
      "##ᱸ": 3390,
      "##ᱡ": 3391,
      "##語": 3392,
      "##ᅦ": 3393,
      "##ᅪ": 3394,
      "##ధ": 3395,
      "##宁": 3396,
      "##寺": 3397,
      "##🚩": 3398,
      "##情": 3399,
      "##备": 3400,
      "##胎": 3401,
      "##ᵝ": 3402,
      "##̞": 3403,
      "##•": 3404,
      "##ഭ": 3405,
      "##щ": 3406,
      "##": 3407,
      "##": 3408,
      "##≡": 3409,
      "##ғ": 3410,
      "##タ": 3411,
      "##蘿": 3412,
      "##菠": 3413,
      "##包": 3414,
      "##ନ": 3415,
      "##ଝ": 3416,
      "##ଲ": 3417,
      "##仮": 3418,
      "##ᄒ": 3419,
      "##ᅢ": 3420,
      "##ᱺ": 3421,
      "##ᱪ": 3422,
      "##ᱤ": 3423,
      "##明": 3424,
      "##ʀ": 3425,
      "##လ": 3426,
      "##ဒ": 3427,
      "##သ": 3428,
      "##ီ": 3429,
      "##©": 3430,
      "##ॠ": 3431,
      "##ა": 3432,
      "##ქ": 3433,
      "##თ": 3434,
      "##ვ": 3435,
      "##ლ": 3436,
      "##ო": 3437,
      "##ს": 3438,
      "##县": 3439,
      "##ҷ": 3440,
      "##ถ": 3441,
      "##ះ": 3442,
      "##皮": 3443,
      "##聚": 3444,
      "##慧": 3445,
      "##ڙ": 3446,
      "##露": 3447,
      "##戦": 3448,
      "##争": 3449,
      "##®": 3450,
      "##ঠ": 3451,
      "##အ": 3452,
      "##ʏ": 3453,
      "##駐": 3454,
      "##華": 3455,
      "##館": 3456,
      "##油": 3457,
      "##ッ": 3458,
      "##す": 3459,
      "##ۃ": 3460,
      "##ג": 3461,
      "##ೕ": 3462,
      "##苔": 3463,
      "##巻": 3464,
      "##હ": 3465,
      "##સ": 3466,
      "##东": 3467,
      "##半": 3468,
      "##浅": 3469,
      "##草": 3470,
      "##ഠ": 3471,
      "##■": 3472,
      "##春": 3473,
      "##紫": 3474,
      "##ﺘ": 3475,
      "##ﮭ": 3476,
      "##ﻠ": 3477,
      "##ﻨ": 3478,
      "##ﮕ": 3479,
      "##し": 3480,
      "##≈": 3481,
      "##洛": 3482,
      "##ᠯ": 3483,
      "##ɜ": 3484,
      "##≤": 3485,
      "##永": 3486,
      "##庆": 3487,
      "##າ": 3488,
      "##ດ": 3489,
      "##旗": 3490,
      "##國": 3491,
      "##∆": 3492,
      "##ઠ": 3493,
      "##ভ": 3494,
      "##越": 3495,
      "##义": 3496,
      "##珍": 3497,
      "##顺": 3498,
      "##夕": 3499,
      "##雨": 3500,
      "##諸": 3501,
      "##ˠ": 3502,
      "##భ": 3503,
      "##❤": 3504,
      "##💋": 3505,
      "##√": 3506,
      "##ৗ": 3507,
      "##ഴ": 3508,
      "##ସ": 3509,
      "##୍": 3510,
      "##ֵ": 3511,
      "##喜": 3512,
      "##发": 3513,
      "##财": 3514,
      "##ച": 3515,
      "##ಜ": 3516,
      "##ଡ": 3517,
      "##଼": 3518,
      "##ଆ": 3519,
      "##☫": 3520,
      "##ク": 3521,
      "##保": 3522,
      "##ྭ": 3523,
      "##ག": 3524,
      "##ས": 3525,
      "##扎": 3526,
      "##棚": 3527,
      "##💓": 3528,
      "##ᡠ": 3529,
      "##☃": 3530,
      "##蠡": 3531,
      "##澤": 3532,
      "##ᅨ": 3533,
      "##ᄆ": 3534,
      "##ᆯ": 3535,
      "##ᅵ": 3536,
      "##ᄌ": 3537,
      "##թ": 3538,
      "##յ": 3539,
      "##ਏ": 3540,
      "##ִ": 3541,
      "##ಚ": 3542,
      "##ሮ": 3543,
      "##ሚ": 3544,
      "##ያ": 3545,
      "##荷": 3546,
      "##ൻ": 3547,
      "##台": 3548,
      "##ਉ": 3549,
      "##ェ": 3550,
      "##テ": 3551,
      "##ヒ": 3552,
      "##ト": 3553,
      "##滨": 3554,
      "##聯": 3555,
      "##合": 3556,
      "##準": 3557,
      "##備": 3558,
      "##ቡ": 3559,
      "##ብ": 3560,
      "##都": 3561,
      "##ৈ": 3562,
      "##秋": 3563,
      "##时": 3564,
      "##ヨ": 3565,
      "##水": 3566,
      "##鏡": 3567,
      "##": 3568,
      "##ˆ": 3569,
      "##॰": 3570,
      "##ڠ": 3571,
      "##ڬ": 3572,
      "##ક": 3573,
      "##ૃ": 3574,
      "##ི": 3575,
      "##མ": 3576,
      "##ူ": 3577,
      "##ඩ": 3578,
      "##ྲ": 3579,
      "##ަ": 3580,
      "##ހ": 3581,
      "##ލ": 3582,
      "##ް": 3583,
      "##അ": 3584,
      "##サ": 3585,
      "##ロ": 3586,
      "##ヘ": 3587,
      "##ィ": 3588,
      "##ア": 3589,
      "##十": 3590,
      "##四": 3591,
      "##瞳": 3592,
      "##ನ": 3593,
      "##ජ": 3594,
      "##ʔ": 3595,
      "##閣": 3596,
      "##総": 3597,
      "##臣": 3598,
      "##โ": 3599,
      "##绿": 3600,
      "##ַ": 3601,
      "##ּ": 3602,
      "##ង": 3603,
      "##គ": 3604,
      "##ଦ": 3605,
      "##ପ": 3606,
      "##ⵣ": 3607,
      "##ⵖ": 3608,
      "##幌": 3609,
      "##ᅴ": 3610,
      "##ਧ": 3611,
      "##才": 3612,
      "##忠": 3613,
      "##琛": 3614,
      "##星": 3615,
      "##ഘ": 3616,
      "##殉": 3617,
      "##●": 3618,
      "##ದ": 3619,
      "##牙": 3620,
      "##泉": 3621,
      "##球": 3622,
      "##色": 3623,
      "##⇔": 3624,
      "##█": 3625,
      "##育": 3626,
      "##ֶ": 3627,
      "##🏾": 3628,
      "##µ": 3629,
      "##液": 3630,
      "##พ": 3631,
      "##ј": 3632,
      "##უ": 3633,
      "##ル": 3634,
      "##錢": 3635,
      "##ٌ": 3636,
      "##ଶ": 3637,
      "##ղ": 3638,
      "##ռ": 3639,
      "##ഞ": 3640,
      "##话": 3641,
      "##ˇ": 3642,
      "##叉": 3643,
      "##ծ": 3644,
      "##ྐ": 3645,
      "##ད": 3646,
      "##族": 3647,
      "##ྔ": 3648,
      "##ན": 3649,
      "##ꠍ": 3650,
      "##ꠠ": 3651,
      "##械": 3652,
      "##∞": 3653,
      "##ී": 3654,
      "##ઃ": 3655,
      "##ͧ": 3656,
      "##ྒ": 3657,
      "##բ": 3658,
      "##£": 3659,
      "##物": 3660,
      "##蛛": 3661,
      "##用": 3662,
      "##太": 3663,
      "##ੈ": 3664,
      "##ʟ": 3665,
      "##ᴇ": 3666,
      "##ᴀ": 3667,
      "##ᅧ": 3668,
      "##交": 3669,
      "##ೃ": 3670,
      "##😂": 3671,
      "##刊": 3672,
      "##少": 3673,
      "##ャ": 3674,
      "##🍅": 3675,
      "##🍑": 3676,
      "##🌰": 3677,
      "##🌵": 3678,
      "##ຣ": 3679,
      "##ທ": 3680,
      "##ో": 3681,
      "##ਢ": 3682,
      "##‪": 3683,
      "##བ": 3684,
      "##𐡃": 3685,
      "##𐡌": 3686,
      "##𐡅": 3687,
      "##𐡓": 3688,
      "##治": 3689,
      "##ಥ": 3690,
      "##二": 3691,
      "##雄": 3692,
      "##臨": 3693,
      "##時": 3694,
      "##な": 3695,
      "##¡": 3696,
      "##ﺎ": 3697,
      "##ส": 3698,
      "##カ": 3699,
      "##།": 3700,
      "##ꯃ": 3701,
      "##ꯍ": 3702,
      "##希": 3703,
      "##阜": 3704,
      "##淑": 3705,
      "##蒙": 3706,
      "##ᶣ": 3707,
      "##ષ": 3708,
      "##乗": 3709,
      "##て": 3710,
      "##𝗱": 3711,
      "##ป": 3712,
      "##宫": 3713,
      "##ਝ": 3714,
      "##ъ": 3715,
      "##ል": 3716,
      "##ϕ": 3717,
      "##¨": 3718,
      "##ක": 3719,
      "##ဘ": 3720,
      "##根": 3721,
      "##三": 3722,
      "##ખ": 3723,
      "##ભ": 3724,
      "##加": 3725,
      "##坡": 3726,
      "##空": 3727,
      "##園": 3728,
      "##记": 3729,
      "##ಧ": 3730,
      "##థ": 3731,
      "##沢": 3732,
      "##九": 3733,
      "##省": 3734,
      "##流": 3735,
      "##券": 3736,
      "##উ": 3737,
      "##🏽": 3738,
      "##😍": 3739,
      "##🤓": 3740,
      "##演": 3741,
      "##簾": 3742,
      "##福": 3743,
      "##里": 3744,
      "##地": 3745,
      "##区": 3746,
      "##ஷ": 3747,
      "##―": 3748,
      "##ᱯ": 3749,
      "##ᱩ": 3750,
      "##機": 3751,
      "##ซ": 3752,
      "##光": 3753,
      "##立": 3754,
      "##電": 3755,
      "##腦": 3756,
      "##份": 3757,
      "##ລ": 3758,
      "##ბ": 3759,
      "##间": 3760,
      "##ﻟ": 3761,
      "##ﻜ": 3762,
      "##ﺮ": 3763,
      "##ﻙ": 3764,
      "##đ": 3765,
      "##震": 3766,
      "##网": 3767,
      "##心": 3768,
      "##業": 3769,
      "##💯": 3770,
      "##库": 3771,
      "##ᅲ": 3772,
      "th": 3773,
      "the": 3774,
      "##er": 3775,
      "##in": 3776,
      "##्र": 3777,
      "##nd": 3778,
      "के": 3779,
      "##ार": 3780,
      "##at": 3781,
      "##on": 3782,
      "##ें": 3783,
      "##es": 3784,
      "##ed": 3785,
      "##en": 3786,
      "है": 3787,
      "##or": 3788,
      "##ar": 3789,
      "##या": 3790,
      "##an": 3791,
      "in": 3792,
      "##ों": 3793,
      "of": 3794,
      "में": 3795,
      "##is": 3796,
      "##al": 3797,
      "##it": 3798,
      "##ing": 3799,
      "##as": 3800,
      "##ान": 3801,
      "to": 3802,
      "and": 3803,
      "की": 3804,
      "##र्": 3805,
      "##ou": 3806,
      "##ion": 3807,
      "##ic": 3808,
      "को": 3809,
      "##ने": 3810,
      "और": 3811,
      "##re": 3812,
      "कि": 3813,
      "##ent": 3814,
      "##il": 3815,
      "कर": 3816,
      "##ता": 3817,
      "##्य": 3818,
      "##िक": 3819,
      "से": 3820,
      "##om": 3821,
      "का": 3822,
      "प्र": 3823,
      "ने": 3824,
      "##el": 3825,
      "##ना": 3826,
      "पर": 3827,
      "##id": 3828,
      "##स्": 3829,
      "##ec": 3830,
      "pr": 3831,
      "##ाल": 3832,
      "##ad": 3833,
      "##िल": 3834,
      "is": 3835,
      "##क्": 3836,
      "be": 3837,
      "##ur": 3838,
      "##ित": 3839,
      "for": 3840,
      "इस": 3841,
      "##ol": 3842,
      "##st": 3843,
      "##am": 3844,
      "##et": 3845,
      "##हा": 3846,
      "##ot": 3847,
      "on": 3848,
      "##ve": 3849,
      "हैं": 3850,
      "##िए": 3851,
      "##ही": 3852,
      "##ter": 3853,
      "##ation": 3854,
      "##ay": 3855,
      "##ir": 3856,
      "st": 3857,
      "##िय": 3858,
      "##न्": 3859,
      "##त्र": 3860,
      "##िया": 3861,
      "wh": 3862,
      "हो": 3863,
      "al": 3864,
      "##ver": 3865,
      "##le": 3866,
      "वि": 3867,
      "##ड़": 3868,
      "##वा": 3869,
      "##ac": 3870,
      "##ut": 3871,
      "##ाम": 3872,
      "re": 3873,
      "##ति": 3874,
      "##ेश": 3875,
      "स्": 3876,
      "सं": 3877,
      "##ow": 3878,
      "##ते": 3879,
      "sh": 3880,
      "##im": 3881,
      "##के": 3882,
      "लिए": 3883,
      "##ाज": 3884,
      "##ill": 3885,
      "एक": 3886,
      "##ment": 3887,
      "##ig": 3888,
      "as": 3889,
      "##ly": 3890,
      "that": 3891,
      "जा": 3892,
      "##ती": 3893,
      "ind": 3894,
      "he": 3895,
      "##th": 3896,
      "##od": 3897,
      "ch": 3898,
      "it": 3899,
      "##ला": 3900,
      "##ंग": 3901,
      "भी": 3902,
      "##से": 3903,
      "##हीं": 3904,
      "##ers": 3905,
      "con": 3906,
      "##ak": 3907,
      "##ith": 3908,
      "##ले": 3909,
      "an": 3910,
      "##्या": 3911,
      "##री": 3912,
      "##ोग": 3913,
      "##ess": 3914,
      "##ch": 3915,
      "सा": 3916,
      "सम": 3917,
      "##est": 3918,
      "ha": 3919,
      "##ce": 3920,
      "##ul": 3921,
      "##ia": 3922,
      "##us": 3923,
      "##os": 3924,
      "sa": 3925,
      "किया": 3926,
      "बा": 3927,
      "with": 3928,
      "नहीं": 3929,
      "##tr": 3930,
      "##रा": 3931,
      "##सी": 3932,
      "##op": 3933,
      "##त्": 3934,
      "##क्ष": 3935,
      "अप": 3936,
      "##्ट": 3937,
      "##िस": 3938,
      "has": 3939,
      "was": 3940,
      "de": 3941,
      "com": 3942,
      "मु": 3943,
      "##and": 3944,
      "##नी": 3945,
      "at": 3946,
      "fr": 3947,
      "##ain": 3948,
      "##ate": 3949,
      "##कार": 3950,
      "##ect": 3951,
      "कहा": 3952,
      "##ct": 3953,
      "यह": 3954,
      "##कि": 3955,
      "su": 3956,
      "नि": 3957,
      "are": 3958,
      "##का": 3959,
      "##गा": 3960,
      "हम": 3961,
      "##ंत्र": 3962,
      "this": 3963,
      "by": 3964,
      "भार": 3965,
      "will": 3966,
      "हु": 3967,
      "##ag": 3968,
      "##our": 3969,
      "##\"\"": 3970,
      "##्व": 3971,
      "##ab": 3972,
      "##कर": 3973,
      "##iv": 3974,
      "##ली": 3975,
      "##em": 3976,
      "##ाय": 3977,
      "##्री": 3978,
      "दे": 3979,
      "##ुर": 3980,
      "##्म": 3981,
      "have": 3982,
      "go": 3983,
      "##ुल": 3984,
      "##ies": 3985,
      "##न्ह": 3986,
      "ne": 3987,
      "##ld": 3988,
      "##ंद": 3989,
      "करने": 3990,
      "##art": 3991,
      "##pp": 3992,
      "min": 3993,
      "##ियों": 3994,
      "said": 3995,
      "not": 3996,
      "उन": 3997,
      "##um": 3998,
      "##ice": 3999,
      "##ere": 4000,
      "from": 4001,
      "ex": 4002,
      "##un": 4003,
      "##ां": 4004,
      "गया": 4005,
      "tr": 4006,
      "##ाह": 4007,
      "अध": 4008,
      "##की": 4009,
      "उन्ह": 4010,
      "कार": 4011,
      "we": 4012,
      "##ity": 4013,
      "ले": 4014,
      "##if": 4015,
      "राज": 4016,
      "pro": 4017,
      "##ारी": 4018,
      "##ort": 4019,
      "पह": 4020,
      "अन": 4021,
      "##ie": 4022,
      "##ाने": 4023,
      "##ist": 4024,
      "साथ": 4025,
      "रह": 4026,
      "जो": 4027,
      "##ास": 4028,
      "उस": 4029,
      "था": 4030,
      "##ैं": 4031,
      "india": 4032,
      "minis": 4033,
      "##so": 4034,
      "##ah": 4035,
      "ही": 4036,
      "se": 4037,
      "all": 4038,
      "##igh": 4039,
      "you": 4040,
      "or": 4041,
      "##hi": 4042,
      "pol": 4043,
      "##दी": 4044,
      "##ud": 4045,
      "sp": 4046,
      "##ap": 4047,
      "##्‍": 4048,
      "सि": 4049,
      "##रे": 4050,
      "##ial": 4051,
      "##िन": 4052,
      "##ant": 4053,
      "##ष्ट": 4054,
      "##मा": 4055,
      "##se": 4056,
      "तो": 4057,
      "also": 4058,
      "his": 4059,
      "##दा": 4060,
      "##cc": 4061,
      "##ारा": 4062,
      "##ore": 4063,
      "le": 4064,
      "##ंत्री": 4065,
      "##देश": 4066,
      "##ive": 4067,
      "##ुम": 4068,
      "पू": 4069,
      "##सा": 4070,
      "लोग": 4071,
      "भारत": 4072,
      "en": 4073,
      "been": 4074,
      "##ल्": 4075,
      "##ंड": 4076,
      "##oun": 4077,
      "##ोंने": 4078,
      "wor": 4079,
      "##ard": 4080,
      "##िव": 4081,
      "un": 4082,
      "##भा": 4083,
      "ar": 4084,
      "minister": 4085,
      "या": 4086,
      "##द्": 4087,
      "सु": 4088,
      "सी": 4089,
      "दो": 4090,
      "##oc": 4091,
      "##िला": 4092,
      "##्ष": 4093,
      "##िर": 4094,
      "##ढ़": 4095,
      "ad": 4096,
      "##ओं": 4097,
      "##स्त": 4098,
      "ag": 4099,
      "##ra": 4100,
      "##्रे": 4101,
      "##तर": 4102,
      "##गी": 4103,
      "##ian": 4104,
      "सक": 4105,
      "##ust": 4106,
      "dis": 4107,
      "##था": 4108,
      "रा": 4109,
      "##गे": 4110,
      "##all": 4111,
      "\"\"": 4112,
      "सर": 4113,
      "res": 4114,
      "##ould": 4115,
      "उन्होंने": 4116,
      "वाल": 4117,
      "दिया": 4118,
      "##end": 4119,
      "##भी": 4120,
      "उप": 4121,
      "##्त": 4122,
      "they": 4123,
      "pl": 4124,
      "##में": 4125,
      "##स्ट": 4126,
      "cr": 4127,
      "##पी": 4128,
      "were": 4129,
      "##ोज": 4130,
      "af": 4131,
      "##च्": 4132,
      "अपने": 4133,
      "co": 4134,
      "me": 4135,
      "वह": 4136,
      "inc": 4137,
      "man": 4138,
      "##ेल": 4139,
      "am": 4140,
      "##pl": 4141,
      "##ri": 4142,
      "##धान": 4143,
      "ab": 4144,
      "##av": 4145,
      "##vern": 4146,
      "##टी": 4147,
      "##ok": 4148,
      "##gr": 4149,
      "govern": 4150,
      "##ारे": 4151,
      "मह": 4152,
      "##ated": 4153,
      "##वि": 4154,
      "आप": 4155,
      "बी": 4156,
      "##ary": 4157,
      "##ंच": 4158,
      "सरकार": 4159,
      "##ime": 4160,
      "बाद": 4161,
      "##ीन": 4162,
      "##रो": 4163,
      "कु": 4164,
      "##ich": 4165,
      "##gh": 4166,
      "##ions": 4167,
      "अधिक": 4168,
      "तक": 4169,
      "##ure": 4170,
      "part": 4171,
      "रहे": 4172,
      "their": 4173,
      "had": 4174,
      "##ंध": 4175,
      "पा": 4176,
      "##ish": 4177,
      "##ous": 4178,
      "प्रति": 4179,
      "off": 4180,
      "##ear": 4181,
      "per": 4182,
      "पुल": 4183,
      "##िश": 4184,
      "हुए": 4185,
      "##ast": 4186,
      "im": 4187,
      "दी": 4188,
      "##पा": 4189,
      "police": 4190,
      "##ident": 4191,
      "मे": 4192,
      "##जी": 4193,
      "##ight": 4194,
      "government": 4195,
      "##ge": 4196,
      "##ूप": 4197,
      "ra": 4198,
      "ला": 4199,
      "##ath": 4200,
      "##ase": 4201,
      "pe": 4202,
      "##ome": 4203,
      "##ach": 4204,
      "पुलिस": 4205,
      "##ong": 4206,
      "up": 4207,
      "there": 4208,
      "but": 4209,
      "comm": 4210,
      "गई": 4211,
      "##नों": 4212,
      "चु": 4213,
      "थी": 4214,
      "मो": 4215,
      "##ik": 4216,
      "वे": 4217,
      "pres": 4218,
      "##ार्": 4219,
      "थे": 4220,
      "##ौर": 4221,
      "do": 4222,
      "##ence": 4223,
      "who": 4224,
      "acc": 4225,
      "##ेट": 4226,
      "which": 4227,
      "##जा": 4228,
      "##ind": 4229,
      "##वी": 4230,
      "जिस": 4231,
      "##ये": 4232,
      "state": 4233,
      "us": 4234,
      "##गर": 4235,
      "##ell": 4236,
      "mo": 4237,
      "new": 4238,
      "so": 4239,
      "माम": 4240,
      "जी": 4241,
      "##nder": 4242,
      "##ue": 4243,
      "##age": 4244,
      "can": 4245,
      "##ib": 4246,
      "निर्": 4247,
      "मा": 4248,
      "gr": 4249,
      "tw": 4250,
      "##ानी": 4251,
      "##one": 4252,
      "मौ": 4253,
      "मिल": 4254,
      "विश": 4255,
      "लोगों": 4256,
      "चाह": 4257,
      "##मंत्री": 4258,
      "rec": 4259,
      "act": 4260,
      "क्ष": 4261,
      "##र्व": 4262,
      "जब": 4263,
      "देश": 4264,
      "मैं": 4265,
      "##ther": 4266,
      "##टर": 4267,
      "द्व": 4268,
      "no": 4269,
      "them": 4270,
      "##ूर": 4271,
      "app": 4272,
      "##pt": 4273,
      "##out": 4274,
      "##ire": 4275,
      "रहा": 4276,
      "coun": 4277,
      "राज्य": 4278,
      "जाए": 4279,
      "##ाना": 4280,
      "##ict": 4281,
      "sing": 4282,
      "peop": 4283,
      "##ुप": 4284,
      "स्थ": 4285,
      "##तीय": 4286,
      "कुछ": 4287,
      "##िम": 4288,
      "रूप": 4289,
      "##try": 4290,
      "##ations": 4291,
      "##port": 4292,
      "इन": 4293,
      "\"\"\"": 4294,
      "पी": 4295,
      "del": 4296,
      "##qu": 4297,
      "br": 4298,
      "one": 4299,
      "people": 4300,
      "##बंध": 4301,
      "##खा": 4302,
      "कोई": 4303,
      "वर्": 4304,
      "##ber": 4305,
      "##ance": 4306,
      "cl": 4307,
      "##ज़": 4308,
      "##ans": 4309,
      "रही": 4310,
      "##ult": 4311,
      "करते": 4312,
      "its": 4313,
      "##द्ध": 4314,
      "##क्र": 4315,
      "##oth": 4316,
      "##्रीय": 4317,
      "##ash": 4318,
      "under": 4319,
      "सब": 4320,
      "कम": 4321,
      "##pr": 4322,
      "उत्": 4323,
      "##ack": 4324,
      "कार्य": 4325,
      "अं": 4326,
      "##ord": 4327,
      "बात": 4328,
      "cent": 4329,
      "बह": 4330,
      "reg": 4331,
      "फिल": 4332,
      "तुम": 4333,
      "तर": 4334,
      "##ide": 4335,
      "rel": 4336,
      "##को": 4337,
      "##esh": 4338,
      "##क्षा": 4339,
      "भा": 4340,
      "##ड़ा": 4341,
      "##वर": 4342,
      "##ough": 4343,
      "##ank": 4344,
      "sec": 4345,
      "rs": 4346,
      "गए": 4347,
      "##ical": 4348,
      "after": 4349,
      "##कों": 4350,
      ".\"": 4351,
      "out": 4352,
      "indian": 4353,
      "mod": 4354,
      "##ake": 4355,
      "##बर": 4356,
      "द्वारा": 4357,
      "##स्थ": 4358,
      "##ंह": 4359,
      "##वं": 4360,
      "##द्र": 4361,
      "##ile": 4362,
      "विक": 4363,
      "##og": 4364,
      "##बी": 4365,
      "अनु": 4366,
      "बढ़": 4367,
      "##ip": 4368,
      "again": 4369,
      "##ee": 4370,
      "##ief": 4371,
      "##ूल": 4372,
      "##क्त": 4373,
      "##शन": 4374,
      "##मान": 4375,
      "over": 4376,
      "इसके": 4377,
      "##ose": 4378,
      "उनके": 4379,
      "##orm": 4380,
      "##ाइ": 4381,
      "##एस": 4382,
      "fir": 4383,
      "##uct": 4384,
      "भारतीय": 4385,
      "हि": 4386,
      "##ays": 4387,
      "##ang": 4388,
      "singh": 4389,
      "##ड़ी": 4390,
      "##ational": 4391,
      "##act": 4392,
      "##jp": 4393,
      "##र्ट": 4394,
      "##ail": 4395,
      "##ेत्र": 4396,
      "पहले": 4397,
      "दिल": 4398,
      "##han": 4399,
      "मुख": 4400,
      "##योग": 4401,
      "राष्ट": 4402,
      "him": 4403,
      "##ame": 4404,
      "inter": 4405,
      "सिंह": 4406,
      "##र्म": 4407,
      "श्री": 4408,
      "##िंग": 4409,
      "two": 4410,
      "##vel": 4411,
      "किसी": 4412,
      "ser": 4413,
      "##ाप": 4414,
      "##iz": 4415,
      "),": 4416,
      "क्षेत्र": 4417,
      "##िका": 4418,
      "##्स": 4419,
      "##ंप": 4420,
      "साम": 4421,
      "##ine": 4422,
      "##किन": 4423,
      "अम": 4424,
      "dec": 4425,
      "how": 4426,
      "अपनी": 4427,
      "comp": 4428,
      "##ree": 4429,
      "##ace": 4430,
      "##च्च": 4431,
      "ये": 4432,
      "##ition": 4433,
      "fil": 4434,
      "##ound": 4435,
      "##ates": 4436,
      "##har": 4437,
      "##आई": 4438,
      "बता": 4439,
      "sc": 4440,
      "##िप": 4441,
      "##चार": 4442,
      "##धार": 4443,
      "##ens": 4444,
      "work": 4445,
      "##per": 4446,
      "##ूस": 4447,
      "लेकिन": 4448,
      "po": 4449,
      "##ोक": 4450,
      "##ha": 4451,
      "mar": 4452,
      "बना": 4453,
      "lo": 4454,
      "##हां": 4455,
      "बे": 4456,
      "##ign": 4457,
      "other": 4458,
      "year": 4459,
      "व्य": 4460,
      "वाले": 4461,
      "तथा": 4462,
      "रुप": 4463,
      "what": 4464,
      "फिल्म": 4465,
      "##able": 4466,
      "##ब्": 4467,
      "int": 4468,
      "##ुत": 4469,
      "our": 4470,
      "##ass": 4471,
      "cour": 4472,
      "bjp": 4473,
      "##िट": 4474,
      "##ade": 4475,
      "##ff": 4476,
      "against": 4477,
      "##uc": 4478,
      "काम": 4479,
      "जान": 4480,
      "टी": 4481,
      "कै": 4482,
      "ev": 4483,
      "एवं": 4484,
      "##ेंगे": 4485,
      "##्यों": 4486,
      "क्या": 4487,
      "##ater": 4488,
      "qu": 4489,
      "her": 4490,
      "##हर": 4491,
      "about": 4492,
      "##gress": 4493,
      "la": 4494,
      "होने": 4495,
      "el": 4496,
      "any": 4497,
      "chief": 4498,
      "##ार्ट": 4499,
      "delhi": 4500,
      "##ोट": 4501,
      "##डी": 4502,
      "##ोल": 4503,
      "कह": 4504,
      "##ोड़": 4505,
      "बन": 4506,
      "##्रेस": 4507,
      "##form": 4508,
      "##oll": 4509,
      "सभी": 4510,
      "हाल": 4511,
      "मंत्री": 4512,
      "##itt": 4513,
      "##्यू": 4514,
      "inv": 4515,
      "प्रधान": 4516,
      "bo": 4517,
      "##द्य": 4518,
      "उन्हें": 4519,
      "करना": 4520,
      "would": 4521,
      "##ely": 4522,
      "ass": 4523,
      "##ick": 4524,
      "आई": 4525,
      "##ड़े": 4526,
      "##ious": 4527,
      "##िज": 4528,
      "##arm": 4529,
      "##ub": 4530,
      "##ेर": 4531,
      "सह": 4532,
      "##र्थ": 4533,
      "खिला": 4534,
      "जै": 4535,
      "हुई": 4536,
      "##day": 4537,
      "मुख्य": 4538,
      "##वे": 4539,
      "रख": 4540,
      "pre": 4541,
      "##ुन": 4542,
      "##्ली": 4543,
      "first": 4544,
      "when": 4545,
      "te": 4546,
      "तरह": 4547,
      "हुआ": 4548,
      "मामले": 4549,
      "lead": 4550,
      "सू": 4551,
      "अव": 4552,
      "##ष्": 4553,
      "##ाई": 4554,
      "your": 4555,
      "शाम": 4556,
      "time": 4557,
      "if": 4558,
      "##एम": 4559,
      "offic": 4560,
      "सो": 4561,
      "president": 4562,
      "मोदी": 4563,
      "##वाल": 4564,
      "##uring": 4565,
      "form": 4566,
      "##ied": 4567,
      "शुर": 4568,
      "##र्ज": 4569,
      "##सर": 4570,
      "मै": 4571,
      "case": 4572,
      "अभ": 4573,
      "लगा": 4574,
      "##now": 4575,
      "समय": 4576,
      "high": 4577,
      "##च्छ": 4578,
      "##ection": 4579,
      "##are": 4580,
      "##iss": 4581,
      "##ings": 4582,
      "##ov": 4583,
      "##बा": 4584,
      "modi": 4585,
      "court": 4586,
      "##म्म": 4587,
      "देख": 4588,
      "str": 4589,
      "हर": 4590,
      "add": 4591,
      "##ities": 4592,
      "##्ल": 4593,
      "बै": 4594,
      "##ents": 4595,
      "दिन": 4596,
      "hel": 4597,
      "##fer": 4598,
      "दिल्ली": 4599,
      "स्ट": 4600,
      "film": 4601,
      "##erson": 4602,
      "she": 4603,
      "कांग": 4604,
      "fe": 4605,
      "##int": 4606,
      "##ंट": 4607,
      "##जे": 4608,
      "##oss": 4609,
      "congress": 4610,
      "होगा": 4611,
      "##्ञ": 4612,
      "आय": 4613,
      "##eng": 4614,
      "शामिल": 4615,
      "day": 4616,
      "लिया": 4617,
      "##दान": 4618,
      "##वार": 4619,
      "these": 4620,
      "प्रधानमंत्री": 4621,
      "##enc": 4622,
      "dr": 4623,
      "##ood": 4624,
      "##ृत": 4625,
      "ac": 4626,
      "पहु": 4627,
      "cont": 4628,
      "##ूर्": 4629,
      "my": 4630,
      "##lud": 4631,
      "पि": 4632,
      "दौर": 4633,
      "##गत": 4634,
      "सकता": 4635,
      "कांग्रेस": 4636,
      "मान": 4637,
      "sch": 4638,
      "##श्": 4639,
      "##लों": 4640,
      "ro": 4641,
      "med": 4642,
      "लग": 4643,
      "prov": 4644,
      "##old": 4645,
      "चाहिए": 4646,
      "##ild": 4647,
      "बहुत": 4648,
      "बार": 4649,
      "par": 4650,
      "more": 4651,
      "##ors": 4652,
      "फिर": 4653,
      "##यर": 4654,
      "em": 4655,
      "कई": 4656,
      "##ोजना": 4657,
      "ज़": 4658,
      "att": 4659,
      "lik": 4660,
      "##न्न": 4661,
      "अन्य": 4662,
      "##ंस": 4663,
      "bet": 4664,
      "gu": 4665,
      "country": 4666,
      "##ally": 4667,
      "आरो": 4668,
      "केंद": 4669,
      "##ून": 4670,
      "किए": 4671,
      "बीच": 4672,
      "ph": 4673,
      "दोनों": 4674,
      "##धी": 4675,
      "दूस": 4676,
      "उसके": 4677,
      "संबंध": 4678,
      "रुपये": 4679,
      "ना": 4680,
      "##मी": 4681,
      "गु": 4682,
      "raj": 4683,
      "पूर्व": 4684,
      "हू": 4685,
      "bec": 4686,
      "जाता": 4687,
      "prime": 4688,
      "##istan": 4689,
      "##दि": 4690,
      "world": 4691,
      "##velop": 4692,
      "##ियम": 4693,
      "fin": 4694,
      "know": 4695,
      "जन": 4696,
      "includ": 4697,
      "बताया": 4698,
      "##ुख": 4699,
      "##ital": 4700,
      "distr": 4701,
      "being": 4702,
      "develop": 4703,
      "दौरान": 4704,
      "some": 4705,
      "पास": 4706,
      "##ory": 4707,
      "क्र": 4708,
      "ver": 4709,
      "during": 4710,
      "##li": 4711,
      "##aj": 4712,
      "खु": 4713,
      "should": 4714,
      "शिक": 4715,
      "वर्ष": 4716,
      "##ालय": 4717,
      "कप": 4718,
      "जाने": 4719,
      "##जू": 4720,
      "##दार": 4721,
      "mat": 4722,
      "##एं": 4723,
      "##irect": 4724,
      "##ite": 4725,
      "cons": 4726,
      "##ise": 4727,
      "##चा": 4728,
      "##lic": 4729,
      "##ased": 4730,
      "##we": 4731,
      "##ai": 4732,
      "मंत्र": 4733,
      "tak": 4734,
      "पै": 4735,
      "##ward": 4736,
      "सकते": 4737,
      "करता": 4738,
      "उनकी": 4739,
      "##air": 4740,
      "##ंक": 4741,
      "##लय": 4742,
      "##amm": 4743,
      "pak": 4744,
      "बारे": 4745,
      "##नाव": 4746,
      "inst": 4747,
      "##झे": 4748,
      "person": 4749,
      "##reat": 4750,
      "direct": 4751,
      "क्यों": 4752,
      "वा": 4753,
      "such": 4754,
      "ter": 4755,
      "##iver": 4756,
      "पहुंच": 4757,
      "##pect": 4758,
      "##जन": 4759,
      "##भाव": 4760,
      "ख़": 4761,
      "##amil": 4762,
      "##ever": 4763,
      "thr": 4764,
      "प्रदेश": 4765,
      "खिलाफ": 4766,
      "rem": 4767,
      "##स्तान": 4768,
      "##man": 4769,
      "बि": 4770,
      "ever": 4771,
      "राष्ट्र": 4772,
      "##ya": 4773,
      "##दर्": 4774,
      "इं": 4775,
      "national": 4776,
      "नाम": 4777,
      "न्या": 4778,
      "##्‍य": 4779,
      "विकास": 4780,
      "##स्प": 4781,
      "##ोर": 4782,
      "##्यक्ष": 4783,
      "##क्ति": 4784,
      "ear": 4785,
      "sub": 4786,
      "##णा": 4787,
      "##क्रम": 4788,
      "##ject": 4789,
      "शुरू": 4790,
      "then": 4791,
      "##aus": 4792,
      "##वन": 4793,
      "##ीड": 4794,
      "सबसे": 4795,
      "##ife": 4796,
      "made": 4797,
      "into": 4798,
      "dep": 4799,
      "##ep": 4800,
      "##ond": 4801,
      "##फी": 4802,
      "fl": 4803,
      "##ोन": 4804,
      "god": 4805,
      "while": 4806,
      "आज": 4807,
      "jo": 4808,
      "सुर": 4809,
      "##ग्र": 4810,
      "चल": 4811,
      "##tain": 4812,
      "उसे": 4813,
      "लि": 4814,
      "परिव": 4815,
      "दि": 4816,
      "##own": 4817,
      "##िति": 4818,
      "stud": 4819,
      "##पति": 4820,
      "cor": 4821,
      "serv": 4822,
      "स्व": 4823,
      "##र्स": 4824,
      "जु": 4825,
      "##स्‍": 4826,
      "##ments": 4827,
      "करोड़": 4828,
      "##टना": 4829,
      "only": 4830,
      "जारी": 4831,
      "cap": 4832,
      "पाकि": 4833,
      "pakistan": 4834,
      "फै": 4835,
      "iss": 4836,
      "mah": 4837,
      "जि": 4838,
      "##der": 4839,
      "नी": 4840,
      "may": 4841,
      "##eth": 4842,
      "bl": 4843,
      "##urn": 4844,
      "##\"\"\"": 4845,
      "invest": 4846,
      "just": 4847,
      "##emb": 4848,
      "##ताओं": 4849,
      "##शी": 4850,
      "##ower": 4851,
      "##हत": 4852,
      "meet": 4853,
      "हा": 4854,
      "report": 4855,
      "तीन": 4856,
      "those": 4857,
      "जर": 4858,
      "##त्व": 4859,
      "##म्": 4860,
      "भाज": 4861,
      "##चित": 4862,
      "लेकर": 4863,
      "##चना": 4864,
      "gen": 4865,
      "##hip": 4866,
      "##वाद": 4867,
      "भाजपा": 4868,
      "इंड": 4869,
      "three": 4870,
      "wom": 4871,
      "party": 4872,
      "##रण": 4873,
      "district": 4874,
      "##क्स": 4875,
      "arr": 4876,
      "nar": 4877,
      "like": 4878,
      "गां": 4879,
      "एन": 4880,
      "##ूम": 4881,
      "एस": 4882,
      "##ेष": 4883,
      "पार्ट": 4884,
      "कंप": 4885,
      "अल": 4886,
      "होता": 4887,
      "##क्ट": 4888,
      "टीम": 4889,
      "##adesh": 4890,
      "##ution": 4891,
      "परि": 4892,
      "दर्ज": 4893,
      "##ks": 4894,
      "##ोध": 4895,
      "##ज्ञ": 4896,
      "जांच": 4897,
      "get": 4898,
      "देने": 4899,
      "कारण": 4900,
      "##ंब": 4901,
      "##ानों": 4902,
      "##ana": 4903,
      "##endra": 4904,
      "##कारी": 4905,
      "##पर": 4906,
      "##ating": 4907,
      "##दे": 4908,
      "mon": 4909,
      "यु": 4910,
      "##ustr": 4911,
      "ग्र": 4912,
      "supp": 4913,
      "const": 4914,
      "##ices": 4915,
      "करें": 4916,
      "##सार": 4917,
      "bank": 4918,
      "जाएगा": 4919,
      "shri": 4920,
      "मुझे": 4921,
      "##वाई": 4922,
      "bh": 4923,
      "##्ड": 4924,
      "बैं": 4925,
      "##ro": 4926,
      "play": 4927,
      "##amp": 4928,
      "चुनाव": 4929,
      "##arn": 4930,
      "##fore": 4931,
      "##ission": 4932,
      "##ेज": 4933,
      "##ेड": 4934,
      "##ुक": 4935,
      "##anc": 4936,
      "##ug": 4937,
      "##ween": 4938,
      "महिला": 4939,
      "between": 4940,
      "##other": 4941,
      "air": 4942,
      "##ful": 4943,
      "सद": 4944,
      "##आर": 4945,
      "##र्ड": 4946,
      "sm": 4947,
      "##वास": 4948,
      "need": 4949,
      "##ोष": 4950,
      "इससे": 4951,
      "अब": 4952,
      "than": 4953,
      "##ged": 4954,
      "##eral": 4955,
      "##akh": 4956,
      "ट्र": 4957,
      "##ual": 4958,
      "ed": 4959,
      "however": 4960,
      "हूं": 4961,
      "prod": 4962,
      "##ोर्ट": 4963,
      "##used": 4964,
      "bel": 4965,
      "wr": 4966,
      "यू": 4967,
      "पु": 4968,
      "##ision": 4969,
      "through": 4970,
      "निक": 4971,
      "बद": 4972,
      "वाली": 4973,
      "soc": 4974,
      "डॉ": 4975,
      "##्ह": 4976,
      "##िये": 4977,
      "##सभा": 4978,
      "मंत्रालय": 4979,
      "##gan": 4980,
      "अधिकार": 4981,
      "##ech": 4982,
      "many": 4983,
      "contr": 4984,
      "##ised": 4985,
      "पार्टी": 4986,
      "हमारे": 4987,
      "कॉ": 4988,
      "अच्छ": 4989,
      "##स्था": 4990,
      "every": 4991,
      "##way": 4992,
      "ऐसा": 4993,
      "##जर": 4994,
      "##्रा": 4995,
      "स्वा": 4996,
      "inform": 4997,
      "des": 4998,
      "प्रा": 4999,
      "here": 5000,
      "##elf": 5001,
      "##alth": 5002,
      "def": 5003,
      "##शत": 5004,
      "##ific": 5005,
      "##ently": 5006,
      "आरोप": 5007,
      "##icket": 5008,
      "करे": 5009,
      "##ाली": 5010,
      "अध्यक्ष": 5011,
      "##न्‍": 5012,
      "##ध्य": 5013,
      "sy": 5014,
      "बैठ": 5015,
      "crore": 5016,
      "cond": 5017,
      "विध": 5018,
      "##ियां": 5019,
      "वै": 5020,
      "did": 5021,
      "इसमें": 5022,
      "तै": 5023,
      "last": 5024,
      "साल": 5025,
      "where": 5026,
      "पाकिस्तान": 5027,
      "famil": 5028,
      "today": 5029,
      "mu": 5030,
      "##eh": 5031,
      "##ited": 5032,
      "official": 5033,
      "spec": 5034,
      "आधार": 5035,
      "say": 5036,
      "##त्म": 5037,
      "##ister": 5038,
      "##ured": 5039,
      "very": 5040,
      "compl": 5041,
      "##माण": 5042,
      "giv": 5043,
      "मन": 5044,
      "var": 5045,
      "##ons": 5046,
      "##ोह": 5047,
      "##ैन": 5048,
      "##करण": 5049,
      "set": 5050,
      "##ret": 5051,
      "##ीस": 5052,
      "trans": 5053,
      "आर": 5054,
      "##मत": 5055,
      "##olog": 5056,
      "##ember": 5057,
      "##ीर": 5058,
      "num": 5059,
      "बच्च": 5060,
      "##द्योग": 5061,
      "##ested": 5062,
      "हों": 5063,
      "development": 5064,
      "बो": 5065,
      "लोक": 5066,
      "##urr": 5067,
      "pub": 5068,
      "##्यादा": 5069,
      "##umar": 5070,
      "good": 5071,
      "ministry": 5072,
      "किस": 5073,
      "योजना": 5074,
      "##ures": 5075,
      "##ci": 5076,
      "##ेंद्र": 5077,
      "##oy": 5078,
      "जिन": 5079,
      "प्रतिशत": 5080,
      "pun": 5081,
      "##तिक": 5082,
      "pat": 5083,
      "मुख्यमंत्री": 5084,
      "##osp": 5085,
      "##ेशन": 5086,
      "तुम्ह": 5087,
      "##ause": 5088,
      "##ved": 5089,
      "sen": 5090,
      "##ुक्त": 5091,
      "take": 5092,
      "जैसे": 5093,
      "both": 5094,
      "##ूर्ण": 5095,
      "well": 5096,
      "सेवा": 5097,
      "##ount": 5098,
      "गिर": 5099,
      "विश्व": 5100,
      "समझ": 5101,
      "present": 5102,
      "##ases": 5103,
      "dem": 5104,
      "loc": 5105,
      "##ष्ठ": 5106,
      "विशेष": 5107,
      "pradesh": 5108,
      "##ियो": 5109,
      "गो": 5110,
      "car": 5111,
      "child": 5112,
      "##फ़": 5113,
      "अमेर": 5114,
      "वित": 5115,
      "##िकी": 5116,
      "see": 5117,
      "प्रश": 5118,
      "##ुमार": 5119,
      "##दन": 5120,
      "##ush": 5121,
      "ऐसे": 5122,
      "##ared": 5123,
      "ओर": 5124,
      "##मुख": 5125,
      "##ंत": 5126,
      "डी": 5127,
      "pm": 5128,
      "##wn": 5129,
      "##ax": 5130,
      "हमें": 5131,
      "khan": 5132,
      "अपना": 5133,
      "पिछ": 5134,
      "##धिक": 5135,
      "post": 5136,
      "##up": 5137,
      "ann": 5138,
      "call": 5139,
      "av": 5140,
      "##its": 5141,
      "##ata": 5142,
      "##भाग": 5143,
      "इसे": 5144,
      "team": 5145,
      "start": 5146,
      "बु": 5147,
      "law": 5148,
      "##ची": 5149,
      "लाख": 5150,
      "##पूर्ण": 5151,
      "health": 5152,
      "यहां": 5153,
      "##ink": 5154,
      "##ूत": 5155,
      "##टा": 5156,
      "aff": 5157,
      "##ix": 5158,
      "##दों": 5159,
      "##ollow": 5160,
      "eff": 5161,
      "इस्": 5162,
      ",\"\"": 5163,
      "##als": 5164,
      "ram": 5165,
      "##पुर": 5166,
      "##ior": 5167,
      "follow": 5168,
      "ob": 5169,
      "टे": 5170,
      "घटना": 5171,
      "मौत": 5172,
      "kumar": 5173,
      "मार्": 5174,
      "accused": 5175,
      "gand": 5176,
      "dif": 5177,
      "##arg": 5178,
      "ec": 5179,
      "##ible": 5180,
      "intern": 5181,
      "##les": 5182,
      "##ft": 5183,
      "ली": 5184,
      "allah": 5185,
      "अग": 5186,
      "prop": 5187,
      "##यी": 5188,
      "अगर": 5189,
      "##uth": 5190,
      "right": 5191,
      "##ble": 5192,
      "prot": 5193,
      "most": 5194,
      "राष्ट्रीय": 5195,
      "##ाप्त": 5196,
      "अभी": 5197,
      "narendra": 5198,
      "eng": 5199,
      "vis": 5200,
      "अंतर": 5201,
      "##धा": 5202,
      "##वल": 5203,
      "##लाह": 5204,
      "राह": 5205,
      "##ene": 5206,
      "जबकि": 5207,
      "होगी": 5208,
      "##ple": 5209,
      "id": 5210,
      "पुर": 5211,
      "before": 5212,
      "help": 5213,
      "हालां": 5214,
      "##ility": 5215,
      "##स्ता": 5216,
      "राष्ट्रपति": 5217,
      "पं": 5218,
      "former": 5219,
      "सुन": 5220,
      "##ues": 5221,
      "sur": 5222,
      "years": 5223,
      ").": 5224,
      "हालांकि": 5225,
      "सच": 5226,
      "even": 5227,
      "दा": 5228,
      "##ters": 5229,
      "##ीय": 5230,
      "##ness": 5231,
      "##ुनिया": 5232,
      "taken": 5233,
      "##म्मी": 5234,
      "क्योंकि": 5235,
      "life": 5236,
      "states": 5237,
      "##त्रा": 5238,
      "##ative": 5239,
      "सुरक्षा": 5240,
      "make": 5241,
      "proc": 5242,
      "op": 5243,
      "union": 5244,
      "inj": 5245,
      "##ैंड": 5246,
      "ins": 5247,
      "एम": 5248,
      "##िता": 5249,
      "##ody": 5250,
      "अला": 5251,
      "विभ": 5252,
      "hosp": 5253,
      "##und": 5254,
      "spe": 5255,
      "##ural": 5256,
      "उम्मी": 5257,
      "आए": 5258,
      "##ange": 5259,
      "hospital": 5260,
      "ऑफ": 5261,
      "शिक्ष": 5262,
      "##नि": 5263,
      "incident": 5264,
      "##ont": 5265,
      "नई": 5266,
      "##eep": 5267,
      "उठ": 5268,
      "four": 5269,
      "##ives": 5270,
      "प्रमुख": 5271,
      "काफी": 5272,
      "##..": 5273,
      "##एल": 5274,
      "##ism": 5275,
      "adm": 5276,
      "gandhi": 5277,
      "##med": 5278,
      "जिसमें": 5279,
      "##र्क": 5280,
      "ख़ु": 5281,
      "##श्य": 5282,
      "sin": 5283,
      "family": 5284,
      "घर": 5285,
      "could": 5286,
      "##war": 5287,
      "कुमार": 5288,
      "##ked": 5289,
      "उम्मीद": 5290,
      "##ty": 5291,
      "##ख्या": 5292,
      "स्प": 5293,
      "केंद्र": 5294,
      "inf": 5295,
      "ret": 5296,
      "##ants": 5297,
      "मद": 5298,
      "home": 5299,
      "##umb": 5300,
      "छा": 5301,
      "centr": 5302,
      "पद": 5303,
      "disc": 5304,
      "बैंक": 5305,
      "##ey": 5306,
      "खान": 5307,
      "##र्ष": 5308,
      "अलावा": 5309,
      "तैय": 5310,
      "power": 5311,
      "hand": 5312,
      "कृ": 5313,
      "compan": 5314,
      "ची": 5315,
      "मौजू": 5316,
      "opp": 5317,
      "secret": 5318,
      "##ics": 5319,
      "##onom": 5320,
      "ब्र": 5321,
      "##xt": 5322,
      "happ": 5323,
      "##ole": 5324,
      "##ियन": 5325,
      "##itu": 5326,
      "महा": 5327,
      "दु": 5328,
      "number": 5329,
      "test": 5330,
      "##यन": 5331,
      "##ivers": 5332,
      "##iew": 5333,
      "गांधी": 5334,
      "##हार": 5335,
      "meeting": 5336,
      "##ided": 5337,
      "shall": 5338,
      "ज्यादा": 5339,
      "##ायर": 5340,
      "##ather": 5341,
      "##लिए": 5342,
      "##क्षण": 5343,
      "col": 5344,
      "occ": 5345,
      "##धि": 5346,
      "##ru": 5347,
      "##ning": 5348,
      "अलग": 5349,
      "##ताल": 5350,
      "now": 5351,
      "##फ्त": 5352,
      "bu": 5353,
      "public": 5354,
      "tech": 5355,
      "कार्यक्रम": 5356,
      "अस": 5357,
      "son": 5358,
      "ता": 5359,
      "##ats": 5360,
      "##न्द": 5361,
      "हमने": 5362,
      "##ांच": 5363,
      "पिछले": 5364,
      "nor": 5365,
      "जानकारी": 5366,
      "ut": 5367,
      "उसकी": 5368,
      "होती": 5369,
      "##वेश": 5370,
      "##्यालय": 5371,
      "##श्म": 5372,
      "lakh": 5373,
      "##ेंट": 5374,
      "दूसरे": 5375,
      "मांग": 5376,
      "##ars": 5377,
      "सदस": 5378,
      "among": 5379,
      "दर": 5380,
      "pass": 5381,
      "न्याया": 5382,
      ".\"\"\"": 5383,
      "डि": 5384,
      "water": 5385,
      "व्या": 5386,
      "##uss": 5387,
      "आगे": 5388,
      "##लो": 5389,
      "फैस": 5390,
      "##बाज": 5391,
      "back": 5392,
      "खा": 5393,
      "sect": 5394,
      "तहत": 5395,
      "##ces": 5396,
      "कान": 5397,
      "बल्": 5398,
      "##क्‍": 5399,
      "register": 5400,
      "organ": 5401,
      "come": 5402,
      "करेंगे": 5403,
      "gl": 5404,
      "प्रदर्": 5405,
      "##ph": 5406,
      "##ting": 5407,
      "vi": 5408,
      "##ular": 5409,
      "red": 5410,
      "वहीं": 5411,
      "चे": 5412,
      "terr": 5413,
      "नेता": 5414,
      "उपल": 5415,
      "##led": 5416,
      "including": 5417,
      "##क़": 5418,
      "##ool": 5419,
      "हिस्": 5420,
      "स्क": 5421,
      "मदद": 5422,
      "परिवार": 5423,
      "##तों": 5424,
      "पूरी": 5425,
      "बैठक": 5426,
      "##ency": 5427,
      "##प्र": 5428,
      "mark": 5429,
      "##ought": 5430,
      "##uction": 5431,
      "##िन्न": 5432,
      "##िले": 5433,
      "incre": 5434,
      "##ाला": 5435,
      "##kh": 5436,
      "##ार्थ": 5437,
      "इंडिया": 5438,
      "techn": 5439,
      "run": 5440,
      "##त्य": 5441,
      "adv": 5442,
      "import": 5443,
      "women": 5444,
      "month": 5445,
      "मूल": 5446,
      "bi": 5447,
      "रो": 5448,
      "down": 5449,
      "econom": 5450,
      "##ouse": 5451,
      "bus": 5452,
      "##ms": 5453,
      "भाग": 5454,
      "fac": 5455,
      "##aking": 5456,
      "पर्": 5457,
      "बनाने": 5458,
      "sou": 5459,
      "नर": 5460,
      "##ost": 5461,
      "खेल": 5462,
      "उत्तर": 5463,
      "##au": 5464,
      "##ंबर": 5465,
      "सम्म": 5466,
      "##णी": 5467,
      "अनुसार": 5468,
      "##ाया": 5469,
      "sal": 5470,
      "अधिकारी": 5471,
      "support": 5472,
      "curr": 5473,
      "विभाग": 5474,
      "investig": 5475,
      "बॉ": 5476,
      "##ric": 5477,
      "इसका": 5478,
      "##त्या": 5479,
      "स्‍": 5480,
      "conc": 5481,
      "rele": 5482,
      "show": 5483,
      "result": 5484,
      "polit": 5485,
      "second": 5486,
      "चौ": 5487,
      "अस्प": 5488,
      "accord": 5489,
      "det": 5490,
      "तब": 5491,
      "आयोज": 5492,
      "##ines": 5493,
      "निय": 5494,
      "##पाल": 5495,
      "ख़ुदा": 5496,
      "##्ला": 5497,
      "given": 5498,
      "इसलिए": 5499,
      "कंपनी": 5500,
      "students": 5501,
      "##ob": 5502,
      "बड़ी": 5503,
      "घोष": 5504,
      "अर": 5505,
      "उनका": 5506,
      "##एफ": 5507,
      "##बाद": 5508,
      "##read": 5509,
      "##ेन": 5510,
      "farm": 5511,
      "prom": 5512,
      "भूम": 5513,
      "sab": 5514,
      "मेरे": 5515,
      "##ताब": 5516,
      "बेह": 5517,
      "##क्टर": 5518,
      "kash": 5519,
      "##कृत": 5520,
      "चार": 5521,
      "tal": 5522,
      "sever": 5523,
      "resp": 5524,
      "cases": 5525,
      "project": 5526,
      "योग": 5527,
      "rep": 5528,
      "kill": 5529,
      "shah": 5530,
      "kap": 5531,
      "आव": 5532,
      "मैच": 5533,
      "##la": 5534,
      "##ected": 5535,
      "educ": 5536,
      "##इन": 5537,
      "परी": 5538,
      "##unch": 5539,
      "##तन": 5540,
      "विचार": 5541,
      "##tra": 5542,
      "committ": 5543,
      "##तम": 5544,
      "end": 5545,
      "प्रो": 5546,
      "##bi": 5547,
      "##इट": 5548,
      "व्यक्ति": 5549,
      "पत्र": 5550,
      "depart": 5551,
      "क़": 5552,
      "##oor": 5553,
      "social": 5554,
      "industr": 5555,
      "order": 5556,
      "सकती": 5557,
      "सीट": 5558,
      "शर्": 5559,
      "##stem": 5560,
      "दुनिया": 5561,
      "अल्": 5562,
      "##रि": 5563,
      "##ियर": 5564,
      "##तु": 5565,
      "##ute": 5566,
      "##तार": 5567,
      "##rem": 5568,
      "rev": 5569,
      "##ists": 5570,
      "प्राप्त": 5571,
      "शु": 5572,
      "jud": 5573,
      "##ूट": 5574,
      "कश्म": 5575,
      "mp": 5576,
      "##mir": 5577,
      "फ़": 5578,
      "केंद्रीय": 5579,
      "उसने": 5580,
      "##न्द्र": 5581,
      "contin": 5582,
      "कुल": 5583,
      "kashmir": 5584,
      "hind": 5585,
      "##ामी": 5586,
      "san": 5587,
      "रिप": 5588,
      "##oup": 5589,
      "secur": 5590,
      "मत": 5591,
      "##ina": 5592,
      "##ways": 5593,
      "##over": 5594,
      "differ": 5595,
      "करी": 5596,
      "##ploy": 5597,
      "कल": 5598,
      "##ides": 5599,
      "विदेश": 5600,
      "मिले": 5601,
      "rece": 5602,
      "death": 5603,
      "उपलब्": 5604,
      "प्रदान": 5605,
      "अभि": 5606,
      "##ेंस": 5607,
      "##श्च": 5608,
      "##ets": 5609,
      "तैयार": 5610,
      "##शल": 5611,
      "##फल": 5612,
      "##wal": 5613,
      "sent": 5614,
      "जहां": 5615,
      "सूचना": 5616,
      "gb": 5617,
      "each": 5618,
      "mus": 5619,
      "##यान": 5620,
      "संग": 5621,
      "##ren": 5622,
      "आत": 5623,
      "partic": 5624,
      "##lish": 5625,
      "exam": 5626,
      "sign": 5627,
      "वी": 5628,
      "place": 5629,
      "।\"": 5630,
      "mumb": 5631,
      "रेल": 5632,
      "open": 5633,
      "##दारी": 5634,
      "##cept": 5635,
      "तौर": 5636,
      "oper": 5637,
      "requ": 5638,
      "जीत": 5639,
      "house": 5640,
      "registered": 5641,
      "##ving": 5642,
      "launch": 5643,
      "##jab": 5644,
      "##बल": 5645,
      "train": 5646,
      "स्थिति": 5647,
      "way": 5648,
      "system": 5649,
      "##tar": 5650,
      "cle": 5651,
      "conf": 5652,
      "याद": 5653,
      "गिरफ्त": 5654,
      "संय": 5655,
      "##ंगे": 5656,
      "##सं": 5657,
      "school": 5658,
      "जीवन": 5659,
      "##arge": 5660,
      "general": 5661,
      "commission": 5662,
      "##ock": 5663,
      "group": 5664,
      "##प्": 5665,
      "##ament": 5666,
      "मज": 5667,
      "##na": 5668,
      "central": 5669,
      "information": 5670,
      "mumbai": 5671,
      "कश्मीर": 5672,
      "##ced": 5673,
      "राम": 5674,
      "उच्च": 5675,
      "##शा": 5676,
      "मामला": 5677,
      "आने": 5678,
      "look": 5679,
      "##यास": 5680,
      "सर्व": 5681,
      "उत्पा": 5682,
      "##टन": 5683,
      "मीड": 5684,
      "##ether": 5685,
      "संख्या": 5686,
      "शा": 5687,
      "media": 5688,
      "##ूरत": 5689,
      "##ived": 5690,
      "cand": 5691,
      "found": 5692,
      "दिए": 5693,
      "पहली": 5694,
      "शाह": 5695,
      "##arma": 5696,
      "punjab": 5697,
      "vir": 5698,
      "instit": 5699,
      "##iness": 5700,
      "##tern": 5701,
      "secretary": 5702,
      "प्रभाव": 5703,
      "attack": 5704,
      "##ोवा": 5705,
      "##मेश": 5706,
      "according": 5707,
      "pur": 5708,
      "सामने": 5709,
      "पो": 5710,
      "security": 5711,
      "##ended": 5712,
      "लिये": 5713,
      "व्यव": 5714,
      "##press": 5715,
      "does": 5716,
      "नए": 5717,
      "dev": 5718,
      "जल": 5719,
      "अवसर": 5720,
      "because": 5721,
      "शे": 5722,
      "international": 5723,
      "मीडिया": 5724,
      "let": 5725,
      "##ified": 5726,
      "##osed": 5727,
      "अस्पताल": 5728,
      "candid": 5729,
      "##ani": 5730,
      "##ज्ञान": 5731,
      "##रल": 5732,
      "लॉ": 5733,
      "उपयोग": 5734,
      "पार": 5735,
      "विभिन्न": 5736,
      "आम": 5737,
      "##red": 5738,
      "##दम": 5739,
      "##स्थ्य": 5740,
      "##िकेट": 5741,
      "आस": 5742,
      "win": 5743,
      "पढ़": 5744,
      "sabha": 5745,
      "##ry": 5746,
      "due": 5747,
      "held": 5748,
      "art": 5749,
      "met": 5750,
      "##गार": 5751,
      "long": 5752,
      "fur": 5753,
      "memb": 5754,
      "leader": 5755,
      "पंजा": 5756,
      "rah": 5757,
      "पूरा": 5758,
      "cricket": 5759,
      "##kar": 5760,
      "val": 5761,
      "बड़ा": 5762,
      "##चे": 5763,
      "निर्देश": 5764,
      "कभी": 5765,
      "##orts": 5766,
      "मौके": 5767,
      "leaders": 5768,
      "far": 5769,
      "यदि": 5770,
      "##ology": 5771,
      "स्वास्थ्य": 5772,
      "same": 5773,
      "उपलब्ध": 5774,
      "##िश्": 5775,
      "special": 5776,
      "...": 5777,
      "cer": 5778,
      "रिपोर्ट": 5779,
      "ap": 5780,
      "head": 5781,
      "members": 5782,
      "##वान": 5783,
      "##लि": 5784,
      "इसी": 5785,
      "progr": 5786,
      "leg": 5787,
      "प्रकार": 5788,
      "cre": 5789,
      "vill": 5790,
      "lord": 5791,
      "जग": 5792,
      "read": 5793,
      "main": 5794,
      "children": 5795,
      "पेश": 5796,
      "होंगे": 5797,
      "want": 5798,
      "देशों": 5799,
      "बंद": 5800,
      "##ासन": 5801,
      "##रिक": 5802,
      "सहयोग": 5803,
      "##ued": 5804,
      "शिक्षा": 5805,
      "##ंबई": 5806,
      "##ull": 5807,
      "आपको": 5808,
      "##्वी": 5809,
      "rail": 5810,
      "हे": 5811,
      "spot": 5812,
      "sharma": 5813,
      "##धन": 5814,
      "reach": 5815,
      "फीस": 5816,
      "##ायल": 5817,
      "जाना": 5818,
      "commun": 5819,
      "##ote": 5820,
      "इसकी": 5821,
      "##हाय": 5822,
      "कीमत": 5823,
      "केवल": 5824,
      "##pur": 5825,
      "प्रदर्शन": 5826,
      "##ूह": 5827,
      "पड़": 5828,
      "##श्यक": 5829,
      "निर्माण": 5830,
      "further": 5831,
      "##ress": 5832,
      "pet": 5833,
      "##sp": 5834,
      "alle": 5835,
      "दिखा": 5836,
      "यहोवा": 5837,
      "arrested": 5838,
      "process": 5839,
      "श्र": 5840,
      "वाला": 5841,
      "महत्व": 5842,
      "injured": 5843,
      "own": 5844,
      "##tries": 5845,
      "लड़": 5846,
      "##ati": 5847,
      "##मेंट": 5848,
      "बाज": 5849,
      "##att": 5850,
      "belie": 5851,
      "plan": 5852,
      "क्रिकेट": 5853,
      "exp": 5854,
      "पांच": 5855,
      "road": 5856,
      "##स्थान": 5857,
      "कोर्ट": 5858,
      "ext": 5859,
      "avail": 5860,
      "##az": 5861,
      "करती": 5862,
      "पता": 5863,
      "stand": 5864,
      "##erg": 5865,
      "big": 5866,
      "sim": 5867,
      "sw": 5868,
      "maj": 5869,
      "##ave": 5870,
      "tem": 5871,
      "##ern": 5872,
      "##काश": 5873,
      "शर्मा": 5874,
      "##ention": 5875,
      "days": 5876,
      "##वर्": 5877,
      "##jay": 5878,
      "several": 5879,
      "along": 5880,
      "grow": 5881,
      "जे": 5882,
      "छात्र": 5883,
      "land": 5884,
      "five": 5885,
      "अधिकारियों": 5886,
      "मुंबई": 5887,
      "नरेंद्र": 5888,
      "various": 5889,
      "पंजाब": 5890,
      "गै": 5891,
      "स्थित": 5892,
      "##ted": 5893,
      "elect": 5894,
      "आवश्यक": 5895,
      "मौजूद": 5896,
      "hum": 5897,
      "डे": 5898,
      "नजर": 5899,
      "##ves": 5900,
      "next": 5901,
      "सहाय": 5902,
      "##ience": 5903,
      "great": 5904,
      "विधान": 5905,
      "##जेपी": 5906,
      "##वाह": 5907,
      "##abad": 5908,
      "cov": 5909,
      "why": 5910,
      "est": 5911,
      "sl": 5912,
      "says": 5913,
      "सौ": 5914,
      "##जय": 5915,
      "भर": 5916,
      "##ination": 5917,
      "##र्फ": 5918,
      "regard": 5919,
      "‘‘": 5920,
      "अमेरिका": 5921,
      "##ायत": 5922,
      "##क्रिया": 5923,
      "prev": 5924,
      "##ाइल": 5925,
      "बस": 5926,
      "बढ़ा": 5927,
      "jeh": 5928,
      "matter": 5929,
      "based": 5930,
      "जाती": 5931,
      "शहर": 5932,
      "ते": 5933,
      "terror": 5934,
      "##ered": 5935,
      "होते": 5936,
      "राजनी": 5937,
      "occas": 5938,
      "वो": 5939,
      "##thers": 5940,
      "नौ": 5941,
      "##ष्ट्र": 5942,
      "##श्व": 5943,
      "##ys": 5944,
      "##भव": 5945,
      "##ages": 5946,
      "अह": 5947,
      "कर्म": 5948,
      "##eration": 5949,
      "आया": 5950,
      "##ेक": 5951,
      "##टक": 5952,
      "हमारी": 5953,
      "tot": 5954,
      "schem": 5955,
      "दक्ष": 5956,
      "##त्री": 5957,
      "around": 5958,
      "others": 5959,
      "सेना": 5960,
      "##ims": 5961,
      "मैंने": 5962,
      "sk": 5963,
      "स्तर": 5964,
      "##ल्ड": 5965,
      "pa": 5966,
      "education": 5967,
      "##जार": 5968,
      "बड़े": 5969,
      "बीजेपी": 5970,
      "used": 5971,
      "real": 5972,
      "व्याप": 5973,
      "सचिव": 5974,
      "another": 5975,
      "took": 5976,
      "आग": 5977,
      "##land": 5978,
      "राहुल": 5979,
      "mal": 5980,
      "##लर": 5981,
      "समर्थ": 5982,
      "assemb": 5983,
      "##पित": 5984,
      "auth": 5985,
      "कौ": 5986,
      "jehov": 5987,
      "jehovah": 5988,
      "##ient": 5989,
      "coll": 5990,
      "अंत": 5991,
      "##नाथ": 5992,
      "##ety": 5993,
      "##ized": 5994,
      "चि": 5995,
      "अनुम": 5996,
      "quest": 5997,
      "##wards": 5998,
      "sat": 5999,
      "##iti": 6000,
      "ऐसी": 6001,
      "##माल": 6002,
      "##istr": 6003,
      "लाभ": 6004,
      "vide": 6005,
      "later": 6006,
      "##एन": 6007,
      "नागर": 6008,
      "उद्": 6009,
      "mahar": 6010,
      "माल": 6011,
      "ur": 6012,
      "सके": 6013,
      "अद": 6014,
      "रे": 6015,
      "kapoor": 6016,
      "##bs": 6017,
      "स्म": 6018,
      "अफ": 6019,
      "##हाँ": 6020,
      "##्यान": 6021,
      "pay": 6022,
      "भाष": 6023,
      "bas": 6024,
      "department": 6025,
      "must": 6026,
      "account": 6027,
      "announ": 6028,
      "pan": 6029,
      "level": 6030,
      "use": 6031,
      "director": 6032,
      "जवा": 6033,
      "##ुट": 6034,
      "board": 6035,
      "शी": 6036,
      "ir": 6037,
      "##डा": 6038,
      "##वरी": 6039,
      "मिला": 6040,
      "मुद्": 6041,
      "##ined": 6042,
      "स्थान": 6043,
      "south": 6044,
      "दिव": 6045,
      "##ds": 6046,
      "न्यू": 6047,
      "प्रयास": 6048,
      "best": 6049,
      "##els": 6050,
      "न्यायालय": 6051,
      "told": 6052,
      "bill": 6053,
      "action": 6054,
      "परिय": 6055,
      "गिरफ्तार": 6056,
      "occasion": 6057,
      "##काल": 6058,
      "कपूर": 6059,
      "situ": 6060,
      "match": 6061,
      "##ठन": 6062,
      "##adh": 6063,
      "too": 6064,
      "univers": 6065,
      "परियोजना": 6066,
      "tim": 6067,
      "##ove": 6068,
      "remain": 6069,
      "मध्य": 6070,
      "book": 6071,
      "polic": 6072,
      "##हन": 6073,
      "farmers": 6074,
      "##बंधन": 6075,
      "rahul": 6076,
      "पीएम": 6077,
      "going": 6078,
      "##ंगा": 6079,
      "senior": 6080,
      "##षि": 6081,
      "##मता": 6082,
      "city": 6083,
      "##ature": 6084,
      "##ृह": 6085,
      "poll": 6086,
      "##ष्‍": 6087,
      "##ek": 6088,
      "परमेश": 6089,
      "##कृ": 6090,
      "जाएगी": 6091,
      "##ner": 6092,
      "##यों": 6093,
      "bene": 6094,
      "जल्": 6095,
      "##तंत्र": 6096,
      "conn": 6097,
      "पत्": 6098,
      "sol": 6099,
      "gre": 6100,
      "##ग्रह": 6101,
      "address": 6102,
      "मही": 6103,
      "##कर्": 6104,
      "न्याय": 6105,
      "##br": 6106,
      "##sc": 6107,
      "भे": 6108,
      "ent": 6109,
      "सदस्य": 6110,
      "chair": 6111,
      "acr": 6112,
      "##ायक": 6113,
      "chand": 6114,
      "arm": 6115,
      "बाहर": 6116,
      "different": 6117,
      "चीन": 6118,
      "##्ले": 6119,
      "point": 6120,
      "##ृद्ध": 6121,
      "countries": 6122,
      "major": 6123,
      "assembly": 6124,
      "बर": 6125,
      "since": 6126,
      "yet": 6127,
      "##iel": 6128,
      "उसका": 6129,
      "नागरिक": 6130,
      "sector": 6131,
      "पूछ": 6132,
      "ah": 6133,
      "गा": 6134,
      "वीड": 6135,
      "छोड़": 6136,
      "##ying": 6137,
      "करके": 6138,
      "##arat": 6139,
      "प्रक्रिया": 6140,
      "जिसके": 6141,
      "ताकि": 6142,
      "फोन": 6143,
      "tel": 6144,
      "मामलों": 6145,
      "##augh": 6146,
      "imp": 6147,
      "##aw": 6148,
      "##king": 6149,
      "##iend": 6150,
      "author": 6151,
      "विरो": 6152,
      "added": 6153,
      "pos": 6154,
      "##ालन": 6155,
      "अति": 6156,
      "##ुष": 6157,
      "##ashtra": 6158,
      "क्षेत्रों": 6159,
      "दर्": 6160,
      "near": 6161,
      "अल्लाह": 6162,
      "दक्षि": 6163,
      "total": 6164,
      "देते": 6165,
      "covid": 6166,
      "lok": 6167,
      "visit": 6168,
      "##भग": 6169,
      "##ूरी": 6170,
      "issue": 6171,
      "ref": 6172,
      "jan": 6173,
      "##डे": 6174,
      "services": 6175,
      "tax": 6176,
      "कैसे": 6177,
      "आतंक": 6178,
      "##ti": 6179,
      "earli": 6180,
      "equ": 6181,
      "##वीर": 6182,
      "बयान": 6183,
      "आर्थ": 6184,
      "वज": 6185,
      "benef": 6186,
      "##लिया": 6187,
      "चर्": 6188,
      "##ma": 6189,
      "करेगा": 6190,
      "करीब": 6191,
      "गं": 6192,
      "##ias": 6193,
      "called": 6194,
      "area": 6195,
      "संप": 6196,
      "express": 6197,
      "पश्च": 6198,
      "respect": 6199,
      "##ason": 6200,
      "##तेमाल": 6201,
      "employ": 6202,
      "body": 6203,
      "west": 6204,
      "लगभग": 6205,
      "cla": 6206,
      "##arh": 6207,
      "started": 6208,
      "##नल": 6209,
      "संघ": 6210,
      "chr": 6211,
      "##ope": 6212,
      "ध्यान": 6213,
      "prof": 6214,
      "##ुआ": 6215,
      "वजह": 6216,
      "पश्चिम": 6217,
      "complet": 6218,
      "रहने": 6219,
      "तरफ": 6220,
      "killed": 6221,
      "important": 6222,
      "आर्थिक": 6223,
      "##ात": 6224,
      "uttar": 6225,
      "राज्यों": 6226,
      "##ुद": 6227,
      "programm": 6228,
      "फर": 6229,
      "##ंका": 6230,
      "give": 6231,
      "गयी": 6232,
      "धारा": 6233,
      "##हरा": 6234,
      "##ांत": 6235,
      "decl": 6236,
      "justice": 6237,
      "तेल": 6238,
      "mil": 6239,
      "वीडियो": 6240,
      "beng": 6241,
      "##ेंद": 6242,
      "##ेस": 6243,
      "maharashtra": 6244,
      "##्‍वर": 6245,
      "list": 6246,
      "much": 6247,
      "asked": 6248,
      "company": 6249,
      "जगह": 6250,
      "प्रण": 6251,
      "price": 6252,
      "##्प": 6253,
      "नियम": 6254,
      "रोक": 6255,
      "दूर": 6256,
      "सीमा": 6257,
      "##ंदी": 6258,
      "फैसला": 6259,
      "committee": 6260,
      "स्कूल": 6261,
      "लेने": 6262,
      "एज": 6263,
      "संबंधित": 6264,
      "##ष्ट्रीय": 6265,
      "across": 6266,
      "bengal": 6267,
      "पूर्": 6268,
      "विधानसभा": 6269,
      "sup": 6270,
      "उम्मीदवार": 6271,
      "जिले": 6272,
      "कोवि": 6273,
      "poss": 6274,
      "seen": 6275,
      "elections": 6276,
      "business": 6277,
      "##मिक": 6278,
      "##गढ़": 6279,
      "पानी": 6280,
      "कार्र": 6281,
      "भूमिका": 6282,
      "मं": 6283,
      "section": 6284,
      "लिख": 6285,
      "##erc": 6286,
      "परीक्षा": 6287,
      "निवेश": 6288,
      "होना": 6289,
      "स्था": 6290,
      "रखा": 6291,
      "fund": 6292,
      "आयोग": 6293,
      "जिसे": 6294,
      "##तना": 6295,
      "शेयर": 6296,
      "reported": 6297,
      "##गू": 6298,
      "##ession": 6299,
      "region": 6300,
      "##जरा": 6301,
      "earlier": 6302,
      "##ैल": 6303,
      "आदेश": 6304,
      "कृषि": 6305,
      "##िशा": 6306,
      "class": 6307,
      "guj": 6308,
      "मिली": 6309,
      "महत्वपूर्ण": 6310,
      "##ulture": 6311,
      "शिव": 6312,
      "सहित": 6313,
      "div": 6314,
      "##ction": 6315,
      "रक्षा": 6316,
      "मिश": 6317,
      "कानून": 6318,
      "कार्रवाई": 6319,
      "exper": 6320,
      "पिता": 6321,
      "##यू": 6322,
      "फीसदी": 6323,
      "##wh": 6324,
      "record": 6325,
      "political": 6326,
      "following": 6327,
      "demand": 6328,
      "shar": 6329,
      "इस्तेमाल": 6330,
      "beh": 6331,
      "mean": 6332,
      "##ट्र": 6333,
      "succ": 6334,
      "##io": 6335,
      "friend": 6336,
      "won": 6337,
      "##por": 6338,
      "fire": 6339,
      "##ल्प": 6340,
      "विष": 6341,
      "appr": 6342,
      "महारा": 6343,
      "kh": 6344,
      "दिनों": 6345,
      "##aff": 6346,
      "consid": 6347,
      "आरोपी": 6348,
      "##oh": 6349,
      "keep": 6350,
      "decision": 6351,
      "तरी": 6352,
      "available": 6353,
      "जवाब": 6354,
      "##ened": 6355,
      "qual": 6356,
      "persons": 6357,
      "वित्त": 6358,
      "मृत": 6359,
      "कोश": 6360,
      "मजब": 6361,
      "activ": 6362,
      "##भीर": 6363,
      "कर्": 6364,
      "heav": 6365,
      "अर्थ": 6366,
      "वरि": 6367,
      "officials": 6368,
      "top": 6369,
      "परमेश्‍वर": 6370,
      "इला": 6371,
      "peri": 6372,
      "##oot": 6373,
      "रन": 6374,
      "आद": 6375,
      "proble": 6376,
      "##ising": 6377,
      "##eign": 6378,
      "north": 6379,
      "sam": 6380,
      "food": 6381,
      "दल": 6382,
      "##ानि": 6383,
      "सफल": 6384,
      "##ump": 6385,
      "jamm": 6386,
      "cit": 6387,
      "माध्य": 6388,
      "bihar": 6389,
      "##चान": 6390,
      "old": 6391,
      "##िक्ष": 6392,
      "जम्म": 6393,
      "उद्योग": 6394,
      "nam": 6395,
      "enter": 6396,
      "##ित्र": 6397,
      "##द्यालय": 6398,
      "सुवि": 6399,
      "name": 6400,
      "##ering": 6401,
      "centre": 6402,
      "हाथ": 6403,
      "अहम": 6404,
      "चुके": 6405,
      "जम्मू": 6406,
      "घायल": 6407,
      "##ुड": 6408,
      "six": 6409,
      "mill": 6410,
      "समूह": 6411,
      "period": 6412,
      "parli": 6413,
      "soon": 6414,
      "glob": 6415,
      "fact": 6416,
      "men": 6417,
      "गति": 6418,
      "thir": 6419,
      "##iving": 6420,
      "टेस्ट": 6421,
      "put": 6422,
      "जनता": 6423,
      "build": 6424,
      "video": 6425,
      "सिर्फ": 6426,
      "jammu": 6427,
      "came": 6428,
      "##com": 6429,
      "बाजार": 6430,
      "खे": 6431,
      "##aint": 6432,
      "never": 6433,
      "##िक्स": 6434,
      "##af": 6435,
      "##ption": 6436,
      "जिन्ह": 6437,
      "done": 6438,
      "##ired": 6439,
      "##ंदर": 6440,
      "हिस्सा": 6441,
      "अदाल": 6442,
      "##reme": 6443,
      "गृह": 6444,
      "सामान": 6445,
      "unt": 6446,
      "##हरी": 6447,
      "##vers": 6448,
      "##्टी": 6449,
      "conduct": 6450,
      "parliament": 6451,
      "खुद": 6452,
      "मेरी": 6453,
      "##फा": 6454,
      "रखने": 6455,
      "service": 6456,
      "अभिने": 6457,
      "away": 6458,
      "बच्चों": 6459,
      "situation": 6460,
      "मुताब": 6461,
      "##त्ता": 6462,
      "interest": 6463,
      "बेट": 6464,
      "वहां": 6465,
      "hary": 6466,
      "बिल": 6467,
      "##sh": 6468,
      "रोज": 6469,
      "बनाया": 6470,
      "return": 6471,
      "मुताबिक": 6472,
      "gir": 6473,
      "बनाए": 6474,
      "election": 6475,
      "areas": 6476,
      "discuss": 6477,
      "think": 6478,
      "##airs": 6479,
      "don": 6480,
      "गंभीर": 6481,
      "exc": 6482,
      "turn": 6483,
      "अधिन": 6484,
      "##त्‍": 6485,
      "जिससे": 6486,
      "camp": 6487,
      "अच्छा": 6488,
      "##शु": 6489,
      "##त्मक": 6490,
      "market": 6491,
      "समा": 6492,
      "##तियों": 6493,
      "role": 6494,
      "cam": 6495,
      "##क्षित": 6496,
      "डाल": 6497,
      "खरी": 6498,
      "जाते": 6499,
      "china": 6500,
      "ट्रे": 6501,
      "सार": 6502,
      "संयुक्त": 6503,
      "दक्षिण": 6504,
      "धन": 6505,
      "##adu": 6506,
      "haryana": 6507,
      "चुन": 6508,
      "##जों": 6509,
      "बोर्ड": 6510,
      "सड़": 6511,
      "##eal": 6512,
      "समिति": 6513,
      "##ength": 6514,
      "##शि": 6515,
      "##र्च": 6516,
      "##ोस": 6517,
      "##atch": 6518,
      "हास": 6519,
      "सुधार": 6520,
      "##ोब": 6521,
      "##earch": 6522,
      "लगाया": 6523,
      "research": 6524,
      "बंग": 6525,
      "रस": 6526,
      "impr": 6527,
      "आयोजित": 6528,
      "चाहते": 6529,
      "##व्य": 6530,
      "pop": 6531,
      "पूरे": 6532,
      "rest": 6533,
      "allow": 6534,
      "यात्रा": 6535,
      "##ven": 6536,
      "मार": 6537,
      "जरूरत": 6538,
      "चर्चा": 6539,
      "अधिनियम": 6540,
      "महाराष्ट्र": 6541,
      "##oint": 6542,
      "तुम्हारे": 6543,
      "##सेना": 6544,
      "##era": 6545,
      "##agar": 6546,
      "news": 6547,
      "gujarat": 6548,
      "vict": 6549,
      "hold": 6550,
      "hy": 6551,
      "technology": 6552,
      "##िस्ट": 6553,
      "##ील": 6554,
      "mess": 6555,
      "##बीआई": 6556,
      "##ॉल": 6557,
      "sour": 6558,
      "ke": 6559,
      "office": 6560,
      "रुपए": 6561,
      "actor": 6562,
      "##oney": 6563,
      "##ांस": 6564,
      "##ग्": 6565,
      "##mi": 6566,
      "ident": 6567,
      "##itted": 6568,
      "एयर": 6569,
      "addition": 6570,
      "धर्म": 6571,
      "वरिष्ठ": 6572,
      "##ृद्धि": 6573,
      "##सल": 6574,
      "investigation": 6575,
      "बल्कि": 6576,
      "##स्थित": 6577,
      "सुविधा": 6578,
      "\"\"\"\"": 6579,
      "##ateg": 6580,
      "things": 6581,
      "##रों": 6582,
      "##लाई": 6583,
      "become": 6584,
      "earth": 6585,
      "particip": 6586,
      "शिकायत": 6587,
      "सांस": 6588,
      "##हास": 6589,
      "कदम": 6590,
      "डा": 6591,
      "पक्ष": 6592,
      "समर्थन": 6593,
      "बज": 6594,
      "वाप": 6595,
      "##uty": 6596,
      "##ees": 6597,
      "cost": 6598,
      "human": 6599,
      "step": 6600,
      "देता": 6601,
      "##ead": 6602,
      "##झा": 6603,
      "गि": 6604,
      "ens": 6605,
      "success": 6606,
      "थीं": 6607,
      "हासिल": 6608,
      "लिखा": 6609,
      "संस": 6610,
      "expect": 6611,
      "view": 6612,
      "सरकारी": 6613,
      "##िटी": 6614,
      "constit": 6615,
      "series": 6616,
      "financ": 6617,
      "##eet": 6618,
      "अदालत": 6619,
      "दौ": 6620,
      "mot": 6621,
      "वायर": 6622,
      "##स्या": 6623,
      "##र्जी": 6624,
      "##ंभ": 6625,
      "जिला": 6626,
      "move": 6627,
      "supreme": 6628,
      "asso": 6629,
      "स्वी": 6630,
      "जल्द": 6631,
      "scheme": 6632,
      "##वरण": 6633,
      "बच": 6634,
      "हरिया": 6635,
      "army": 6636,
      "गुजरा": 6637,
      "फ्र": 6638,
      "economic": 6639,
      "दृ": 6640,
      "care": 6641,
      "##ready": 6642,
      "लक्ष": 6643,
      "कप्त": 6644,
      "already": 6645,
      "amit": 6646,
      "पोस्ट": 6647,
      "##प्री": 6648,
      "कहना": 6649,
      "priv": 6650,
      "effect": 6651,
      "प्रकाश": 6652,
      "##वादी": 6653,
      "viol": 6654,
      "##िम्म": 6655,
      "hist": 6656,
      "##ियान": 6657,
      "candidates": 6658,
      "##ences": 6659,
      "लागू": 6660,
      "medical": 6661,
      "got": 6662,
      "अप्र": 6663,
      "associ": 6664,
      "university": 6665,
      "संभाव": 6666,
      "har": 6667,
      "applic": 6668,
      "किसानों": 6669,
      "##ng": 6670,
      "इंटर": 6671,
      "दें": 6672,
      "##ield": 6673,
      "रण": 6674,
      "##भर": 6675,
      "super": 6676,
      "affairs": 6677,
      "हत्या": 6678,
      "नीति": 6679,
      "हरियाणा": 6680,
      "few": 6681,
      "घोषणा": 6682,
      "##nt": 6683,
      "लोकसभा": 6684,
      "fun": 6685,
      "##stand": 6686,
      "foreign": 6687,
      "bir": 6688,
      "ple": 6689,
      "making": 6690,
      "stor": 6691,
      "सहायता": 6692,
      "village": 6693,
      "inde": 6694,
      "perform": 6695,
      "without": 6696,
      "##कट": 6697,
      "प्रौ": 6698,
      "##par": 6699,
      "chall": 6700,
      "##ूर्ति": 6701,
      "##सत": 6702,
      "महीने": 6703,
      "##तिम": 6704,
      "austr": 6705,
      "##ण्ड": 6706,
      "समस्या": 6707,
      "upon": 6708,
      "##क्ता": 6709,
      "rul": 6710,
      "seats": 6711,
      "##षण": 6712,
      "treat": 6713,
      "कोशिश": 6714,
      "local": 6715,
      "##icle": 6716,
      "बेहतर": 6717,
      "अन्": 6718,
      "##धिकार": 6719,
      "माध्यम": 6720,
      "##र्गत": 6721,
      "spok": 6722,
      "हजार": 6723,
      "rain": 6724,
      "##ज़ा": 6725,
      "##ectr": 6726,
      "##ंडी": 6727,
      "##्क": 6728,
      "times": 6729,
      "currently": 6730,
      "mov": 6731,
      "relations": 6732,
      "व्यक्त": 6733,
      "deep": 6734,
      "##res": 6735,
      "##वुड": 6736,
      "##टे": 6737,
      "##itness": 6738,
      "ran": 6739,
      "##ष्टि": 6740,
      "admin": 6741,
      "working": 6742,
      "एल": 6743,
      "ज़र": 6744,
      "father": 6745,
      "defence": 6746,
      "##र्जा": 6747,
      "##ained": 6748,
      "event": 6749,
      "तम": 6750,
      "face": 6751,
      "##asth": 6752,
      "भाषा": 6753,
      "##agement": 6754,
      "char": 6755,
      "##ीक": 6756,
      "##wood": 6757,
      "##्‍या": 6758,
      "##तरी": 6759,
      "##िवार": 6760,
      "##तिहास": 6761,
      "पैदा": 6762,
      "##ele": 6763,
      "alleged": 6764,
      "बिहार": 6765,
      "tour": 6766,
      "बल": 6767,
      "##olly": 6768,
      "##ours": 6769,
      "सवाल": 6770,
      "##हाल": 6771,
      "electr": 6772,
      "##त्ति": 6773,
      "claim": 6774,
      "clear": 6775,
      "girl": 6776,
      "##ॉन": 6777,
      "कैम": 6778,
      "wife": 6779,
      "fa": 6780,
      "गुजरात": 6781,
      "प्रौद्योग": 6782,
      "austral": 6783,
      "##ala": 6784,
      "tog": 6785,
      "##देशक": 6786,
      "citiz": 6787,
      "bre": 6788,
      "led": 6789,
      "statement": 6790,
      "##ेम": 6791,
      "संब": 6792,
      "##line": 6793,
      "##वेदन": 6794,
      "उल्": 6795,
      "यही": 6796,
      "##sel": 6797,
      "bhar": 6798,
      "##ew": 6799,
      "##स्ताव": 6800,
      "समाज": 6801,
      "saf": 6802,
      "shiv": 6803,
      "##uly": 6804,
      "provide": 6805,
      "##aged": 6806,
      "दूसरी": 6807,
      "कोविड": 6808,
      "##ortun": 6809,
      "बदल": 6810,
      "तीस": 6811,
      "प्रस्ताव": 6812,
      "चला": 6813,
      "question": 6814,
      "civ": 6815,
      "indias": 6816,
      "od": 6817,
      "सें": 6818,
      "bar": 6819,
      "एफ": 6820,
      "##ांति": 6821,
      "आपके": 6822,
      "तस्": 6823,
      "गेंद": 6824,
      "सै": 6825,
      "jun": 6826,
      "eas": 6827,
      "repr": 6828,
      "gold": 6829,
      "पहचान": 6830,
      "भेज": 6831,
      "##काब": 6832,
      "विरोध": 6833,
      "love": 6834,
      "beg": 6835,
      "बदला": 6836,
      "आख": 6837,
      "##uced": 6838,
      "परिण": 6839,
      "bring": 6840,
      "##ference": 6841,
      "cust": 6842,
      "##ium": 6843,
      "लगे": 6844,
      "announced": 6845,
      "मी": 6846,
      "युवा": 6847,
      "lim": 6848,
      "ठीक": 6849,
      "som": 6850,
      "money": 6851,
      "उनसे": 6852,
      "together": 6853,
      "launched": 6854,
      "देखा": 6855,
      "finance": 6856,
      "यून": 6857,
      "##be": 6858,
      "christ": 6859,
      "##not": 6860,
      "dh": 6861,
      "card": 6862,
      "##र्ग": 6863,
      "initi": 6864,
      "##ale": 6865,
      "hon": 6866,
      "कहते": 6867,
      "heart": 6868,
      "colle": 6869,
      "control": 6870,
      "cele": 6871,
      "global": 6872,
      "woman": 6873,
      "##िश्चित": 6874,
      "निर्ण": 6875,
      "##ल्स": 6876,
      "गल": 6877,
      "एंड": 6878,
      "war": 6879,
      "क्षमता": 6880,
      "mor": 6881,
      "पेट": 6882,
      "व्यवस्था": 6883,
      "संर": 6884,
      "##ately": 6885,
      "मंद": 6886,
      "growth": 6887,
      "##uck": 6888,
      "एक्स": 6889,
      "known": 6890,
      "trad": 6891,
      "##ling": 6892,
      "अमेरिकी": 6893,
      "trib": 6894,
      "product": 6895,
      "##ram": 6896,
      "विप": 6897,
      "nation": 6898,
      "lot": 6899,
      "##get": 6900,
      "industry": 6901,
      "##विद्यालय": 6902,
      "##ंद्र": 6903,
      "चुकी": 6904,
      "पुन": 6905,
      "net": 6906,
      "policy": 6907,
      "teach": 6908,
      "##idence": 6909,
      "सम्मान": 6910,
      "mr": 6911,
      "उठा": 6912,
      "प्रयोग": 6913,
      "करो": 6914,
      "agric": 6915,
      "relig": 6916,
      "देना": 6917,
      "##कृति": 6918,
      "##नीय": 6919,
      "##बू": 6920,
      "still": 6921,
      "ban": 6922,
      "कप्तान": 6923,
      "deb": 6924,
      "गये": 6925,
      "##inal": 6926,
      "सोशल": 6927,
      "अच्छी": 6928,
      "till": 6929,
      "financial": 6930,
      "strength": 6931,
      "third": 6932,
      "##ises": 6933,
      "उद": 6934,
      "##ांड": 6935,
      "सही": 6936,
      "भाई": 6937,
      "member": 6938,
      "संस्": 6939,
      "##लीवुड": 6940,
      "rajasth": 6941,
      "celebr": 6942,
      "died": 6943,
      "##ोप": 6944,
      "परिणाम": 6945,
      "ach": 6946,
      "taking": 6947,
      "find": 6948,
      "रि": 6949,
      "मार्ग": 6950,
      "reached": 6951,
      "शुरुआ": 6952,
      "imple": 6953,
      "##ually": 6954,
      "जय": 6955,
      "##ंडल": 6956,
      "पीछ": 6957,
      "##ily": 6958,
      "##iety": 6959,
      "free": 6960,
      "##स्ट्रे": 6961,
      "ट्वी": 6962,
      "पट": 6963,
      "गांव": 6964,
      "complaint": 6965,
      "पर्या": 6966,
      "change": 6967,
      "वास्त": 6968,
      "press": 6969,
      "strong": 6970,
      "inn": 6971,
      "##iy": 6972,
      "गुर": 6973,
      "वाय": 6974,
      "##cil": 6975,
      "hard": 6976,
      "सैन": 6977,
      "##ष्य": 6978,
      "##itions": 6979,
      "##ollywood": 6980,
      "कंपन": 6981,
      "award": 6982,
      "king": 6983,
      "##िकल": 6984,
      "भारी": 6985,
      "वृद्धि": 6986,
      "##aka": 6987,
      "##bed": 6988,
      "रिक": 6989,
      "better": 6990,
      "पे": 6991,
      "force": 6992,
      "पत्नी": 6993,
      "##गल": 6994,
      "प्रशासन": 6995,
      "expl": 6996,
      "वन": 6997,
      "implement": 6998,
      "भु": 6999,
      "##शोध": 7000,
      "##कल": 7001,
      "वेब": 7002,
      "आदि": 7003,
      "बिना": 7004,
      "##ेशा": 7005,
      "##ेद": 7006,
      "सार्व": 7007,
      "final": 7008,
      "rajasthan": 7009,
      "veh": 7010,
      "data": 7011,
      "निश": 7012,
      "##तरा": 7013,
      "issued": 7014,
      "अतिरिक": 7015,
      "bang": 7016,
      "recover": 7017,
      "प्रत्य": 7018,
      "captain": 7019,
      "issues": 7020,
      "महिलाओं": 7021,
      "रै": 7022,
      "राजनीतिक": 7023,
      "##पन": 7024,
      "##ones": 7025,
      "peace": 7026,
      "##itor": 7027,
      "week": 7028,
      "youth": 7029,
      "received": 7030,
      "bal": 7031,
      "civil": 7032,
      "##self": 7033,
      "detail": 7034,
      "phone": 7035,
      "##uted": 7036,
      "##ners": 7037,
      "सल": 7038,
      "भवि": 7039,
      "##मन": 7040,
      "अर्": 7041,
      "##ानीय": 7042,
      "##चन": 7043,
      "कोरो": 7044,
      "सिद्ध": 7045,
      "हूँ": 7046,
      "ट्वीट": 7047,
      "##ively": 7048,
      "officer": 7049,
      "##ork": 7050,
      "उसी": 7051,
      "ash": 7052,
      "ईमान": 7053,
      "##ification": 7054,
      "cannot": 7055,
      "##ब्द": 7056,
      "##utions": 7057,
      "small": 7058,
      "##ship": 7059,
      "chang": 7060,
      "##go": 7061,
      "large": 7062,
      "लगता": 7063,
      "##ergy": 7064,
      "##ग्री": 7065,
      "मंदिर": 7066,
      "चिक": 7067,
      "musl": 7068,
      "##hing": 7069,
      "##तृ": 7070,
      "##िम्मे": 7071,
      "##bo": 7072,
      "##स्ट्रेलिया": 7073,
      "administr": 7074,
      "##thing": 7075,
      "sel": 7076,
      "madh": 7077,
      "##ried": 7078,
      "respons": 7079,
      "plac": 7080,
      "मुकाब": 7081,
      "prin": 7082,
      "##ize": 7083,
      "प्रौद्योगिकी": 7084,
      "star": 7085,
      "बंगाल": 7086,
      "env": 7087,
      "##ाजिक": 7088,
      "karn": 7089,
      "##मर": 7090,
      "##ury": 7091,
      "##ायी": 7092,
      "##्रोल": 7093,
      "आधारित": 7094,
      "##लू": 7095,
      "ministers": 7096,
      "हमेशा": 7097,
      "vot": 7098,
      "बाल": 7099,
      "##adav": 7100,
      "उससे": 7101,
      "##ait": 7102,
      "lab": 7103,
      "##सम": 7104,
      "हमले": 7105,
      "protest": 7106,
      "concern": 7107,
      "##ूब": 7108,
      "मॉ": 7109,
      "learn": 7110,
      "witness": 7111,
      "कमी": 7112,
      "दिख": 7113,
      "बाइ": 7114,
      "##inder": 7115,
      "programme": 7116,
      "ज्ञ": 7117,
      "खबर": 7118,
      "भाव": 7119,
      "##वाले": 7120,
      "प्रभ": 7121,
      "cbi": 7122,
      "अगले": 7123,
      "##चीत": 7124,
      "##itive": 7125,
      "constr": 7126,
      "लगातार": 7127,
      "स्पष्ट": 7128,
      "बिज": 7129,
      "जम": 7130,
      "बातचीत": 7131,
      "वाह": 7132,
      "पहला": 7133,
      "young": 7134,
      "##न्म": 7135,
      "phot": 7136,
      "include": 7137,
      "##ras": 7138,
      "दिशा": 7139,
      "नियंत्र": 7140,
      "##ians": 7141,
      "नव": 7142,
      "##्ब": 7143,
      "fut": 7144,
      "##ential": 7145,
      "full": 7146,
      "##idd": 7147,
      "मोह": 7148,
      "towards": 7149,
      "informed": 7150,
      "छोट": 7151,
      "left": 7152,
      "कोह": 7153,
      "बने": 7154,
      "##राव": 7155,
      "nav": 7156,
      "##शिया": 7157,
      "अवधि": 7158,
      "vice": 7159,
      "##लब": 7160,
      "लाल": 7161,
      "रेलवे": 7162,
      "mur": 7163,
      "शि": 7164,
      "##शनल": 7165,
      "##ourn": 7166,
      "coop": 7167,
      "इनमें": 7168,
      "##anka": 7169,
      "council": 7170,
      "yadav": 7171,
      "हाई": 7172,
      "संगठन": 7173,
      "नोट": 7174,
      "pand": 7175,
      "समुद": 7176,
      "saying": 7177,
      "##सान": 7178,
      "ऊर्जा": 7179,
      "##acy": 7180,
      "daugh": 7181,
      "capital": 7182,
      "il": 7183,
      "निजी": 7184,
      "##खंड": 7185,
      "##ंगल": 7186,
      "##एँ": 7187,
      "oppos": 7188,
      "##oved": 7189,
      "enc": 7190,
      "##ारोह": 7191,
      "सामाजिक": 7192,
      "सुनिश्चित": 7193,
      "##नेट": 7194,
      "bud": 7195,
      "dont": 7196,
      "##र्ती": 7197,
      "कोरोना": 7198,
      "##iance": 7199,
      "stat": 7200,
      "movie": 7201,
      "विषय": 7202,
      "##चिका": 7203,
      "विकेट": 7204,
      "within": 7205,
      "तेज": 7206,
      "##ुओं": 7207,
      "मजबूत": 7208,
      "##किंग": 7209,
      "bollywood": 7210,
      "बल्ले": 7211,
      "समारोह": 7212,
      "cab": 7213,
      "di": 7214,
      "##ंसा": 7215,
      "##isation": 7216,
      "##orn": 7217,
      "##ाज़": 7218,
      "मेरा": 7219,
      "repres": 7220,
      "##ार्म": 7221,
      "भविष्य": 7222,
      "चाल": 7223,
      "##app": 7224,
      "डॉलर": 7225,
      "dead": 7226,
      "भू": 7227,
      "विधायक": 7228,
      "energy": 7229,
      "##oad": 7230,
      "क्ल": 7231,
      "सलाह": 7232,
      "##enn": 7233,
      "##िली": 7234,
      "वास्तव": 7235,
      "अंग": 7236,
      "##ert": 7237,
      "runs": 7238,
      "cm": 7239,
      "lang": 7240,
      "विमान": 7241,
      "##ench": 7242,
      "अंतिम": 7243,
      "बॉलीवुड": 7244,
      "किये": 7245,
      "##जनिक": 7246,
      "##चल": 7247,
      "लौ": 7248,
      "स्थानीय": 7249,
      "चुका": 7250,
      "##onment": 7251,
      "सार्वजनिक": 7252,
      "##बाजी": 7253,
      "हिंद": 7254,
      "##nel": 7255,
      "##राब": 7256,
      "संशोध": 7257,
      "filed": 7258,
      "नगर": 7259,
      "प्रतिनि": 7260,
      "koh": 7261,
      "विस्त": 7262,
      "एच": 7263,
      "सामान्य": 7264,
      "##साह": 7265,
      "management": 7266,
      "lit": 7267,
      "ru": 7268,
      "एड": 7269,
      "##रिया": 7270,
      "##सीसी": 7271,
      "सड़क": 7272,
      "##ेलन": 7273,
      "appear": 7274,
      "चा": 7275,
      "##ances": 7276,
      "term": 7277,
      "पुरस्": 7278,
      "छात्रों": 7279,
      "suff": 7280,
      "खास": 7281,
      "##ka": 7282,
      "विद्य": 7283,
      "spir": 7284,
      "##eric": 7285,
      "उद्देश": 7286,
      "##erv": 7287,
      "##ucture": 7288,
      "released": 7289,
      "increase": 7290,
      "##ार्ड": 7291,
      "sum": 7292,
      "चाहता": 7293,
      "corpor": 7294,
      "##tc": 7295,
      "##ulation": 7296,
      "appoint": 7297,
      "फोट": 7298,
      "##ेत": 7299,
      "##क्शन": 7300,
      "##तमान": 7301,
      "##ges": 7302,
      "याचिका": 7303,
      "निर्णय": 7304,
      "यादव": 7305,
      "अभियान": 7306,
      "non": 7307,
      "##ically": 7308,
      "सुप्री": 7309,
      "##चर": 7310,
      "चिकित": 7311,
      "rate": 7312,
      "वालों": 7313,
      "सुप्रीम": 7314,
      "recently": 7315,
      "##ंख": 7316,
      "achie": 7317,
      "##ival": 7318,
      "comes": 7319,
      "प्रणाली": 7320,
      "sun": 7321,
      "##ेंड": 7322,
      "व्यापार": 7323,
      "##र्न": 7324,
      "##wan": 7325,
      "चुनौ": 7326,
      "date": 7327,
      "हाद": 7328,
      "##ony": 7329,
      "moh": 7330,
      "##ablish": 7331,
      "sure": 7332,
      "##लाइन": 7333,
      "march": 7334,
      "समझौ": 7335,
      "##सन": 7336,
      "##ps": 7337,
      "विश्वविद्यालय": 7338,
      "opportun": 7339,
      "##फोन": 7340,
      "establish": 7341,
      "united": 7342,
      "##रीज": 7343,
      "##कृतिक": 7344,
      "accident": 7345,
      "कराया": 7346,
      "always": 7347,
      "station": 7348,
      "##एच": 7349,
      "राजस्थान": 7350,
      "प्रभावित": 7351,
      "विरा": 7352,
      "##esus": 7353,
      "तस्वीर": 7354,
      "भर्ती": 7355,
      "fight": 7356,
      "front": 7357,
      "समान": 7358,
      "provided": 7359,
      "पीछे": 7360,
      "den": 7361,
      "संभावना": 7362,
      "sus": 7363,
      "गठ": 7364,
      "अतिरिक्त": 7365,
      "अपरा": 7366,
      "langu": 7367,
      "oil": 7368,
      "विज्ञान": 7369,
      "larg": 7370,
      "केस": 7371,
      "##विध": 7372,
      "##ins": 7373,
      "##cent": 7374,
      "सित": 7375,
      "smart": 7376,
      "शव": 7377,
      "##ten": 7378,
      "##te": 7379,
      "results": 7380,
      "##सित": 7381,
      "वर्तमान": 7382,
      "##ss": 7383,
      "coron": 7384,
      "साह": 7385,
      "citizens": 7386,
      "understand": 7387,
      "dom": 7388,
      "##घा": 7389,
      "feat": 7390,
      "jesus": 7391,
      "दुर्": 7392,
      "believe": 7393,
      "तुल": 7394,
      "रसूल": 7395,
      "##raft": 7396,
      "private": 7397,
      "##urs": 7398,
      "कार्ड": 7399,
      "wicket": 7400,
      "camera": 7401,
      "##फर": 7402,
      "##ट्ट": 7403,
      "##gn": 7404,
      "shared": 7405,
      "officers": 7406,
      "करा": 7407,
      "##atives": 7408,
      "port": 7409,
      "##ama": 7410,
      "sug": 7411,
      "conv": 7412,
      "##मित": 7413,
      "apr": 7414,
      "invol": 7415,
      "crit": 7416,
      "##ilities": 7417,
      "##ड्ड": 7418,
      "##medi": 7419,
      "मगर": 7420,
      "bes": 7421,
      "bad": 7422,
      "deal": 7423,
      "##ामीण": 7424,
      "##aph": 7425,
      "kohli": 7426,
      "चरण": 7427,
      "mother": 7428,
      "शरी": 7429,
      "ग्रामीण": 7430,
      "sar": 7431,
      "##.\"": 7432,
      "mob": 7433,
      "certain": 7434,
      "##ibility": 7435,
      "पस": 7436,
      "hear": 7437,
      "##ening": 7438,
      "gov": 7439,
      "dig": 7440,
      "##डल": 7441,
      "प्रशिक्ष": 7442,
      "पुरस्कार": 7443,
      "constitution": 7444,
      "मि": 7445,
      "assist": 7446,
      "karnat": 7447,
      "कोहली": 7448,
      "##ops": 7449,
      "तला": 7450,
      "rap": 7451,
      "वर्ग": 7452,
      "field": 7453,
      "##शील": 7454,
      "##फ्": 7455,
      "entire": 7456,
      "##iding": 7457,
      "##उन": 7458,
      "tre": 7459,
      "कौन": 7460,
      "वीं": 7461,
      "मानव": 7462,
      "fre": 7463,
      "nc": 7464,
      "मर": 7465,
      "kar": 7466,
      "directed": 7467,
      "स्मार्ट": 7468,
      "मिलने": 7469,
      "milit": 7470,
      "धो": 7471,
      "वापस": 7472,
      "प्रत्येक": 7473,
      "बच्चे": 7474,
      "##inet": 7475,
      "karnataka": 7476,
      "स्वतंत्र": 7477,
      "million": 7478,
      "##nday": 7479,
      "ty": 7480,
      "पर्य": 7481,
      "वार": 7482,
      "##ंज": 7483,
      "##ither": 7484,
      "prices": 7485,
      "तेजी": 7486,
      "##ॉय": 7487,
      "संबोध": 7488,
      "जिसका": 7489,
      "##ts": 7490,
      "फिलहाल": 7491,
      "वही": 7492,
      "australia": 7493,
      "नेताओं": 7494,
      "##ocr": 7495,
      "pict": 7496,
      "##ali": 7497,
      "जून": 7498,
      "नया": 7499,
      "trump": 7500,
      "देव": 7501,
      "##तः": 7502,
      "शै": 7503,
      "मुला": 7504,
      "##दीप": 7505,
      "##while": 7506,
      "बचा": 7507,
      "##selves": 7508,
      "live": 7509,
      "future": 7510,
      "##fact": 7511,
      "might": 7512,
      "self": 7513,
      "treatment": 7514,
      "आध": 7515,
      "उत्पादन": 7516,
      "##ौल": 7517,
      "उनमें": 7518,
      "गण": 7519,
      "##jee": 7520,
      "अमित": 7521,
      "##ples": 7522,
      "bat": 7523,
      "represent": 7524,
      "april": 7525,
      "प्रबंधन": 7526,
      "मार्च": 7527,
      "वक्त": 7528,
      "##abh": 7529,
      "trade": 7530,
      "परिवर्": 7531,
      "workers": 7532,
      "##ोजन": 7533,
      "mult": 7534,
      "serious": 7535,
      "##ब्ल": 7536,
      "##band": 7537,
      "contrib": 7538,
      "##mar": 7539,
      "सांसद": 7540,
      "accept": 7541,
      "##ator": 7542,
      "disp": 7543,
      "##ipur": 7544,
      "श्रे": 7545,
      "##त्त": 7546,
      "short": 7547,
      "##साइट": 7548,
      "gur": 7549,
      "##ultural": 7550,
      "अप्रैल": 7551,
      "तू": 7552,
      "एक्ट": 7553,
      "##न्‍ह": 7554,
      "विन": 7555,
      "##ta": 7556,
      "पृ": 7557,
      "ब्ल": 7558,
      "हमला": 7559,
      "##ipp": 7560,
      "तकनी": 7561,
      "##ड़ों": 7562,
      "##cri": 7563,
      "इल": 7564,
      "##atic": 7565,
      "त्र": 7566,
      "नेतृ": 7567,
      "##ilar": 7568,
      "light": 7569,
      "##म्प": 7570,
      "having": 7571,
      "tamil": 7572,
      "##less": 7573,
      "मंजू": 7574,
      "##किल": 7575,
      "efforts": 7576,
      "परिष": 7577,
      "##ियल": 7578,
      "शीर्ष": 7579,
      "आवश्यकता": 7580,
      "projects": 7581,
      "cabinet": 7582,
      "society": 7583,
      "command": 7584,
      "compet": 7585,
      "chairman": 7586,
      "##पना": 7587,
      "spirit": 7588,
      "doing": 7589,
      "आन": 7590,
      "राय": 7591,
      "शांति": 7592,
      "बढ़ाने": 7593,
      "production": 7594,
      "##वासी": 7595,
      "##पट": 7596,
      "##ran": 7597,
      "संस्था": 7598,
      "oct": 7599,
      "continue": 7600,
      "ic": 7601,
      "faith": 7602,
      "appro": 7603,
      "##मार": 7604,
      "went": 7605,
      "##ames": 7606,
      "अली": 7607,
      "aut": 7608,
      "brought": 7609,
      "कर्ना": 7610,
      "सूची": 7611,
      "months": 7612,
      "विवाद": 7613,
      "decided": 7614,
      "bigg": 7615,
      "बोल": 7616,
      "##arch": 7617,
      "दिवस": 7618,
      "प्रव": 7619,
      "##ially": 7620,
      "storage": 7621,
      "sil": 7622,
      "ensure": 7623,
      "लॉन्": 7624,
      "सामना": 7625,
      "सात": 7626,
      "ste": 7627,
      "कारोब": 7628,
      "companies": 7629,
      "temple": 7630,
      "immedi": 7631,
      "##गम": 7632,
      "##ari": 7633,
      "कला": 7634,
      "income": 7635,
      "feel": 7636,
      "मल": 7637,
      "common": 7638,
      "ति": 7639,
      "दावा": 7640,
      "##aries": 7641,
      "higher": 7642,
      "chec": 7643,
      "mand": 7644,
      "##hra": 7645,
      "forces": 7646,
      "##omm": 7647,
      "##ned": 7648,
      "देखते": 7649,
      "अंक": 7650,
      "कर्नाटक": 7651,
      "##न्स": 7652,
      "##ॉप": 7653,
      "##ability": 7654,
      "हमारा": 7655,
      "शुभ": 7656,
      "निर्धार": 7657,
      "nd": 7658,
      "railway": 7659,
      "##ेंसी": 7660,
      "meas": 7661,
      "तुलना": 7662,
      "लेख": 7663,
      "पाया": 7664,
      "keral": 7665,
      "रिज": 7666,
      "शुरुआत": 7667,
      "पक": 7668,
      "fail": 7669,
      "##ams": 7670,
      "##्वास": 7671,
      "birth": 7672,
      "americ": 7673,
      "##बद्ध": 7674,
      "speak": 7675,
      "similar": 7676,
      "##ंगी": 7677,
      "truth": 7678,
      "##क्‍त": 7679,
      "मंजूरी": 7680,
      "parties": 7681,
      "mis": 7682,
      "प्रत": 7683,
      "ड्र": 7684,
      "related": 7685,
      "शो": 7686,
      "kind": 7687,
      "##यक": 7688,
      "journ": 7689,
      "ali": 7690,
      "वें": 7691,
      "dou": 7692,
      "etc": 7693,
      "##ici": 7694,
      "governments": 7695,
      "संच": 7696,
      "आतंकवाद": 7697,
      "विकसित": 7698,
      "आवेदन": 7699,
      "##ban": 7700,
      "past": 7701,
      "played": 7702,
      "आयोजन": 7703,
      "meanwhile": 7704,
      "##यात": 7705,
      "envir": 7706,
      "गुण": 7707,
      "##epend": 7708,
      "कंपनियों": 7709,
      "besides": 7710,
      "##ending": 7711,
      "##ization": 7712,
      "संबंधी": 7713,
      "पड़ा": 7714,
      "ang": 7715,
      "##ipal": 7716,
      "share": 7717,
      "design": 7718,
      "करेगी": 7719,
      "राशि": 7720,
      "सोच": 7721,
      "cover": 7722,
      "joint": 7723,
      "नुक": 7724,
      "##बे": 7725,
      "##सू": 7726,
      "सीबीआई": 7727,
      "less": 7728,
      "\"\".\"": 7729,
      "खरीद": 7730,
      "mag": 7731,
      "शादी": 7732,
      "##phone": 7733,
      "##aur": 7734,
      "जिम्मे": 7735,
      "independ": 7736,
      "function": 7737,
      "##ery": 7738,
      "##ley": 7739,
      "##ंदा": 7740,
      "petr": 7741,
      "fear": 7742,
      "##ित्य": 7743,
      "स्वीकार": 7744,
      "kerala": 7745,
      "जन्म": 7746,
      "बेटे": 7747,
      "##िद": 7748,
      "तुम्हें": 7749,
      "##कात": 7750,
      "##ॉर्ड": 7751,
      "##क्षी": 7752,
      "विश्वास": 7753,
      "यी": 7754,
      "सदस्यों": 7755,
      "##है": 7756,
      "आरोपियों": 7757,
      "##isions": 7758,
      "dest": 7759,
      "नेतृत्व": 7760,
      "training": 7761,
      "##alf": 7762,
      "जुड़े": 7763,
      "पेट्रोल": 7764,
      "''": 7765,
      "संवि": 7766,
      "जमा": 7767,
      "##करी": 7768,
      "जाएंगे": 7769,
      "ans": 7770,
      "environment": 7771,
      "amount": 7772,
      "##र्य": 7773,
      "तरीके": 7774,
      "तमिल": 7775,
      "nec": 7776,
      "engine": 7777,
      "##itten": 7778,
      "##फ्ट": 7779,
      "##ension": 7780,
      "##uce": 7781,
      "##ियाँ": 7782,
      "##वधान": 7783,
      "sports": 7784,
      "##खिल": 7785,
      "expected": 7786,
      "amb": 7787,
      "hindi": 7788,
      "##ung": 7789,
      "देखने": 7790,
      "trav": 7791,
      "रात": 7792,
      "##vi": 7793,
      "##ude": 7794,
      "अच्छे": 7795,
      "##मारी": 7796,
      "##yal": 7797,
      "proper": 7798,
      "वेबसाइट": 7799,
      "bord": 7800,
      "##ोरे": 7801,
      "##लेख": 7802,
      "hous": 7803,
      "संसद": 7804,
      "तय": 7805,
      "##राष्ट्रीय": 7806,
      "निदेशक": 7807,
      "फैसले": 7808,
      "ऑन": 7809,
      "##irc": 7810,
      "मना": 7811,
      "mas": 7812,
      "शक्ति": 7813,
      "सम्मेलन": 7814,
      "aug": 7815,
      "east": 7816,
      "hus": 7817,
      "बदलाव": 7818,
      "घोषित": 7819,
      "conference": 7820,
      "फाइ": 7821,
      "बनी": 7822,
      "tweet": 7823,
      "##aid": 7824,
      "##जल": 7825,
      "जरिए": 7826,
      "##्यु": 7827,
      "यहाँ": 7828,
      "शान": 7829,
      "percent": 7830,
      "अध्य": 7831,
      "अनुमति": 7832,
      "daughter": 7833,
      "सीटों": 7834,
      "घंट": 7835,
      "pract": 7836,
      "##मे": 7837,
      "खिलाड़ी": 7838,
      "doct": 7839,
      "bab": 7840,
      "यीशु": 7841,
      "##utes": 7842,
      "राज्‍य": 7843,
      "##que": 7844,
      "अपराध": 7845,
      "मां": 7846,
      "release": 7847,
      "संसा": 7848,
      "नंबर": 7849,
      "##वाला": 7850,
      "##ferred": 7851,
      "##avir": 7852,
      "##ुस": 7853,
      "छह": 7854,
      "आत्म": 7855,
      "webs": 7856,
      "watch": 7857,
      "बारिश": 7858,
      "ऊपर": 7859,
      "##nes": 7860,
      "समी": 7861,
      "##न्तु": 7862,
      "charge": 7863,
      "##राह": 7864,
      "##imum": 7865,
      "ब्रिट": 7866,
      "challeng": 7867,
      "उन्‍ह": 7868,
      "विदेशी": 7869,
      "इंग": 7870,
      "##ित्व": 7871,
      "previous": 7872,
      "##त्रों": 7873,
      "cup": 7874,
      "likely": 7875,
      "##str": 7876,
      "फॉ": 7877,
      "##uary": 7878,
      "mak": 7879,
      "##ains": 7880,
      "written": 7881,
      "अने": 7882,
      "स्थापित": 7883,
      "रहते": 7884,
      "अथ": 7885,
      "##uk": 7886,
      "समेत": 7887,
      "community": 7888,
      "building": 7889,
      "roh": 7890,
      "##ठी": 7891,
      "though": 7892,
      "##कर्ता": 7893,
      "resol": 7894,
      "agree": 7895,
      "ide": 7896,
      "once": 7897,
      "##ode": 7898,
      "##lam": 7899,
      "प्राथ": 7900,
      "manu": 7901,
      "मूल्य": 7902,
      "सच्च": 7903,
      "gave": 7904,
      "sched": 7905,
      "सुब": 7906,
      "नरे": 7907,
      "ipl": 7908,
      "means": 7909,
      "night": 7910,
      "पड़े": 7911,
      "##yc": 7912,
      "fall": 7913,
      "sept": 7914,
      "लॉन्च": 7915,
      "रंग": 7916,
      "indeed": 7917,
      "##तक": 7918,
      "side": 7919,
      "##लेज": 7920,
      "युद्ध": 7921,
      "##लैंड": 7922,
      "reason": 7923,
      "कार्यालय": 7924,
      "##तान": 7925,
      "cal": 7926,
      "विश्‍": 7927,
      "रेड": 7928,
      "केन्द्र": 7929,
      "नुकसान": 7930,
      "उनको": 7931,
      "ऑस्ट्रेलिया": 7932,
      "जता": 7933,
      "##नर": 7934,
      "मुक": 7935,
      "aw": 7936,
      "key": 7937,
      "gang": 7938,
      "additional": 7939,
      "cause": 7940,
      "circ": 7941,
      "किलो": 7942,
      "june": 7943,
      "निभा": 7944,
      "##डु": 7945,
      "आइ": 7946,
      "murder": 7947,
      "ay": 7948,
      "लगाने": 7949,
      "फोटो": 7950,
      "अंतर्गत": 7951,
      "जेल": 7952,
      "अनुर": 7953,
      "##ena": 7954,
      "bow": 7955,
      "जिनमें": 7956,
      "जैसा": 7957,
      "कोल": 7958,
      "##रीब": 7959,
      "लो": 7960,
      "दिस": 7961,
      "निकाल": 7962,
      "--": 7963,
      "##isl": 7964,
      "##ष्‍ट": 7965,
      "##धीश": 7966,
      "कैमरा": 7967,
      "पहल": 7968,
      "foc": 7969,
      "##श्विक": 7970,
      "##itation": 7971,
      "रोह": 7972,
      "मसी": 7973,
      "yog": 7974,
      "possible": 7975,
      "आंक": 7976,
      "ट्रंप": 7977,
      "##side": 7978,
      "लाइ": 7979,
      "अरब": 7980,
      "नम": 7981,
      "बेहद": 7982,
      "personal": 7983,
      "चीज़": 7984,
      "wed": 7985,
      "nat": 7986,
      "##ोत्": 7987,
      "##amb": 7988,
      "##ledge": 7989,
      "##सि": 7990,
      "##न्व": 7991,
      "##ators": 7992,
      "cred": 7993,
      "wish": 7994,
      "प्रेर": 7995,
      "review": 7996,
      "वैश्विक": 7997,
      "इतिहास": 7998,
      "##संधान": 7999,
      "दोष": 8000,
      "##ैक": 8001,
      "legisl": 8002,
      "##ites": 8003,
      "transport": 8004,
      "किताब": 8005,
      "sens": 8006,
      "##ंतर": 8007,
      "समुदाय": 8008,
      "districts": 8009,
      "happy": 8010,
      "judge": 8011,
      "stop": 8012,
      "अनुसंधान": 8013,
      "madhya": 8014,
      "dist": 8015,
      "कराने": 8016,
      "जैसी": 8017,
      "dri": 8018,
      "##hold": 8019,
      "मू": 8020,
      "agriculture": 8021,
      "##ika": 8022,
      "lost": 8023,
      "##कत": 8024,
      "##ample": 8025,
      "democr": 8026,
      "science": 8027,
      "basis": 8028,
      "able": 8029,
      "pray": 8030,
      "किसान": 8031,
      "बेटी": 8032,
      "miss": 8033,
      "परिषद": 8034,
      "अनेक": 8035,
      "subm": 8036,
      "पूर्ण": 8037,
      "अंतर्रा": 8038,
      "husband": 8039,
      "cooperation": 8040,
      "##ceed": 8041,
      "पहुंचे": 8042,
      "##itter": 8043,
      "भुगत": 8044,
      "अंतरराष्ट्रीय": 8045,
      "##स्ल": 8046,
      "कहीं": 8047,
      "जनवरी": 8048,
      "##ूं": 8049,
      "institute": 8050,
      "condition": 8051,
      "england": 8052,
      "लक्ष्य": 8053,
      "##ूबर": 8054,
      "प्रार": 8055,
      "साइ": 8056,
      "भेजा": 8057,
      "एशिया": 8058,
      "##फे": 8059,
      "ful": 8060,
      "केरल": 8061,
      "पंच": 8062,
      "rural": 8063,
      "नीचे": 8064,
      "टै": 8065,
      "संक्रम": 8066,
      "बध": 8067,
      "मुलाकात": 8068,
      "उपस्थित": 8069,
      "promot": 8070,
      "रखते": 8071,
      "consum": 8072,
      "##स्त्र": 8073,
      "capac": 8074,
      "##िमिट": 8075,
      "resour": 8076,
      "पाए": 8077,
      "संस्थान": 8078,
      "##ored": 8079,
      "##avirus": 8080,
      "sri": 8081,
      "##ॉक": 8082,
      "##यं": 8083,
      "using": 8084,
      "लाने": 8085,
      "##ोरी": 8086,
      "constitu": 8087,
      "close": 8088,
      "छोटे": 8089,
      "##ामा": 8090,
      "seven": 8091,
      "##dom": 8092,
      "needs": 8093,
      "माना": 8094,
      "mission": 8095,
      "##्‍त": 8096,
      "search": 8097,
      "नियंत्रण": 8098,
      "संविधान": 8099,
      "cast": 8100,
      "हादसे": 8101,
      "मेगा": 8102,
      "हार": 8103,
      "ठा": 8104,
      "details": 8105,
      "रोग": 8106,
      "afric": 8107,
      "गैर": 8108,
      "progress": 8109,
      "coronavirus": 8110,
      "उम": 8111,
      "##ंघ": 8112,
      "##itish": 8113,
      "sr": 8114,
      "deliver": 8115,
      "##तनी": 8116,
      "##्यता": 8117,
      "therefore": 8118,
      "क्व": 8119,
      "ce": 8120,
      "history": 8121,
      "ball": 8122,
      "##स्ते": 8123,
      "##ॉट": 8124,
      "##ोद": 8125,
      "campa": 8126,
      "##िकों": 8127,
      "virat": 8128,
      "##icles": 8129,
      "caus": 8130,
      "बढ़ावा": 8131,
      "nothing": 8132,
      "विराट": 8133,
      "##ada": 8134,
      "इले": 8135,
      "सभा": 8136,
      "अधीन": 8137,
      "september": 8138,
      "##राज": 8139,
      "##asing": 8140,
      "tell": 8141,
      "##oj": 8142,
      "##वस्था": 8143,
      "मौजूदा": 8144,
      "##rastr": 8145,
      "dam": 8146,
      "बिजली": 8147,
      "प्ल": 8148,
      "campaign": 8149,
      "poor": 8150,
      "रज": 8151,
      "targ": 8152,
      "##रु": 8153,
      "getting": 8154,
      "true": 8155,
      "जानते": 8156,
      "मई": 8157,
      "online": 8158,
      "सोन": 8159,
      "अक्ष": 8160,
      "kr": 8161,
      "होकर": 8162,
      "december": 8163,
      "sources": 8164,
      "infl": 8165,
      "intr": 8166,
      "##ाहरण": 8167,
      "वर्षों": 8168,
      "heavy": 8169,
      "infrastr": 8170,
      "obs": 8171,
      "activities": 8172,
      "मुद्दे": 8173,
      "##tress": 8174,
      "lives": 8175,
      "##कर्म": 8176,
      "july": 8177,
      "reports": 8178,
      "became": 8179,
      "##स्क": 8180,
      "##encies": 8181,
      "current": 8182,
      "deputy": 8183,
      "सां": 8184,
      "ग़": 8185,
      "मिलेगा": 8186,
      "hit": 8187,
      "उदाहरण": 8188,
      "dies": 8189,
      "इंस्ट": 8190,
      "##र्श": 8191,
      "opposition": 8192,
      "चलते": 8193,
      "whether": 8194,
      "wrong": 8195,
      "इंग्ल": 8196,
      "पति": 8197,
      "तारी": 8198,
      "photo": 8199,
      "vs": 8200,
      "parts": 8201,
      "gener": 8202,
      "town": 8203,
      "exist": 8204,
      "बधाई": 8205,
      "note": 8206,
      "हित": 8207,
      "##ify": 8208,
      "दूसरा": 8209,
      "वायु": 8210,
      "manufact": 8211,
      "mem": 8212,
      "charg": 8213,
      "##aug": 8214,
      "##mber": 8215,
      "##्वर": 8216,
      "website": 8217,
      "वायरस": 8218,
      "##िमिटेड": 8219,
      "संबोधित": 8220,
      "ground": 8221,
      "##कारा": 8222,
      "km": 8223,
      "coming": 8224,
      "वित्": 8225,
      "दीप": 8226,
      "##uge": 8227,
      "##person": 8228,
      "host": 8229,
      "typ": 8230,
      "##पोर्ट": 8231,
      "कट": 8232,
      "##्रम": 8233,
      "whom": 8234,
      "माह": 8235,
      "knowledge": 8236,
      "योगदान": 8237,
      "केन्द": 8238,
      "##adi": 8239,
      "##िटल": 8240,
      "##ober": 8241,
      "मोब": 8242,
      "##aut": 8243,
      "gods": 8244,
      "##oles": 8245,
      "प्रिय": 8246,
      "अध्ययन": 8247,
      "warn": 8248,
      "पीड़": 8249,
      "check": 8250,
      "आईपी": 8251,
      "points": 8252,
      "sold": 8253,
      "तत्": 8254,
      "प्य": 8255,
      "##atory": 8256,
      "इलाज": 8257,
      "##work": 8258,
      "##म्मद": 8259,
      "’’": 8260,
      "increased": 8261,
      "declared": 8262,
      "##टल": 8263,
      "उत्पाद": 8264,
      "जोर": 8265,
      "investment": 8266,
      "##ूक": 8267,
      "उसमें": 8268,
      "जुलाई": 8269,
      "nove": 8270,
      "प्रवेश": 8271,
      "फी": 8272,
      "claimed": 8273,
      "november": 8274,
      "सर्": 8275,
      "summ": 8276,
      "article": 8277,
      "सलमान": 8278,
      "quality": 8279,
      "features": 8280,
      "governor": 8281,
      "##egr": 8282,
      "संशोधन": 8283,
      "बिक": 8284,
      "रु": 8285,
      "diff": 8286,
      "न्यायाधीश": 8287,
      "economy": 8288,
      "##कर्ताओं": 8289,
      "प्रशिक्षण": 8290,
      "मिस": 8291,
      "आश": 8292,
      "निकल": 8293,
      "actress": 8294,
      "prep": 8295,
      "pal": 8296,
      "exec": 8297,
      "उद्देश्य": 8298,
      "भूमि": 8299,
      "##ताह": 8300,
      "october": 8301,
      "infrastructure": 8302,
      "अभिनेता": 8303,
      "ris": 8304,
      "application": 8305,
      "stated": 8306,
      "अपील": 8307,
      "वित्तीय": 8308,
      "डर": 8309,
      "लंब": 8310,
      "line": 8311,
      "लड़ा": 8312,
      "##ji": 8313,
      "##aram": 8314,
      "##सों": 8315,
      "##्रो": 8316,
      "##ँच": 8317,
      "उत्‍": 8318,
      "yes": 8319,
      "सत्र": 8320,
      "##aya": 8321,
      "problem": 8322,
      "##coming": 8323,
      "banks": 8324,
      "केन्द्रीय": 8325,
      "bharat": 8326,
      "रव": 8327,
      "##ier": 8328,
      "युव": 8329,
      "साफ": 8330,
      "andhra": 8331,
      "लगी": 8332,
      "प्रतिक": 8333,
      "फाय": 8334,
      "गौर": 8335,
      "भुगतान": 8336,
      "##erjee": 8337,
      "loss": 8338,
      "##men": 8339,
      "अग्र": 8340,
      "january": 8341,
      "परेश": 8342,
      "प्रस्त": 8343,
      "वोट": 8344,
      "ve": 8345,
      "कठ": 8346,
      "बांग": 8347,
      "##ष्ण": 8348,
      "चयन": 8349,
      "vol": 8350,
      "##bel": 8351,
      "प्रचार": 8352,
      "forward": 8353,
      "rights": 8354,
      "films": 8355,
      "russ": 8356,
      "lal": 8357,
      "सफलता": 8358,
      "problems": 8359,
      "capacity": 8360,
      "necess": 8361,
      "परिवर्तन": 8362,
      "salman": 8363,
      "inaug": 8364,
      "##मीटर": 8365,
      "answ": 8366,
      "डेट": 8367,
      "मश": 8368,
      "stars": 8369,
      "bangl": 8370,
      "वस्त": 8371,
      "personnel": 8372,
      "vac": 8373,
      "प्रतिनिध": 8374,
      "अनुभव": 8375,
      "created": 8376,
      "ms": 8377,
      "brother": 8378,
      "islam": 8379,
      "pot": 8380,
      "##uch": 8381,
      "सीरीज": 8382,
      "passeng": 8383,
      "bench": 8384,
      "hindu": 8385,
      "##चारियों": 8386,
      "संपर्क": 8387,
      "speaking": 8388,
      "parents": 8389,
      "।\"\"\"": 8390,
      "conducted": 8391,
      "निर": 8392,
      "##ख़": 8393,
      "गलत": 8394,
      "isra": 8395,
      "bible": 8396,
      "lat": 8397,
      "above": 8398,
      "##ivid": 8399,
      "places": 8400,
      "##emic": 8401,
      "##ड़ने": 8402,
      "fast": 8403,
      "connect": 8404,
      "##oses": 8405,
      "इन्": 8406,
      "जित": 8407,
      "purp": 8408,
      "budget": 8409,
      "example": 8410,
      "friends": 8411,
      "kan": 8412,
      "##ग़": 8413,
      "##भाल": 8414,
      "##जूद": 8415,
      "age": 8416,
      "himself": 8417,
      "least": 8418,
      "##empt": 8419,
      "thank": 8420,
      "particular": 8421,
      "दू": 8422,
      "संदेश": 8423,
      "असम": 8424,
      "एजेंसी": 8425,
      "hope": 8426,
      "##ria": 8427,
      "मिलकर": 8428,
      "##दू": 8429,
      "railways": 8430,
      "टाइ": 8431,
      "##ething": 8432,
      "custom": 8433,
      "छो": 8434,
      "##play": 8435,
      "single": 8436,
      "sush": 8437,
      "अफ्री": 8438,
      "संभव": 8439,
      "##hu": 8440,
      "जिन्होंने": 8441,
      "scre": 8442,
      "college": 8443,
      "पहुंची": 8444,
      "august": 8445,
      "##ड़ियों": 8446,
      "##olk": 8447,
      "##म्बर": 8448,
      "reve": 8449,
      "इनकार": 8450,
      "##ton": 8451,
      "जरूरी": 8452,
      "##जरी": 8453,
      "except": 8454,
      "##िड": 8455,
      "maintain": 8456,
      "ord": 8457,
      "spokes": 8458,
      "something": 8459,
      "##ushed": 8460,
      "skill": 8461,
      "सत": 8462,
      "##ex": 8463,
      "stay": 8464,
      "##icult": 8465,
      "feb": 8466,
      "##eg": 8467,
      "thus": 8468,
      "partners": 8469,
      "apart": 8470,
      "largest": 8471,
      "##ज़र": 8472,
      "norm": 8473,
      "fest": 8474,
      "##पू": 8475,
      "hours": 8476,
      "##ients": 8477,
      "नेट": 8478,
      "difficult": 8479,
      "rup": 8480,
      "##एसटी": 8481,
      "प्ले": 8482,
      "##ार्क": 8483,
      "violence": 8484,
      "##बीर": 8485,
      "चिं": 8486,
      "doc": 8487,
      "कथ": 8488,
      "examination": 8489,
      "विजय": 8490,
      "spread": 8491,
      "बाव": 8492,
      "खुश": 8493,
      "घा": 8494,
      "chh": 8495,
      "trust": 8496,
      "##ev": 8497,
      "connection": 8498,
      "categ": 8499,
      "study": 8500,
      "कल्या": 8501,
      "बाइबल": 8502,
      "contest": 8503,
      "ye": 8504,
      "low": 8505,
      "राजनीति": 8506,
      "मोबाइल": 8507,
      "##कारों": 8508,
      "space": 8509,
      "निपट": 8510,
      "##ami": 8511,
      "er": 8512,
      "सुनवाई": 8513,
      "israel": 8514,
      "सीएम": 8515,
      "आधिकार": 8516,
      "individ": 8517,
      "dise": 8518,
      "##काम": 8519,
      "रिली": 8520,
      "neg": 8521,
      "exch": 8522,
      "##ards": 8523,
      "mind": 8524,
      "resident": 8525,
      "हवाई": 8526,
      "really": 8527,
      "integr": 8528,
      "princ": 8529,
      "लिमिटेड": 8530,
      "sugg": 8531,
      "relationship": 8532,
      "##graph": 8533,
      "अनुमान": 8534,
      "प्राथमिक": 8535,
      "administration": 8536,
      "##ication": 8537,
      "mobile": 8538,
      "डाय": 8539,
      "expressed": 8540,
      "##igarh": 8541,
      "vijay": 8542,
      "बजट": 8543,
      "##क्षक": 8544,
      "behind": 8545,
      "कर्मचारियों": 8546,
      "जस्ट": 8547,
      "##व्यवस्था": 8548,
      "हिस्से": 8549,
      "bangladesh": 8550,
      "link": 8551,
      "विल": 8552,
      "जिसने": 8553,
      "महान": 8554,
      "आधिकारिक": 8555,
      "##garh": 8556,
      "attended": 8557,
      "सुरक्षित": 8558,
      "ja": 8559,
      "मिशन": 8560,
      "धर": 8561,
      "path": 8562,
      "कल्याण": 8563,
      "आठ": 8564,
      "प्रवक्ता": 8565,
      "रोजगार": 8566,
      "mla": 8567,
      "सुना": 8568,
      "welf": 8569,
      "मुस्ल": 8570,
      "benefit": 8571,
      "##जीत": 8572,
      "authority": 8573,
      "पढ़ें": 8574,
      "object": 8575,
      "twitter": 8576,
      "welfare": 8577,
      "##hib": 8578,
      "उपाय": 8579,
      "इंग्लैंड": 8580,
      "##iple": 8581,
      "##प्ताह": 8582,
      "crim": 8583,
      "mater": 8584,
      "candidate": 8585,
      "मेड": 8586,
      "border": 8587,
      "language": 8588,
      "पुरुष": 8589,
      "मुस्लिम": 8590,
      "जिन्हें": 8591,
      "प्रग": 8592,
      "word": 8593,
      "स्मार्टफोन": 8594,
      "##निर्": 8595,
      "##ished": 8596,
      "जीबी": 8597,
      "##eness": 8598,
      "works": 8599,
      "ट्रेन": 8600,
      "##oph": 8601,
      "राजा": 8602,
      "अथवा": 8603,
      "बजे": 8604,
      "विधे": 8605,
      "रू": 8606,
      "बल्लेबाज": 8607,
      "value": 8608,
      "##dh": 8609,
      "##pir": 8610,
      "access": 8611,
      "##ोम": 8612,
      "##फ्र": 8613,
      "सुबह": 8614,
      "##pal": 8615,
      "प्रेम": 8616,
      "जाये": 8617,
      "fav": 8618,
      "जनरल": 8619,
      "विस्तार": 8620,
      "early": 8621,
      "clean": 8622,
      "##साय": 8623,
      "##ara": 8624,
      "airport": 8625,
      "wind": 8626,
      "इका": 8627,
      "sena": 8628,
      "अर्थव्यवस्था": 8629,
      "इलाके": 8630,
      "game": 8631,
      "बावजूद": 8632,
      "##राबाद": 8633,
      "grant": 8634,
      "चिकित्": 8635,
      "##तने": 8636,
      "##यल": 8637,
      "##of": 8638,
      "##ारों": 8639,
      "improve": 8640,
      "individual": 8641,
      "##aging": 8642,
      "शानदार": 8643,
      "##केट": 8644,
      "##gre": 8645,
      "यूरो": 8646,
      "##by": 8647,
      "##ंकी": 8648,
      "##त्मा": 8649,
      "घरे": 8650,
      "institutions": 8651,
      "निर्धारित": 8652,
      "परवर": 8653,
      "टा": 8654,
      "sust": 8655,
      "सुपर": 8656,
      "गाँ": 8657,
      "max": 8658,
      "##थम": 8659,
      "स्वयं": 8660,
      "position": 8661,
      "##साद": 8662,
      "interv": 8663,
      "threat": 8664,
      "##cer": 8665,
      "लागत": 8666,
      "उल्लेख": 8667,
      "aud": 8668,
      "##ita": 8669,
      "##िब": 8670,
      "successful": 8671,
      "परीक्षण": 8672,
      "opt": 8673,
      "##दर्भ": 8674,
      "construction": 8675,
      "##lus": 8676,
      "लें": 8677,
      "schools": 8678,
      "products": 8679,
      "ml": 8680,
      "unto": 8681,
      "संग्रह": 8682,
      "पाठ": 8683,
      "पसंद": 8684,
      "बांग्ला": 8685,
      "डॉक्टर": 8686,
      "scient": 8687,
      "हैद": 8688,
      "ey": 8689,
      "तु": 8690,
      "recovered": 8691,
      "ii": 8692,
      "##ख्त": 8693,
      "##गन": 8694,
      "चुनौती": 8695,
      "kn": 8696,
      "pros": 8697,
      "फरवरी": 8698,
      "thought": 8699,
      "happened": 8700,
      "दिखाई": 8701,
      "identified": 8702,
      "घरेलू": 8703,
      "##त्रियों": 8704,
      "thous": 8705,
      "##ांक": 8706,
      "रहेगा": 8707,
      "course": 8708,
      "##row": 8709,
      "target": 8710,
      "कारोबार": 8711,
      "strateg": 8712,
      "परिज": 8713,
      "thousand": 8714,
      "हिंसा": 8715,
      "##्रिय": 8716,
      "हालत": 8717,
      "required": 8718,
      "gas": 8719,
      "##ogn": 8720,
      "खो": 8721,
      "##iya": 8722,
      "कानू": 8723,
      "##ids": 8724,
      "मुकाबले": 8725,
      "words": 8726,
      "lod": 8727,
      "confir": 8728,
      "##ga": 8729,
      "साझा": 8730,
      "##jit": 8731,
      "विधि": 8732,
      "गैस": 8733,
      "ज्ञान": 8734,
      "##aled": 8735,
      "saw": 8736,
      "session": 8737,
      "बनने": 8738,
      "driver": 8739,
      "##क्षर": 8740,
      "recomm": 8741,
      "##उट": 8742,
      "##सूस": 8743,
      "भावना": 8744,
      "शब्द": 8745,
      "संजय": 8746,
      "signific": 8747,
      "teams": 8748,
      "सारे": 8749,
      "begin": 8750,
      "##ियोग": 8751,
      "##न्ध": 8752,
      "anti": 8753,
      "##ायद": 8754,
      "##achal": 8755,
      "##ार्ज": 8756,
      "खाद्य": 8757,
      "समीक्षा": 8758,
      "bod": 8759,
      "##ruary": 8760,
      "urban": 8761,
      "उन्‍होंने": 8762,
      "शुल": 8763,
      "wrote": 8764,
      "##वत": 8765,
      "eur": 8766,
      "साब": 8767,
      "##iting": 8768,
      "amend": 8769,
      "approach": 8770,
      "##प्त": 8771,
      "staff": 8772,
      "ahmed": 8773,
      "##त्ती": 8774,
      "pil": 8775,
      "##nath": 8776,
      "hyder": 8777,
      "भवन": 8778,
      "players": 8779,
      "subject": 8780,
      "अंतर्राष्ट्रीय": 8781,
      "चाहे": 8782,
      "black": 8783,
      "गतिविध": 8784,
      "समाधान": 8785,
      "हॉ": 8786,
      "job": 8787,
      "आंध": 8788,
      "मोहम्मद": 8789,
      "##anch": 8790,
      "जस्टिस": 8791,
      "भग": 8792,
      "polls": 8793,
      "ऑनलाइन": 8794,
      "jail": 8795,
      "गठबंधन": 8796,
      "february": 8797,
      "##ots": 8798,
      "hol": 8799,
      "hyderabad": 8800,
      "##थि": 8801,
      "rohit": 8802,
      "##स्तानी": 8803,
      "orig": 8804,
      "प्यार": 8805,
      "##body": 8806,
      "priy": 8807,
      "prim": 8808,
      "##धे": 8809,
      "##्रिया": 8810,
      "दोस्त": 8811,
      "rank": 8812,
      "वैज्ञान": 8813,
      "अगस्त": 8814,
      "recogn": 8815,
      "agency": 8816,
      "active": 8817,
      "##घाटन": 8818,
      "story": 8819,
      "panch": 8820,
      "##भाष": 8821,
      "अश": 8822,
      "##रान": 8823,
      "खर्च": 8824,
      "shoot": 8825,
      "##कर्ष": 8826,
      "##eds": 8827,
      "दिसंबर": 8828,
      "stri": 8829,
      "रोहित": 8830,
      "मिलेगी": 8831,
      "राहत": 8832,
      "प्रसार": 8833,
      "##vey": 8834,
      "##खर": 8835,
      "विधेयक": 8836,
      "आता": 8837,
      "##elling": 8838,
      "नदी": 8839,
      "positive": 8840,
      "dra": 8841,
      "अका": 8842,
      "foot": 8843,
      "association": 8844,
      "innov": 8845,
      "nadu": 8846,
      "##uries": 8847,
      "नेशनल": 8848,
      "##itting": 8849,
      "seat": 8850,
      "nations": 8851,
      "किर": 8852,
      "ger": 8853,
      "ten": 8854,
      "##दिगार": 8855,
      "passed": 8856,
      "lt": 8857,
      "achieve": 8858,
      "नवा": 8859,
      "##इयों": 8860,
      "इस्ल": 8861,
      "रहेंगे": 8862,
      "खूब": 8863,
      "##ike": 8864,
      "guid": 8865,
      "display": 8866,
      "stre": 8867,
      "##िलों": 8868,
      "तलाश": 8869,
      "themselves": 8870,
      "अन्त": 8871,
      "limited": 8872,
      "परवरदिगार": 8873,
      "##mp": 8874,
      "commissioner": 8875,
      "##ेंज": 8876,
      "quar": 8877,
      "creat": 8878,
      "mer": 8879,
      "message": 8880,
      "admitted": 8881,
      "mass": 8882,
      "##टरी": 8883,
      "##रावट": 8884,
      "माता": 8885,
      "sanjay": 8886,
      "सप्ताह": 8887,
      "az": 8888,
      "सितंबर": 8889,
      "##iday": 8890,
      "पटेल": 8891,
      "docu": 8892,
      "खत्म": 8893,
      "##ler": 8894,
      "##द्द": 8895,
      "##उंट": 8896,
      "माइ": 8897,
      "मौसम": 8898,
      "पर्यावरण": 8899,
      "##ष्‍ट्रीय": 8900,
      "employees": 8901,
      "गिरावट": 8902,
      "mom": 8903,
      "ps": 8904,
      "टिप": 8905,
      "rash": 8906,
      "##dy": 8907,
      "##मैन": 8908,
      "##pc": 8909,
      "introd": 8910,
      "##ग्राम": 8911,
      "sn": 8912,
      "प्रगति": 8913,
      "##omes": 8914,
      "##sequ": 8915,
      "inaugur": 8916,
      "carry": 8917,
      "कॉलेज": 8918,
      "पीठ": 8919,
      "eight": 8920,
      "##उस": 8921,
      "##ापन": 8922,
      "नार": 8923,
      "चंद्र": 8924,
      "मुद्दों": 8925,
      "bag": 8926,
      "anything": 8927,
      "##ores": 8928,
      "डिज": 8929,
      "सक्रिय": 8930,
      "##हान": 8931,
      "बढ़कर": 8932,
      "हिरा": 8933,
      "##icial": 8934,
      "##imate": 8935,
      "culture": 8936,
      "##me": 8937,
      "pras": 8938,
      "उद्य": 8939,
      "esp": 8940,
      "##ख्": 8941,
      "##ark": 8942,
      "jag": 8943,
      "whole": 8944,
      "##िको": 8945,
      "champ": 8946,
      "##पान": 8947,
      "बांग्लादेश": 8948,
      "परिवहन": 8949,
      "व्यापक": 8950,
      "बर्": 8951,
      "##िक्सल": 8952,
      "affected": 8953,
      "हिरासत": 8954,
      "often": 8955,
      "##ems": 8956,
      "##वाही": 8957,
      "निष्": 8958,
      "phys": 8959,
      "##ammad": 8960,
      "कब्": 8961,
      "अभिनेत्री": 8962,
      "immediately": 8963,
      "अर्ज": 8964,
      "focus": 8965,
      "पालन": 8966,
      "river": 8967,
      "तमिलना": 8968,
      "##िमंडल": 8969,
      "##aks": 8970,
      "संत": 8971,
      "चुना": 8972,
      "allowed": 8973,
      "मारे": 8974,
      "फा": 8975,
      "rich": 8976,
      "raised": 8977,
      "letter": 8978,
      "thing": 8979,
      "operation": 8980,
      "terms": 8981,
      "किलोमीटर": 8982,
      "श्रद्ध": 8983,
      "##उंड": 8984,
      "मतदान": 8985,
      "मतलब": 8986,
      "इंडियन": 8987,
      "प्रियंका": 8988,
      "gst": 8989,
      "##ane": 8990,
      "ज़्यादा": 8991,
      "rav": 8992,
      "cities": 8993,
      "ahead": 8994,
      "नरेन्द्र": 8995,
      "corporation": 8996,
      "##onse": 8997,
      "playing": 8998,
      "लै": 8999,
      "squ": 9000,
      "चिकित्सा": 9001,
      "everyone": 9002,
      "अंग्रे": 9003,
      "fell": 9004,
      "season": 9005,
      "रिकॉर्ड": 9006,
      "minor": 9007,
      "पॉ": 9008,
      "हैदराबाद": 9009,
      "जिसकी": 9010,
      "##्‍म": 9011,
      "##िफ": 9012,
      "शहरी": 9013,
      "##ternal": 9014,
      "##ंजी": 9015,
      "arun": 9016,
      "muslim": 9017,
      "mic": 9018,
      "##स्ती": 9019,
      "प्रस्तुत": 9020,
      "response": 9021,
      "करनी": 9022,
      "समाप्त": 9023,
      "महसूस": 9024,
      "speed": 9025,
      "forg": 9026,
      "##estic": 9027,
      "cut": 9028,
      "उड़": 9029,
      "आपकी": 9030,
      "##ivity": 9031,
      "gh": 9032,
      "##oice": 9033,
      "##ार्थियों": 9034,
      "सेवाओं": 9035,
      "ele": 9036,
      "फ्ल": 9037,
      "##erve": 9038,
      "##ीव": 9039,
      "##ped": 9040,
      "ak": 9041,
      "भ्र": 9042,
      "भरो": 9043,
      "संरक्षण": 9044,
      "सुश": 9045,
      "उद्घाटन": 9046,
      "##dr": 9047,
      "create": 9048,
      "नवं": 9049,
      "nath": 9050,
      "nir": 9051,
      "##apan": 9052,
      "patients": 9053,
      "उम्मीदवारों": 9054,
      "##ift": 9055,
      "प्रमाण": 9056,
      "तमिलनाडु": 9057,
      "rules": 9058,
      "military": 9059,
      "केजरी": 9060,
      "##ंदगी": 9061,
      "नवंबर": 9062,
      "patel": 9063,
      "टिक": 9064,
      "निगम": 9065,
      "pap": 9066,
      "send": 9067,
      "##पे": 9068,
      "sister": 9069,
      "distrib": 9070,
      "population": 9071,
      "केजरीवाल": 9072,
      "खुला": 9073,
      "necessary": 9074,
      "शायद": 9075,
      "wal": 9076,
      "phase": 9077,
      "africa": 9078,
      "sad": 9079,
      "pen": 9080,
      "tend": 9081,
      "dal": 9082,
      "prior": 9083,
      "highest": 9084,
      "susp": 9085,
      "अध्यक्षता": 9086,
      "बरा": 9087,
      "री": 9088,
      "##िंट": 9089,
      "material": 9090,
      "निर्यात": 9091,
      "priyanka": 9092,
      "vers": 9093,
      "देगा": 9094,
      "तुर": 9095,
      "##aly": 9096,
      "##ittle": 9097,
      "##कम": 9098,
      "खंड": 9099,
      "हट": 9100,
      "probe": 9101,
      "living": 9102,
      "प्रतिबंध": 9103,
      "provision": 9104,
      "ऋण": 9105,
      "bach": 9106,
      "##ब्र": 9107,
      "##ामद": 9108,
      "इच्छ": 9109,
      "अत्य": 9110,
      "##िटर": 9111,
      "देंगे": 9112,
      "appointed": 9113,
      "##क्ट्र": 9114,
      "plat": 9115,
      "एनसी": 9116,
      "compr": 9117,
      "कड़ी": 9118,
      "कैं": 9119,
      "arrest": 9120,
      "चिंता": 9121,
      "##ological": 9122,
      "अमरी": 9123,
      "##aps": 9124,
      "बातें": 9125,
      "vehicles": 9126,
      "##ulated": 9127,
      "पुस्त": 9128,
      "संगठ": 9129,
      "alleg": 9130,
      "##wa": 9131,
      "संसाधन": 9132,
      "popular": 9133,
      "paid": 9134,
      "टन": 9135,
      "##jri": 9136,
      "appre": 9137,
      "included": 9138,
      "desp": 9139,
      "industrial": 9140,
      "गर्": 9141,
      "##न्‍न": 9142,
      "ट्व": 9143,
      "leave": 9144,
      "publish": 9145,
      "चोट": 9146,
      "tv": 9147,
      "करवा": 9148,
      "recent": 9149,
      "credit": 9150,
      "coach": 9151,
      "followed": 9152,
      "जर्म": 9153,
      "belong": 9154,
      "politics": 9155,
      "jehovahs": 9156,
      "संदर्भ": 9157,
      "सूत्रों": 9158,
      "hearing": 9159,
      "rajya": 9160,
      "परियोजनाओं": 9161,
      "mun": 9162,
      "पोस्टम": 9163,
      "##light": 9164,
      "offer": 9165,
      "mention": 9166,
      "थो": 9167,
      "##त्साह": 9168,
      "उपकरण": 9169,
      "शिवसेना": 9170,
      "##jan": 9171,
      "भागी": 9172,
      "little": 9173,
      "उत्तरा": 9174,
      "dav": 9175,
      "तीसरे": 9176,
      "##angana": 9177,
      "अफ्रीका": 9178,
      "पृथ": 9179,
      "file": 9180,
      "रहता": 9181,
      "developed": 9182,
      "perm": 9183,
      "साबित": 9184,
      "भीतर": 9185,
      "deter": 9186,
      "आदमी": 9187,
      "##ows": 9188,
      "chenn": 9189,
      "उपभ": 9190,
      "chandigarh": 9191,
      "##ghan": 9192,
      "पर्यटन": 9193,
      "##uled": 9194,
      "##स्‍थ": 9195,
      "performance": 9196,
      "until": 9197,
      "खोज": 9198,
      "upcoming": 9199,
      "legal": 9200,
      "जिलों": 9201,
      "वाहन": 9202,
      "##ाध": 9203,
      "हस्ता": 9204,
      "##्रीन": 9205,
      "मृत्यु": 9206,
      "kejri": 9207,
      "हेतु": 9208,
      "इस्ती": 9209,
      "worth": 9210,
      "##दर्श": 9211,
      "चले": 9212,
      "स्थापना": 9213,
      "वार्": 9214,
      "सजा": 9215,
      "शास": 9216,
      "##utive": 9217,
      "इंत": 9218,
      "families": 9219,
      "hands": 9220,
      "##ison": 9221,
      "natural": 9222,
      "ess": 9223,
      "petition": 9224,
      "परिस": 9225,
      "##down": 9226,
      "employment": 9227,
      "mlas": 9228,
      "गाँव": 9229,
      "##ortem": 9230,
      "repl": 9231,
      "resign": 9232,
      "comb": 9233,
      "includes": 9234,
      "\\\\": 9235,
      "##वै": 9236,
      "आंध्र": 9237,
      "ded": 9238,
      "प्रोत्साह": 9239,
      "इतना": 9240,
      "sex": 9241,
      "##ंटी": 9242,
      "rushed": 9243,
      "surely": 9244,
      "cou": 9245,
      "doctors": 9246,
      "उचित": 9247,
      "regarding": 9248,
      "##ारिज": 9249,
      "##isha": 9250,
      "supply": 9251,
      "consider": 9252,
      "safety": 9253,
      "अंदर": 9254,
      "##ilt": 9255,
      "स्वच्छ": 9256,
      "##hn": 9257,
      "हथ": 9258,
      "began": 9259,
      "acqu": 9260,
      "शरीर": 9261,
      "##ब्ल्यू": 9262,
      "##itch": 9263,
      "##्ज": 9264,
      "movement": 9265,
      "##ूंगा": 9266,
      "##्रेट": 9267,
      "authorities": 9268,
      "खुशी": 9269,
      "produced": 9270,
      "assam": 9271,
      "संवाद": 9272,
      "imm": 9273,
      "##ald": 9274,
      "##ताव": 9275,
      "japan": 9276,
      "प्रथम": 9277,
      "abs": 9278,
      "प्रभा": 9279,
      "##icated": 9280,
      "यानी": 9281,
      "##गो": 9282,
      "##iah": 9283,
      "##गाह": 9284,
      "##चारी": 9285,
      "cash": 9286,
      "trying": 9287,
      "##दारों": 9288,
      "सिल": 9289,
      "प्रावधान": 9290,
      "doub": 9291,
      "model": 9292,
      "##elled": 9293,
      "bodies": 9294,
      "झू": 9295,
      "##पूर्व": 9296,
      "blood": 9297,
      "नागरिकों": 9298,
      "##विल": 9299,
      "लगाए": 9300,
      "chennai": 9301,
      "##ecially": 9302,
      "hot": 9303,
      "कथित": 9304,
      "सुल": 9305,
      "##घटना": 9306,
      "round": 9307,
      "##कोर्ट": 9308,
      "steps": 9309,
      "हल": 9310,
      "especially": 9311,
      "राजधान": 9312,
      "ताप": 9313,
      "पाकिस्तानी": 9314,
      "##ilater": 9315,
      "##urance": 9316,
      "##ining": 9317,
      "प्रबंध": 9318,
      "यूपी": 9319,
      "##da": 9320,
      "nom": 9321,
      "मस": 9322,
      "दुख": 9323,
      "reject": 9324,
      "प्राइ": 9325,
      "बिक्री": 9326,
      "experience": 9327,
      "##bers": 9328,
      "coal": 9329,
      "##पात": 9330,
      "prasad": 9331,
      "##ेप": 9332,
      "##going": 9333,
      "german": 9334,
      "##जाम": 9335,
      "enj": 9336,
      "लेते": 9337,
      "kejriwal": 9338,
      "गुप": 9339,
      "संगी": 9340,
      "song": 9341,
      "##ुनिक": 9342,
      "charac": 9343,
      "पल": 9344,
      "मुश्": 9345,
      "##बि": 9346,
      "tit": 9347,
      "export": 9348,
      "विकल्प": 9349,
      "##iant": 9350,
      "measures": 9351,
      "निर्मा": 9352,
      "huge": 9353,
      "दश": 9354,
      "शुल्क": 9355,
      "tourism": 9356,
      "named": 9357,
      "मेडिकल": 9358,
      "sik": 9359,
      "##essed": 9360,
      "cross": 9361,
      "electric": 9362,
      "आवा": 9363,
      "बें": 9364,
      "petrol": 9365,
      "##ूड": 9366,
      "तैना": 9367,
      "##वाय": 9368,
      "##others": 9369,
      "lower": 9370,
      "शासन": 9371,
      "##फार": 9372,
      "प्रदर्श": 9373,
      "appeal": 9374,
      "religious": 9375,
      "आपूर्ति": 9376,
      "रिलीज": 9377,
      "कोच": 9378,
      "tom": 9379,
      "प्री": 9380,
      "impact": 9381,
      "उत्प": 9382,
      "दुर्घटना": 9383,
      "बरामद": 9384,
      "पदक": 9385,
      "cultural": 9386,
      "टिप्प": 9387,
      "##इड": 9388,
      "इंज": 9389,
      "घट": 9390,
      "लौट": 9391,
      "smartphone": 9392,
      "ge": 9393,
      "emp": 9394,
      "chop": 9395,
      "उल": 9396,
      "##ensive": 9397,
      "तत्काल": 9398,
      "मॉडल": 9399,
      "descri": 9400,
      "शोध": 9401,
      "protect": 9402,
      "##edom": 9403,
      "राजधानी": 9404,
      "outside": 9405,
      "alm": 9406,
      "कौशल": 9407,
      "डिग्री": 9408,
      "सश": 9409,
      "##िरी": 9410,
      "क्रम": 9411,
      "games": 9412,
      "गोली": 9413,
      "##णिज": 9414,
      "involved": 9415,
      "बनाई": 9416,
      "wickets": 9417,
      "##iction": 9418,
      "सोम": 9419,
      "##थी": 9420,
      "groups": 9421,
      "%)": 9422,
      "broad": 9423,
      "responsibility": 9424,
      "kolk": 9425,
      "##च्‍": 9426,
      "billion": 9427,
      "टीवी": 9428,
      "उद्यम": 9429,
      "अनुप": 9430,
      "पुष्टि": 9431,
      "पारी": 9432,
      "corru": 9433,
      "दबा": 9434,
      "wel": 9435,
      "धी": 9436,
      "ill": 9437,
      "नै": 9438,
      "##क्सी": 9439,
      "पोर्ट": 9440,
      "harm": 9441,
      "alliance": 9442,
      "sense": 9443,
      "domestic": 9444,
      "खारिज": 9445,
      "गी": 9446,
      "ताल": 9447,
      "##ja": 9448,
      "digital": 9449,
      "प्रतिक्रिया": 9450,
      "##ॉम": 9451,
      "##दु": 9452,
      "शुक्र": 9453,
      "journal": 9454,
      "अरु": 9455,
      "रूस": 9456,
      "leading": 9457,
      "मैदान": 9458,
      "labour": 9459,
      "फ़िल": 9460,
      "concerned": 9461,
      "स्वर": 9462,
      "either": 9463,
      "##शाला": 9464,
      "rad": 9465,
      "##omp": 9466,
      "परिजनों": 9467,
      "merc": 9468,
      "require": 9469,
      "operations": 9470,
      "kolkata": 9471,
      "अय": 9472,
      "##धर": 9473,
      "##काता": 9474,
      "propos": 9475,
      "providing": 9476,
      "krish": 9477,
      "##action": 9478,
      "terrorism": 9479,
      "इलेक्ट्र": 9480,
      "##aud": 9481,
      "opportunity": 9482,
      "निर्वा": 9483,
      "aim": 9484,
      "##erved": 9485,
      "platform": 9486,
      "##ाब": 9487,
      "राज्यपाल": 9488,
      "indians": 9489,
      "punish": 9490,
      "europe": 9491,
      "fel": 9492,
      "इन्ह": 9493,
      "प्रसाद": 9494,
      "honour": 9495,
      "असर": 9496,
      "drug": 9497,
      "external": 9498,
      "दस": 9499,
      "दम": 9500,
      "पूर्वी": 9501,
      "aver": 9502,
      "scheduled": 9503,
      "exerc": 9504,
      "##श्चित": 9505,
      "agreement": 9506,
      "मेगाप": 9507,
      "giving": 9508,
      "गुरु": 9509,
      "हरा": 9510,
      "चंडी": 9511,
      "##inese": 9512,
      "वाणिज": 9513,
      "flight": 9514,
      "questions": 9515,
      "वकी": 9516,
      "##र्ण": 9517,
      "##ring": 9518,
      "bom": 9519,
      "##ांश": 9520,
      "##ilateral": 9521,
      "chinese": 9522,
      "##ोलन": 9523,
      "सहायक": 9524,
      "produc": 9525,
      "cell": 9526,
      "significant": 9527,
      "defe": 9528,
      "सीख": 9529,
      "##iers": 9530,
      "dece": 9531,
      "विशेषज्ञ": 9532,
      "resources": 9533,
      "morning": 9534,
      "traff": 9535,
      "निधन": 9536,
      "histor": 9537,
      "नती": 9538,
      "निगर": 9539,
      "looking": 9540,
      "##मार्": 9541,
      "हिंदू": 9542,
      "monday": 9543,
      "माँ": 9544,
      "ask": 9545,
      "modern": 9546,
      "संबंधों": 9547,
      "विशि": 9548,
      "##ष्‍ट्र": 9549,
      "देकर": 9550,
      "hd": 9551,
      "पाने": 9552,
      "जीएसटी": 9553,
      "सिक": 9554,
      "चालक": 9555,
      "ओवर": 9556,
      "##्रेड": 9557,
      "##्ति": 9558,
      "##मीन": 9559,
      "apply": 9560,
      "temper": 9561,
      "कोलकाता": 9562,
      "##ंदन": 9563,
      "##च्छेद": 9564,
      "##वर्क": 9565,
      "मुश्किल": 9566,
      "half": 9567,
      "##fall": 9568,
      "box": 9569,
      "आते": 9570,
      "remember": 9571,
      "बुरा": 9572,
      "friday": 9573,
      "afghan": 9574,
      "##hood": 9575,
      "हटा": 9576,
      "approved": 9577,
      "##ंखला": 9578,
      "निम्": 9579,
      "diesel": 9580,
      "जेट": 9581,
      "फिल्मों": 9582,
      "मात्रा": 9583,
      "मक": 9584,
      "रखी": 9585,
      "##द्दी": 9586,
      "##ार्मिक": 9587,
      "तुरंत": 9588,
      "##भार": 9589,
      "संस्कृति": 9590,
      "नो": 9591,
      "approv": 9592,
      "##ठा": 9593,
      "##ksh": 9594,
      "regular": 9595,
      "जानता": 9596,
      "century": 9597,
      "##्राम": 9598,
      "ones": 9599,
      "धार्मिक": 9600,
      "गठन": 9601,
      "##orters": 9602,
      "उपचार": 9603,
      "चेन्न": 9604,
      "##oke": 9605,
      "प्रेरित": 9606,
      "उम्र": 9607,
      "चीनी": 9608,
      "##ंडा": 9609,
      "emerg": 9610,
      "encour": 9611,
      "##श्न": 9612,
      "गुणव": 9613,
      "english": 9614,
      "implementation": 9615,
      "marria": 9616,
      "tweeted": 9617,
      "##वालों": 9618,
      "बहु": 9619,
      "चढ़": 9620,
      "congr": 9621,
      "##oid": 9622,
      "attend": 9623,
      "बेश": 9624,
      "##स्व": 9625,
      "स्टेशन": 9626,
      "कब": 9627,
      "लं": 9628,
      "निगरानी": 9629,
      "##पु": 9630,
      "निश्चित": 9631,
      "bcc": 9632,
      "##ugh": 9633,
      "मनो": 9634,
      "श्रील": 9635,
      "##oni": 9636,
      "grand": 9637,
      "##dp": 9638,
      "सुझा": 9639,
      "रब": 9640,
      "committed": 9641,
      "मुद्र": 9642,
      "दर्श": 9643,
      "religion": 9644,
      "##khand": 9645,
      "exchange": 9646,
      "##ke": 9647,
      "आयु": 9648,
      "पूछता": 9649,
      "gone": 9650,
      "cop": 9651,
      "speech": 9652,
      "\"\",": 9653,
      "स्वागत": 9654,
      "arch": 9655,
      "collect": 9656,
      "घंटे": 9657,
      "##onding": 9658,
      "##जिए": 9659,
      "संके": 9660,
      "श्रीलंका": 9661,
      "प्रती": 9662,
      "completed": 9663,
      "बुनिया": 9664,
      "enjoy": 9665,
      "facilities": 9666,
      "lodged": 9667,
      "मनुष": 9668,
      "forest": 9669,
      "##म्ब": 9670,
      "ven": 9671,
      "ग्राह": 9672,
      "considered": 9673,
      "travel": 9674,
      "kingdom": 9675,
      "आनंद": 9676,
      "##abor": 9677,
      "देखें": 9678,
      "music": 9679,
      "pakistani": 9680,
      "tradition": 9681,
      "lad": 9682,
      "गौ": 9683,
      "anim": 9684,
      "##कू": 9685,
      "text": 9686,
      "whose": 9687,
      "laws": 9688,
      "ep": 9689,
      "रहती": 9690,
      "john": 9691,
      "##iqu": 9692,
      "हिंदी": 9693,
      "acad": 9694,
      "conditions": 9695,
      "congrat": 9696,
      "mish": 9697,
      "zeal": 9698,
      "##tery": 9699,
      "भरोसा": 9700,
      "presented": 9701,
      "ji": 9702,
      "freedom": 9703,
      "निम्न": 9704,
      "चंडीगढ़": 9705,
      "attempt": 9706,
      "डिजिटल": 9707,
      "festival": 9708,
      "ready": 9709,
      "houses": 9710,
      "मेगापिक्सल": 9711,
      "dail": 9712,
      "##मो": 9713,
      "नाय": 9714,
      "उसको": 9715,
      "ton": 9716,
      "प्रकाशित": 9717,
      "सेट": 9718,
      "उपभो": 9719,
      "##apur": 9720,
      "wanted": 9721,
      "##oud": 9722,
      "##to": 9723,
      "##uru": 9724,
      "जीव": 9725,
      "##itment": 9726,
      "vehicle": 9727,
      "बैंकों": 9728,
      "pers": 9729,
      "##agram": 9730,
      "##chan": 9731,
      "##्ता": 9732,
      "##uel": 9733,
      "##ेह": 9734,
      "प्रतियोग": 9735,
      "स्वतंत्रता": 9736,
      "आशा": 9737,
      "जाय": 9738,
      "##ublic": 9739,
      "lock": 9740,
      "##जु": 9741,
      "##फारिश": 9742,
      "roles": 9743,
      "##गु": 9744,
      "##ृंखला": 9745,
      "##शिप": 9746,
      "anyone": 9747,
      "##quir": 9748,
      "govt": 9749,
      "##णे": 9750,
      "fed": 9751,
      "हालात": 9752,
      "##pped": 9753,
      "protection": 9754,
      "तारीख": 9755,
      "##ेंशन": 9756,
      "daily": 9757,
      "##igr": 9758,
      "चीज": 9759,
      "आंद": 9760,
      "##for": 9761,
      "##स्टम": 9762,
      "झार": 9763,
      "restr": 9764,
      "##bir": 9765,
      "##क्षीय": 9766,
      "खराब": 9767,
      "सफ": 9768,
      "उपरा": 9769,
      "सक्ष": 9770,
      "सत्ता": 9771,
      "गतिविधियों": 9772,
      "purpose": 9773,
      "increasing": 9774,
      "सिफारिश": 9775,
      "टिकट": 9776,
      "##्डी": 9777,
      "सकें": 9778,
      "relief": 9779,
      "गेंदबाज": 9780,
      "lib": 9781,
      "प्राधिक": 9782,
      "मैचों": 9783,
      "##बार": 9784,
      "crime": 9785,
      "सन्": 9786,
      "समु": 9787,
      "हाईकोर्ट": 9788,
      "clos": 9789,
      "republic": 9790,
      "इलाकों": 9791,
      "reform": 9792,
      "##ार्टम": 9793,
      "##नगर": 9794,
      "औद्योग": 9795,
      "bur": 9796,
      "jhar": 9797,
      "आतंकी": 9798,
      "##book": 9799,
      "##iter": 9800,
      "क्षेत्रीय": 9801,
      "##स्टर": 9802,
      "##ague": 9803,
      "complete": 9804,
      "gal": 9805,
      "status": 9806,
      "ज़ि": 9807,
      "##मति": 9808,
      "##iful": 9809,
      "तकनीकी": 9810,
      "खोल": 9811,
      "रोकने": 9812,
      "sac": 9813,
      "खुदा": 9814,
      "##सीआई": 9815,
      "##mc": 9816,
      "##्याज": 9817,
      "बाकी": 9818,
      "unit": 9819,
      "तीनों": 9820,
      "mad": 9821,
      "##ाचार": 9822,
      "##िवर्स": 9823,
      "समझौता": 9824,
      "cerem": 9825,
      "##osh": 9826,
      "नियुक्त": 9827,
      "अज": 9828,
      "located": 9829,
      "##लेट": 9830,
      "##belie": 9831,
      "plant": 9832,
      "गरीब": 9833,
      "##rah": 9834,
      "अनुरोध": 9835,
      "recorded": 9836,
      "regul": 9837,
      "बराबर": 9838,
      "फुट": 9839,
      "पव": 9840,
      "दौरे": 9841,
      "bcci": 9842,
      "gather": 9843,
      "instagram": 9844,
      "बातों": 9845,
      "राजनाथ": 9846,
      "हिमा": 9847,
      "शहरों": 9848,
      "passengers": 9849,
      "green": 9850,
      "डीजल": 9851,
      "##ably": 9852,
      "picture": 9853,
      "प्रारंभ": 9854,
      "पहुंचा": 9855,
      "dut": 9856,
      "##शाली": 9857,
      "संकट": 9858,
      "##aster": 9859,
      "##दाताओं": 9860,
      "sought": 9861,
      "thou": 9862,
      "arg": 9863,
      "intell": 9864,
      "प्रभावी": 9865,
      "जाति": 9866,
      "##ervation": 9867,
      "##अप": 9868,
      "batt": 9869,
      "मौका": 9870,
      "abd": 9871,
      "asia": 9872,
      "##हरे": 9873,
      "अफग": 9874,
      "addressing": 9875,
      "constituency": 9876,
      "किरदार": 9877,
      "courts": 9878,
      "redmi": 9879,
      "बीएस": 9880,
      "reven": 9881,
      "##मार्ग": 9882,
      "दस्ता": 9883,
      "प्रयासों": 9884,
      "बिग": 9885,
      "evidence": 9886,
      "talks": 9887,
      "बत": 9888,
      "revealed": 9889,
      "##ंतु": 9890,
      "motor": 9891,
      "##मु": 9892,
      "pain": 9893,
      "कहानी": 9894,
      "सक्षम": 9895,
      "कुर": 9896,
      "trial": 9897,
      "everything": 9898,
      "वायरल": 9899,
      "muslims": 9900,
      "##ियार": 9901,
      "kg": 9902,
      "late": 9903,
      "##यम": 9904,
      "अनुच्छेद": 9905,
      "रखना": 9906,
      "equal": 9907,
      "pack": 9908,
      "सुझाव": 9909,
      "आवास": 9910,
      "talk": 9911,
      "स्टार": 9912,
      "industries": 9913,
      "डो": 9914,
      "रॉय": 9915,
      "ca": 9916,
      "स्थानों": 9917,
      "##orrow": 9918,
      "despite": 9919,
      "आसान": 9920,
      "सुनी": 9921,
      "cur": 9922,
      "##come": 9923,
      "देती": 9924,
      "sale": 9925,
      "##पथ": 9926,
      "sea": 9927,
      "उठाए": 9928,
      "##ंकर": 9929,
      "मुझ": 9930,
      "monitor": 9931,
      "compared": 9932,
      "करार": 9933,
      "संस्थ": 9934,
      "pul": 9935,
      "##कारात्मक": 9936,
      "पूछताछ": 9937,
      "##सगढ़": 9938,
      "##दाता": 9939,
      "आपका": 9940,
      "##ously": 9941,
      "##raj": 9942,
      "ऊंच": 9943,
      "silver": 9944,
      "white": 9945,
      "पैसे": 9946,
      "संगीत": 9947,
      "code": 9948,
      "##दर": 9949,
      "जिनके": 9950,
      "rbi": 9951,
      "anil": 9952,
      "##्न": 9953,
      "specific": 9954,
      "funds": 9955,
      "घाय": 9956,
      "##jun": 9957,
      "लड़ाई": 9958,
      "सामग्री": 9959,
      "डेटा": 9960,
      "##ेगा": 9961,
      "##त्कार": 9962,
      "जिम्मेदारी": 9963,
      "प्राकृतिक": 9964,
      "nag": 9965,
      "चेन्नई": 9966,
      "ब्रिटेन": 9967,
      "मिलियन": 9968,
      "##मती": 9969,
      "##कल्प": 9970,
      "rule": 9971,
      "dre": 9972,
      "श्रेणी": 9973,
      "needed": 9974,
      "कार्यों": 9975,
      "bats": 9976,
      "##inated": 9977,
      "attr": 9978,
      "worship": 9979,
      "बेशक": 9980,
      "annual": 9981,
      "इंजीन": 9982,
      "##न्‍द्र": 9983,
      "मंगल": 9984,
      "##ोरेज": 9985,
      "##पक": 9986,
      "ग्राम": 9987,
      "पाल": 9988,
      "शूट": 9989,
      "फरार": 9990,
      "पोस्टमार्टम": 9991,
      "goods": 9992,
      "वाणिज्य": 9993,
      "iran": 9994,
      "सीटें": 9995,
      "network": 9996,
      "गुना": 9997,
      "rajnath": 9998,
      "jharkhand": 9999,
      "proph": 10000,
      "estim": 10001,
      "दवा": 10002,
      "assistance": 10003,
      "अक्ट": 10004,
      "##ini": 10005,
      "##डू": 10006,
      "कहने": 10007,
      "joined": 10008,
      "प्रतिबद्ध": 10009,
      "##anda": 10010,
      "cb": 10011,
      "जापान": 10012,
      "##वासियों": 10013,
      "इंद": 10014,
      "##opal": 10015,
      "मिलता": 10016,
      "दायर": 10017,
      "##iation": 10018,
      "घायलों": 10019,
      "पर्याप्त": 10020,
      "american": 10021,
      "pad": 10022,
      "british": 10023,
      "##वेद": 10024,
      "##ैर": 10025,
      "thats": 10026,
      "नियमों": 10027,
      "teachers": 10028,
      "nearly": 10029,
      "charges": 10030,
      "tur": 10031,
      "मुसल": 10032,
      "संस्थानों": 10033,
      "suic": 10034,
      "दस्तावे": 10035,
      "##्वा": 10036,
      "##श्‍": 10037,
      "##सिक": 10038,
      "लेना": 10039,
      "दाय": 10040,
      "##nam": 10041,
      "##न्ना": 10042,
      "cert": 10043,
      "##स्कृतिक": 10044,
      "shr": 10045,
      "मानना": 10046,
      "अक्टूबर": 10047,
      "कॉन्": 10048,
      "पीड़ित": 10049,
      "विशिष्ट": 10050,
      "neigh": 10051,
      "##iab": 10052,
      "##द्व": 10053,
      "neighb": 10054,
      "##itude": 10055,
      "औद्योगिक": 10056,
      "अनिल": 10057,
      "नेटवर्क": 10058,
      "इनके": 10059,
      "अक्": 10060,
      "worked": 10061,
      "spokesperson": 10062,
      "सर्वश": 10063,
      "prepared": 10064,
      "नये": 10065,
      "eastern": 10066,
      "रहें": 10067,
      "नयी": 10068,
      "flood": 10069,
      "provisions": 10070,
      "##्यूट": 10071,
      "adity": 10072,
      "aad": 10073,
      "division": 10074,
      "fif": 10075,
      "chan": 10076,
      "potential": 10077,
      "छत्ती": 10078,
      "रणनी": 10079,
      "profession": 10080,
      "##thern": 10081,
      "aksh": 10082,
      "बुनियादी": 10083,
      "अक्षय": 10084,
      "foundation": 10085,
      "consult": 10086,
      "separ": 10087,
      "drink": 10088,
      "rise": 10089,
      "amendment": 10090,
      "mir": 10091,
      "marriage": 10092,
      "##स्थिति": 10093,
      "हिमाचल": 10094,
      "schemes": 10095,
      "अपे": 10096,
[...]
